{
  "version": "1.0",
  "truncation": null,
  "padding": null,
  "added_tokens": [
    {
      "id": 0,
      "content": "[PAD]",
      "single_word": false,
      "lstrip": false,
      "rstrip": false,
      "normalized": false,
      "special": true
    },
    {
      "id": 1,
      "content": "[UNK]",
      "single_word": false,
      "lstrip": false,
      "rstrip": false,
      "normalized": false,
      "special": true
    },
    {
      "id": 2,
      "content": "[CLS]",
      "single_word": false,
      "lstrip": false,
      "rstrip": false,
      "normalized": false,
      "special": true
    },
    {
      "id": 3,
      "content": "[SEP]",
      "single_word": false,
      "lstrip": false,
      "rstrip": false,
      "normalized": false,
      "special": true
    },
    {
      "id": 4,
      "content": "[MASK]",
      "single_word": false,
      "lstrip": false,
      "rstrip": false,
      "normalized": false,
      "special": true
    }
  ],
  "normalizer": {
    "type": "BertNormalizer",
    "clean_text": true,
    "handle_chinese_chars": true,
    "strip_accents": null,
    "lowercase": true
  },
  "pre_tokenizer": {
    "type": "BertPreTokenizer"
  },
  "post_processor": {
    "type": "TemplateProcessing",
    "single": [
      {
        "SpecialToken": {
          "id": "[CLS]",
          "type_id": 0
        }
      },
      {
        "Sequence": {
          "id": "A",
          "type_id": 0
        }
      },
      {
        "SpecialToken": {
          "id": "[SEP]",
          "type_id": 0
        }
      }
    ],
    "pair": [
      {
        "SpecialToken": {
          "id": "[CLS]",
          "type_id": 0
        }
      },
      {
        "Sequence": {
          "id": "A",
          "type_id": 0
        }
      },
      {
        "SpecialToken": {
          "id": "[SEP]",
          "type_id": 0
        }
      },
      {
        "Sequence": {
          "id": "B",
          "type_id": 1
        }
      },
      {
        "SpecialToken": {
          "id": "[SEP]",
          "type_id": 1
        }
      }
    ],
    "special_tokens": {
      "[CLS]": {
        "id": "[CLS]",
        "ids": [
          2
        ],
        "tokens": [
          "[CLS]"
        ]
      },
      "[SEP]": {
        "id": "[SEP]",
        "ids": [
          3
        ],
        "tokens": [
          "[SEP]"
        ]
      }
    }
  },
  "decoder": {
    "type": "WordPiece",
    "prefix": "##",
    "cleanup": true
  },
  "model": {
    "type": "WordPiece",
    "unk_token": "[UNK]",
    "continuing_subword_prefix": "##",
    "max_input_chars_per_word": 100,
    "vocab": {
      "[PAD]": 0,
      "[UNK]": 1,
      "[CLS]": 2,
      "[SEP]": 3,
      "[MASK]": 4,
      "!": 5,
      "#": 6,
      "$": 7,
      "%": 8,
      "&": 9,
      "'": 10,
      "(": 11,
      ")": 12,
      "*": 13,
      "+": 14,
      ",": 15,
      "-": 16,
      ".": 17,
      "/": 18,
      "0": 19,
      "1": 20,
      "2": 21,
      "3": 22,
      "4": 23,
      "5": 24,
      "6": 25,
      "7": 26,
      "8": 27,
      "9": 28,
      ":": 29,
      ";": 30,
      "<": 31,
      "=": 32,
      ">": 33,
      "?": 34,
      "@": 35,
      "[": 36,
      "\\": 37,
      "]": 38,
      "^": 39,
      "_": 40,
      "`": 41,
      "a": 42,
      "b": 43,
      "c": 44,
      "d": 45,
      "e": 46,
      "f": 47,
      "g": 48,
      "h": 49,
      "i": 50,
      "j": 51,
      "k": 52,
      "l": 53,
      "m": 54,
      "n": 55,
      "o": 56,
      "p": 57,
      "q": 58,
      "r": 59,
      "s": 60,
      "t": 61,
      "u": 62,
      "v": 63,
      "w": 64,
      "x": 65,
      "y": 66,
      "z": 67,
      "{": 68,
      "|": 69,
      "}": 70,
      "~": 71,
      "¡": 72,
      "¢": 73,
      "£": 74,
      "¤": 75,
      "¥": 76,
      "¦": 77,
      "§": 78,
      "¨": 79,
      "©": 80,
      "ª": 81,
      "«": 82,
      "¬": 83,
      "®": 84,
      "¯": 85,
      "°": 86,
      "±": 87,
      "²": 88,
      "³": 89,
      "´": 90,
      "µ": 91,
      "¶": 92,
      "·": 93,
      "¸": 94,
      "¹": 95,
      "º": 96,
      "»": 97,
      "¼": 98,
      "½": 99,
      "¾": 100,
      "¿": 101,
      "×": 102,
      "ß": 103,
      "æ": 104,
      "ð": 105,
      "÷": 106,
      "ø": 107,
      "þ": 108,
      "đ": 109,
      "ħ": 110,
      "ı": 111,
      "ł": 112,
      "ŋ": 113,
      "œ": 114,
      "ŧ": 115,
      "ſ": 116,
      "ƃ": 117,
      "ƈ": 118,
      "ƒ": 119,
      "ƭ": 120,
      "ƹ": 121,
      "ǀ": 122,
      "ǁ": 123,
      "ǂ": 124,
      "ǃ": 125,
      "ǝ": 126,
      "ȝ": 127,
      "ɐ": 128,
      "ɑ": 129,
      "ɒ": 130,
      "ɓ": 131,
      "ɔ": 132,
      "ɕ": 133,
      "ɖ": 134,
      "ɘ": 135,
      "ə": 136,
      "ɚ": 137,
      "ɛ": 138,
      "ɜ": 139,
      "ɝ": 140,
      "ɟ": 141,
      "ɠ": 142,
      "ɡ": 143,
      "ɣ": 144,
      "ɤ": 145,
      "ɥ": 146,
      "ɦ": 147,
      "ɧ": 148,
      "ɨ": 149,
      "ɩ": 150,
      "ɪ": 151,
      "ɫ": 152,
      "ɬ": 153,
      "ɭ": 154,
      "ɯ": 155,
      "ɱ": 156,
      "ɲ": 157,
      "ɳ": 158,
      "ɴ": 159,
      "ɵ": 160,
      "ɷ": 161,
      "ɹ": 162,
      "ɻ": 163,
      "ɽ": 164,
      "ɾ": 165,
      "ɿ": 166,
      "ʀ": 167,
      "ʁ": 168,
      "ʂ": 169,
      "ʃ": 170,
      "ʇ": 171,
      "ʈ": 172,
      "ʉ": 173,
      "ʊ": 174,
      "ʋ": 175,
      "ʌ": 176,
      "ʎ": 177,
      "ʏ": 178,
      "ʑ": 179,
      "ʒ": 180,
      "ʔ": 181,
      "ʕ": 182,
      "ʜ": 183,
      "ʝ": 184,
      "ʤ": 185,
      "ʪ": 186,
      "ʫ": 187,
      "ʰ": 188,
      "ʱ": 189,
      "ʲ": 190,
      "ʳ": 191,
      "ʷ": 192,
      "ʹ": 193,
      "ʺ": 194,
      "ʻ": 195,
      "ʼ": 196,
      "ʽ": 197,
      "ʾ": 198,
      "ʿ": 199,
      "ˀ": 200,
      "ˁ": 201,
      "˃": 202,
      "˄": 203,
      "˅": 204,
      "ˆ": 205,
      "ˇ": 206,
      "ˈ": 207,
      "ˉ": 208,
      "ˊ": 209,
      "ˌ": 210,
      "ː": 211,
      "ˑ": 212,
      "˘": 213,
      "˙": 214,
      "˚": 215,
      "˛": 216,
      "˜": 217,
      "˝": 218,
      "˟": 219,
      "ˠ": 220,
      "ˢ": 221,
      "ˣ": 222,
      "ˤ": 223,
      "˥": 224,
      "˦": 225,
      "˧": 226,
      "˨": 227,
      "˩": 228,
      "ˮ": 229,
      "˻": 230,
      "˼": 231,
      "΄": 232,
      "α": 233,
      "β": 234,
      "γ": 235,
      "δ": 236,
      "ε": 237,
      "ζ": 238,
      "η": 239,
      "θ": 240,
      "ι": 241,
      "κ": 242,
      "λ": 243,
      "μ": 244,
      "ν": 245,
      "ξ": 246,
      "ο": 247,
      "π": 248,
      "ρ": 249,
      "ς": 250,
      "σ": 251,
      "τ": 252,
      "υ": 253,
      "φ": 254,
      "χ": 255,
      "ψ": 256,
      "ω": 257,
      "ϐ": 258,
      "ϑ": 259,
      "ϕ": 260,
      "ϝ": 261,
      "ϟ": 262,
      "ϩ": 263,
      "ϰ": 264,
      "ϵ": 265,
      "а": 266,
      "б": 267,
      "в": 268,
      "г": 269,
      "д": 270,
      "е": 271,
      "ж": 272,
      "з": 273,
      "и": 274,
      "к": 275,
      "л": 276,
      "м": 277,
      "н": 278,
      "о": 279,
      "п": 280,
      "р": 281,
      "с": 282,
      "т": 283,
      "у": 284,
      "ф": 285,
      "х": 286,
      "ц": 287,
      "ч": 288,
      "ш": 289,
      "щ": 290,
      "ъ": 291,
      "ы": 292,
      "ь": 293,
      "э": 294,
      "ю": 295,
      "я": 296,
      "ђ": 297,
      "є": 298,
      "ѕ": 299,
      "і": 300,
      "ј": 301,
      "љ": 302,
      "њ": 303,
      "ћ": 304,
      "ѣ": 305,
      "ѱ": 306,
      "ґ": 307,
      "қ": 308,
      "ҩ": 309,
      "ү": 310,
      "ҽ": 311,
      "ӏ": 312,
      "ӕ": 313,
      "ә": 314,
      "ө": 315,
      "ԁ": 316,
      "ԍ": 317,
      "ԩ": 318,
      "ա": 319,
      "բ": 320,
      "գ": 321,
      "դ": 322,
      "ե": 323,
      "է": 324,
      "ժ": 325,
      "ի": 326,
      "լ": 327,
      "խ": 328,
      "ծ": 329,
      "կ": 330,
      "հ": 331,
      "ձ": 332,
      "ղ": 333,
      "մ": 334,
      "յ": 335,
      "ն": 336,
      "շ": 337,
      "ո": 338,
      "պ": 339,
      "ռ": 340,
      "ս": 341,
      "վ": 342,
      "տ": 343,
      "ր": 344,
      "ց": 345,
      "ւ": 346,
      "փ": 347,
      "ք": 348,
      "ֆ": 349,
      "և": 350,
      "־": 351,
      "א": 352,
      "ב": 353,
      "ג": 354,
      "ד": 355,
      "ה": 356,
      "ו": 357,
      "ז": 358,
      "ח": 359,
      "ט": 360,
      "י": 361,
      "ך": 362,
      "כ": 363,
      "ל": 364,
      "ם": 365,
      "מ": 366,
      "ן": 367,
      "נ": 368,
      "ס": 369,
      "ע": 370,
      "ף": 371,
      "פ": 372,
      "ץ": 373,
      "צ": 374,
      "ק": 375,
      "ר": 376,
      "ש": 377,
      "ת": 378,
      "װ": 379,
      "ױ": 380,
      "ײ": 381,
      "׳": 382,
      "״": 383,
      "،": 384,
      "ء": 385,
      "ا": 386,
      "ب": 387,
      "ة": 388,
      "ت": 389,
      "ث": 390,
      "ج": 391,
      "ح": 392,
      "خ": 393,
      "د": 394,
      "ذ": 395,
      "ر": 396,
      "ز": 397,
      "س": 398,
      "ش": 399,
      "ص": 400,
      "ض": 401,
      "ط": 402,
      "ظ": 403,
      "ع": 404,
      "غ": 405,
      "ـ": 406,
      "ف": 407,
      "ق": 408,
      "ك": 409,
      "ل": 410,
      "م": 411,
      "ن": 412,
      "ه": 413,
      "و": 414,
      "ى": 415,
      "ي": 416,
      "٠": 417,
      "٢": 418,
      "٤": 419,
      "٥": 420,
      "٬": 421,
      "٭": 422,
      "ٱ": 423,
      "ٹ": 424,
      "پ": 425,
      "چ": 426,
      "ڈ": 427,
      "ڑ": 428,
      "ژ": 429,
      "ک": 430,
      "ڪ": 431,
      "ڬ": 432,
      "گ": 433,
      "ڵ": 434,
      "ں": 435,
      "ڼ": 436,
      "ھ": 437,
      "ہ": 438,
      "ۆ": 439,
      "ۇ": 440,
      "ی": 441,
      "ێ": 442,
      "ې": 443,
      "ے": 444,
      "۔": 445,
      "ە": 446,
      "۞": 447,
      "ۥ": 448,
      "ܐ": 449,
      "ܓ": 450,
      "ܕ": 451,
      "ܗ": 452,
      "ܘ": 453,
      "ܝ": 454,
      "ܠ": 455,
      "ܡ": 456,
      "ܢ": 457,
      "ܣ": 458,
      "ܪ": 459,
      "ܬ": 460,
      "ހ": 461,
      "ވ": 462,
      "މ": 463,
      "ދ": 464,
      "ލ": 465,
      "ः": 466,
      "अ": 467,
      "आ": 468,
      "इ": 469,
      "ई": 470,
      "उ": 471,
      "ऊ": 472,
      "ऋ": 473,
      "ए": 474,
      "ऐ": 475,
      "ऑ": 476,
      "औ": 477,
      "क": 478,
      "ख": 479,
      "ग": 480,
      "घ": 481,
      "ङ": 482,
      "च": 483,
      "छ": 484,
      "ज": 485,
      "झ": 486,
      "ञ": 487,
      "ट": 488,
      "ठ": 489,
      "ड": 490,
      "ढ": 491,
      "ण": 492,
      "त": 493,
      "थ": 494,
      "द": 495,
      "ध": 496,
      "न": 497,
      "प": 498,
      "फ": 499,
      "ब": 500,
      "भ": 501,
      "म": 502,
      "य": 503,
      "र": 504,
      "ल": 505,
      "व": 506,
      "श": 507,
      "ष": 508,
      "स": 509,
      "ह": 510,
      "ा": 511,
      "ि": 512,
      "ी": 513,
      "ॉ": 514,
      "ो": 515,
      "ौ": 516,
      "ॐ": 517,
      "।": 518,
      "॥": 519,
      "ং": 520,
      "অ": 521,
      "আ": 522,
      "ই": 523,
      "উ": 524,
      "ও": 525,
      "ক": 526,
      "খ": 527,
      "গ": 528,
      "জ": 529,
      "ট": 530,
      "ঠ": 531,
      "ড": 532,
      "ত": 533,
      "থ": 534,
      "দ": 535,
      "ধ": 536,
      "ন": 537,
      "প": 538,
      "ফ": 539,
      "ব": 540,
      "ভ": 541,
      "ম": 542,
      "য": 543,
      "র": 544,
      "ল": 545,
      "঵": 546,
      "শ": 547,
      "ষ": 548,
      "স": 549,
      "হ": 550,
      "া": 551,
      "ি": 552,
      "ী": 553,
      "ে": 554,
      "ৰ": 555,
      "ৱ": 556,
      "৳": 557,
      "ਅ": 558,
      "ਆ": 559,
      "ਕ": 560,
      "ਖ": 561,
      "ਜ": 562,
      "ਠ": 563,
      "ਡ": 564,
      "ਤ": 565,
      "ਥ": 566,
      "ਧ": 567,
      "ਨ": 568,
      "ਮ": 569,
      "ਯ": 570,
      "ਰ": 571,
      "ਲ": 572,
      "ਵ": 573,
      "ਸ": 574,
      "ਾ": 575,
      "ਿ": 576,
      "ੀ": 577,
      "੝": 578,
      "અ": 579,
      "આ": 580,
      "ક": 581,
      "ગ": 582,
      "જ": 583,
      "ઠ": 584,
      "ડ": 585,
      "ત": 586,
      "થ": 587,
      "ધ": 588,
      "ન": 589,
      "મ": 590,
      "ય": 591,
      "ર": 592,
      "લ": 593,
      "વ": 594,
      "શ": 595,
      "ષ": 596,
      "સ": 597,
      "ા": 598,
      "િ": 599,
      "ી": 600,
      "ો": 601,
      "ଏ": 602,
      "କ": 603,
      "ଟ": 604,
      "ତ": 605,
      "ମ": 606,
      "ର": 607,
      "ଲ": 608,
      "ଷ": 609,
      "ସ": 610,
      "ହ": 611,
      "ା": 612,
      "େ": 613,
      "அ": 614,
      "ஆ": 615,
      "உ": 616,
      "ஒ": 617,
      "க": 618,
      "ங": 619,
      "ச": 620,
      "ஜ": 621,
      "ட": 622,
      "ண": 623,
      "த": 624,
      "ந": 625,
      "ன": 626,
      "ப": 627,
      "ம": 628,
      "ய": 629,
      "ர": 630,
      "ற": 631,
      "ல": 632,
      "ள": 633,
      "ழ": 634,
      "வ": 635,
      "ஷ": 636,
      "ஸ": 637,
      "ா": 638,
      "ி": 639,
      "ு": 640,
      "ூ": 641,
      "ெ": 642,
      "ே": 643,
      "ை": 644,
      "ௗ": 645,
      "అ": 646,
      "ఆ": 647,
      "ఉ": 648,
      "క": 649,
      "గ": 650,
      "జ": 651,
      "ట": 652,
      "ఠ": 653,
      "త": 654,
      "థ": 655,
      "ద": 656,
      "ధ": 657,
      "న": 658,
      "ప": 659,
      "మ": 660,
      "య": 661,
      "ర": 662,
      "ల": 663,
      "వ": 664,
      "శ": 665,
      "ష": 666,
      "స": 667,
      "ు": 668,
      "ಂ": 669,
      "ಅ": 670,
      "ಆ": 671,
      "ಕ": 672,
      "ಗ": 673,
      "ಜ": 674,
      "ಠ": 675,
      "ಡ": 676,
      "ತ": 677,
      "ಥ": 678,
      "ಧ": 679,
      "ನ": 680,
      "ಪ": 681,
      "ಬ": 682,
      "ಮ": 683,
      "ಯ": 684,
      "ರ": 685,
      "ಳ": 686,
      "ವ": 687,
      "ಶ": 688,
      "ಷ": 689,
      "ಸ": 690,
      "ಾ": 691,
      "ು": 692,
      "ೂ": 693,
      "ೕ": 694,
      "ം": 695,
      "അ": 696,
      "ആ": 697,
      "എ": 698,
      "ഓ": 699,
      "ക": 700,
      "ച": 701,
      "ജ": 702,
      "ഠ": 703,
      "ണ": 704,
      "ത": 705,
      "ഥ": 706,
      "ധ": 707,
      "ന": 708,
      "പ": 709,
      "മ": 710,
      "യ": 711,
      "ര": 712,
      "റ": 713,
      "ല": 714,
      "ള": 715,
      "വ": 716,
      "ശ": 717,
      "ഷ": 718,
      "സ": 719,
      "ാ": 720,
      "ി": 721,
      "ീ": 722,
      "െ": 723,
      "േ": 724,
      "൐": 725,
      "൜": 726,
      "ൡ": 727,
      "൥": 728,
      "൧": 729,
      "൩": 730,
      "൮": 731,
      "൯": 732,
      "൳": 733,
      "൴": 734,
      "൵": 735,
      "අ": 736,
      "ඇ": 737,
      "ඊ": 738,
      "ක": 739,
      "ග": 740,
      "ට": 741,
      "ත": 742,
      "ද": 743,
      "න": 744,
      "ප": 745,
      "බ": 746,
      "ම": 747,
      "ඹ": 748,
      "ය": 749,
      "ර": 750,
      "ල": 751,
      "ව": 752,
      "ෂ": 753,
      "ස": 754,
      "හ": 755,
      "ළ": 756,
      "ා": 757,
      "ැ": 758,
      "ෙ": 759,
      "ก": 760,
      "ข": 761,
      "ค": 762,
      "ง": 763,
      "จ": 764,
      "ช": 765,
      "ซ": 766,
      "ฐ": 767,
      "ณ": 768,
      "ด": 769,
      "ต": 770,
      "ถ": 771,
      "ท": 772,
      "ธ": 773,
      "น": 774,
      "บ": 775,
      "ป": 776,
      "ผ": 777,
      "ฝ": 778,
      "พ": 779,
      "ฟ": 780,
      "ภ": 781,
      "ม": 782,
      "ย": 783,
      "ร": 784,
      "ฤ": 785,
      "ล": 786,
      "ว": 787,
      "ศ": 788,
      "ษ": 789,
      "ส": 790,
      "ห": 791,
      "อ": 792,
      "ฮ": 793,
      "ะ": 794,
      "า": 795,
      "ำ": 796,
      "฿": 797,
      "เ": 798,
      "แ": 799,
      "โ": 800,
      "ใ": 801,
      "ไ": 802,
      "๏": 803,
      "๑": 804,
      "๒": 805,
      "ກ": 806,
      "ຈ": 807,
      "ທ": 808,
      "ນ": 809,
      "າ": 810,
      "ໃ": 811,
      "་": 812,
      "།": 813,
      "༼": 814,
      "༽": 815,
      "ག": 816,
      "ང": 817,
      "ཇ": 818,
      "ཐ": 819,
      "པ": 820,
      "བ": 821,
      "མ": 822,
      "ལ": 823,
      "ས": 824,
      "က": 825,
      "င": 826,
      "ည": 827,
      "ဋ": 828,
      "တ": 829,
      "န": 830,
      "ပ": 831,
      "ဗ": 832,
      "ဘ": 833,
      "မ": 834,
      "ရ": 835,
      "လ": 836,
      "ဝ": 837,
      "သ": 838,
      "ဟ": 839,
      "အ": 840,
      "ဣ": 841,
      "ဧ": 842,
      "ါ": 843,
      "ာ": 844,
      "ေ": 845,
      "း": 846,
      "ျ": 847,
      "ြ": 848,
      "ა": 849,
      "ბ": 850,
      "გ": 851,
      "დ": 852,
      "ე": 853,
      "ვ": 854,
      "ზ": 855,
      "თ": 856,
      "ი": 857,
      "კ": 858,
      "ლ": 859,
      "მ": 860,
      "ნ": 861,
      "ო": 862,
      "პ": 863,
      "რ": 864,
      "ს": 865,
      "ტ": 866,
      "უ": 867,
      "ქ": 868,
      "ღ": 869,
      "ც": 870,
      "ძ": 871,
      "ჭ": 872,
      "ხ": 873,
      "ᄀ": 874,
      "ᄁ": 875,
      "ᄂ": 876,
      "ᄃ": 877,
      "ᄄ": 878,
      "ᄅ": 879,
      "ᄆ": 880,
      "ᄇ": 881,
      "ᄈ": 882,
      "ᄉ": 883,
      "ᄊ": 884,
      "ᄋ": 885,
      "ᄌ": 886,
      "ᄍ": 887,
      "ᄎ": 888,
      "ᄏ": 889,
      "ᄐ": 890,
      "ᄑ": 891,
      "ᄒ": 892,
      "ᄽ": 893,
      "ᅡ": 894,
      "ᅢ": 895,
      "ᅣ": 896,
      "ᅥ": 897,
      "ᅦ": 898,
      "ᅧ": 899,
      "ᅨ": 900,
      "ᅩ": 901,
      "ᅪ": 902,
      "ᅬ": 903,
      "ᅭ": 904,
      "ᅮ": 905,
      "ᅯ": 906,
      "ᅱ": 907,
      "ᅲ": 908,
      "ᅳ": 909,
      "ᅴ": 910,
      "ᅵ": 911,
      "ᆨ": 912,
      "ᆩ": 913,
      "ᆫ": 914,
      "ᆯ": 915,
      "ᆶ": 916,
      "ᆷ": 917,
      "ᆸ": 918,
      "ᆹ": 919,
      "ᆺ": 920,
      "ᆻ": 921,
      "ᆼ": 922,
      "ᆾ": 923,
      "ᇀ": 924,
      "ᇻ": 925,
      "ᇾ": 926,
      "ሃ": 927,
      "ለ": 928,
      "ሉ": 929,
      "ሊ": 930,
      "ላ": 931,
      "ል": 932,
      "ሐ": 933,
      "መ": 934,
      "ማ": 935,
      "ም": 936,
      "ሞ": 937,
      "ረ": 938,
      "ሪ": 939,
      "ራ": 940,
      "ሬ": 941,
      "ር": 942,
      "ሰ": 943,
      "ሲ": 944,
      "ስ": 945,
      "ሻ": 946,
      "ቕ": 947,
      "በ": 948,
      "ባ": 949,
      "ብ": 950,
      "ታ": 951,
      "ት": 952,
      "ች": 953,
      "ነ": 954,
      "ና": 955,
      "ን": 956,
      "ኛ": 957,
      "አ": 958,
      "ኢ": 959,
      "ኣ": 960,
      "ኤ": 961,
      "እ": 962,
      "ክ": 963,
      "ዊ": 964,
      "ዋ": 965,
      "ው": 966,
      "ዎ": 967,
      "ዓ": 968,
      "ዘ": 969,
      "ዛ": 970,
      "ዝ": 971,
      "የ": 972,
      "ያ": 973,
      "ይ": 974,
      "ዮ": 975,
      "ደ": 976,
      "ዲ": 977,
      "ዳ": 978,
      "ዴ": 979,
      "ድ": 980,
      "ጀ": 981,
      "ጅ": 982,
      "ገ": 983,
      "ጋ": 984,
      "ግ": 985,
      "ጣ": 986,
      "ጥ": 987,
      "ጵ": 988,
      "ፊ": 989,
      "ፋ": 990,
      "ፌ": 991,
      "ፍ": 992,
      "ፐ": 993,
      "።": 994,
      "ᏸ": 995,
      "ᏹ": 996,
      "ᏼ": 997,
      "ᐃ": 998,
      "ᐅ": 999,
      "ᐊ": 1000,
      "ᑐ": 1001,
      "ᑕ": 1002,
      "ᑦ": 1003,
      "ᑲ": 1004,
      "ᒃ": 1005,
      "ᒥ": 1006,
      "ᒪ": 1007,
      "ᓄ": 1008,
      "ᓇ": 1009,
      "ᓗ": 1010,
      "ᕐ": 1011,
      "ᖁ": 1012,
      "ᖃ": 1013,
      "ᖅ": 1014,
      "ᖕ": 1015,
      "ᗅ": 1016,
      "ᗷ": 1017,
      "ᗺ": 1018,
      "ᙳ": 1019,
      "ᚫ": 1020,
      "ᛟ": 1021,
      "ក": 1022,
      "គ": 1023,
      "ឃ": 1024,
      "ង": 1025,
      "ជ": 1026,
      "ត": 1027,
      "ទ": 1028,
      "ធ": 1029,
      "ន": 1030,
      "ប": 1031,
      "ព": 1032,
      "ម": 1033,
      "យ": 1034,
      "រ": 1035,
      "ល": 1036,
      "វ": 1037,
      "ស": 1038,
      "ហ": 1039,
      "អ": 1040,
      "ា": 1041,
      "េ": 1042,
      "ោ": 1043,
      "ៈ": 1044,
      "៛": 1045,
      "ᬩ": 1046,
      "ᬮ": 1047,
      "ᴇ": 1048,
      "ᵉ": 1049,
      "ᵊ": 1050,
      "ᵑ": 1051,
      "ᵒ": 1052,
      "ᵗ": 1053,
      "ᵝ": 1054,
      "ᵻ": 1055,
      "ᵿ": 1056,
      "‐": 1057,
      "‑": 1058,
      "‒": 1059,
      "–": 1060,
      "—": 1061,
      "―": 1062,
      "‖": 1063,
      "‗": 1064,
      "‘": 1065,
      "’": 1066,
      "‚": 1067,
      "‛": 1068,
      "“": 1069,
      "”": 1070,
      "„": 1071,
      "‟": 1072,
      "†": 1073,
      "‡": 1074,
      "•": 1075,
      "‣": 1076,
      "․": 1077,
      "‥": 1078,
      "…": 1079,
      "‧": 1080,
      "‰": 1081,
      "‱": 1082,
      "′": 1083,
      "″": 1084,
      "‴": 1085,
      "‸": 1086,
      "‹": 1087,
      "›": 1088,
      "※": 1089,
      "‼": 1090,
      "‽": 1091,
      "‿": 1092,
      "⁁": 1093,
      "⁂": 1094,
      "⁄": 1095,
      "⁊": 1096,
      "⁎": 1097,
      "⁓": 1098,
      "⁕": 1099,
      "⁖": 1100,
      "⁗": 1101,
      "⁰": 1102,
      "ⁱ": 1103,
      "⁴": 1104,
      "⁵": 1105,
      "⁶": 1106,
      "⁷": 1107,
      "⁸": 1108,
      "⁹": 1109,
      "⁺": 1110,
      "⁻": 1111,
      "ⁿ": 1112,
      "₀": 1113,
      "₁": 1114,
      "₂": 1115,
      "₃": 1116,
      "₄": 1117,
      "₅": 1118,
      "₆": 1119,
      "₇": 1120,
      "₈": 1121,
      "₠": 1122,
      "₡": 1123,
      "₢": 1124,
      "₣": 1125,
      "₤": 1126,
      "₥": 1127,
      "₦": 1128,
      "₨": 1129,
      "₩": 1130,
      "₪": 1131,
      "₫": 1132,
      "€": 1133,
      "₮": 1134,
      "₱": 1135,
      "₴": 1136,
      "₵": 1137,
      "₹": 1138,
      "₽": 1139,
      "⃝": 1140,
      "⃣": 1141,
      "ℂ": 1142,
      "℃": 1143,
      "℉": 1144,
      "ℏ": 1145,
      "ℓ": 1146,
      "℔": 1147,
      "ℕ": 1148,
      "№": 1149,
      "℗": 1150,
      "℘": 1151,
      "ℙ": 1152,
      "ℚ": 1153,
      "ℝ": 1154,
      "℞": 1155,
      "℠": 1156,
      "℡": 1157,
      "™": 1158,
      "ℤ": 1159,
      "℥": 1160,
      "℧": 1161,
      "ℭ": 1162,
      "ℵ": 1163,
      "ⅈ": 1164,
      "⅍": 1165,
      "⅐": 1166,
      "⅑": 1167,
      "⅒": 1168,
      "⅓": 1169,
      "⅔": 1170,
      "⅕": 1171,
      "⅙": 1172,
      "⅛": 1173,
      "⅜": 1174,
      "⅝": 1175,
      "⅞": 1176,
      "⅟": 1177,
      "ⅴ": 1178,
      "ⅹ": 1179,
      "←": 1180,
      "↑": 1181,
      "→": 1182,
      "↓": 1183,
      "↔": 1184,
      "↕": 1185,
      "↗": 1186,
      "↘": 1187,
      "↙": 1188,
      "↢": 1189,
      "↣": 1190,
      "↥": 1191,
      "↦": 1192,
      "↨": 1193,
      "↩": 1194,
      "↪": 1195,
      "↫": 1196,
      "↬": 1197,
      "↳": 1198,
      "↵": 1199,
      "↹": 1200,
      "↺": 1201,
      "⇄": 1202,
      "⇆": 1203,
      "⇇": 1204,
      "⇉": 1205,
      "⇋": 1206,
      "⇌": 1207,
      "⇐": 1208,
      "⇑": 1209,
      "⇒": 1210,
      "⇓": 1211,
      "⇔": 1212,
      "⇤": 1213,
      "⇥": 1214,
      "⇧": 1215,
      "⇨": 1216,
      "⇪": 1217,
      "⇭": 1218,
      "∀": 1219,
      "∂": 1220,
      "∃": 1221,
      "∅": 1222,
      "∆": 1223,
      "∇": 1224,
      "∈": 1225,
      "∊": 1226,
      "∋": 1227,
      "∏": 1228,
      "∑": 1229,
      "−": 1230,
      "∕": 1231,
      "∗": 1232,
      "∘": 1233,
      "∙": 1234,
      "√": 1235,
      "∛": 1236,
      "∝": 1237,
      "∞": 1238,
      "∟": 1239,
      "∠": 1240,
      "∥": 1241,
      "∧": 1242,
      "∨": 1243,
      "∩": 1244,
      "∪": 1245,
      "∫": 1246,
      "∬": 1247,
      "∴": 1248,
      "∼": 1249,
      "≅": 1250,
      "≆": 1251,
      "≈": 1252,
      "≝": 1253,
      "≡": 1254,
      "≤": 1255,
      "≥": 1256,
      "≦": 1257,
      "≧": 1258,
      "≪": 1259,
      "≫": 1260,
      "⊂": 1261,
      "⊃": 1262,
      "⊆": 1263,
      "⊇": 1264,
      "⊕": 1265,
      "⊖": 1266,
      "⊗": 1267,
      "⊘": 1268,
      "⊙": 1269,
      "⊛": 1270,
      "⊝": 1271,
      "⊞": 1272,
      "⊥": 1273,
      "⊨": 1274,
      "⊲": 1275,
      "⊸": 1276,
      "⋀": 1277,
      "⋁": 1278,
      "⋅": 1279,
      "⋆": 1280,
      "⋮": 1281,
      "⋯": 1282,
      "⌂": 1283,
      "⌃": 1284,
      "⌊": 1285,
      "⌋": 1286,
      "⌕": 1287,
      "⌘": 1288,
      "⌚": 1289,
      "⌞": 1290,
      "⌥": 1291,
      "⌦": 1292,
      "⌬": 1293,
      "⎙": 1294,
      "⎛": 1295,
      "⎜": 1296,
      "⎝": 1297,
      "⎞": 1298,
      "⎟": 1299,
      "⎠": 1300,
      "⎡": 1301,
      "⎢": 1302,
      "⎣": 1303,
      "⎤": 1304,
      "⎥": 1305,
      "⎦": 1306,
      "⎧": 1307,
      "⎨": 1308,
      "⎩": 1309,
      "⎯": 1310,
      "⎷": 1311,
      "⏎": 1312,
      "⏏": 1313,
      "⏣": 1314,
      "⏰": 1315,
      "␡": 1316,
      "␤": 1317,
      "⑆": 1318,
      "⑇": 1319,
      "⑈": 1320,
      "⑉": 1321,
      "①": 1322,
      "②": 1323,
      "③": 1324,
      "⑤": 1325,
      "ⓒ": 1326,
      "ⓘ": 1327,
      "ⓡ": 1328,
      "ⓤ": 1329,
      "─": 1330,
      "│": 1331,
      "═": 1332,
      "║": 1333,
      "╔": 1334,
      "╗": 1335,
      "╚": 1336,
      "╝": 1337,
      "╠": 1338,
      "╣": 1339,
      "╥": 1340,
      "╦": 1341,
      "╩": 1342,
      "▀": 1343,
      "▄": 1344,
      "█": 1345,
      "▌": 1346,
      "░": 1347,
      "▒": 1348,
      "▓": 1349,
      "▘": 1350,
      "■": 1351,
      "□": 1352,
      "▪": 1353,
      "▫": 1354,
      "▬": 1355,
      "▲": 1356,
      "△": 1357,
      "▴": 1358,
      "▶": 1359,
      "▷": 1360,
      "▸": 1361,
      "►": 1362,
      "▼": 1363,
      "▾": 1364,
      "◀": 1365,
      "◄": 1366,
      "◅": 1367,
      "◆": 1368,
      "◇": 1369,
      "◈": 1370,
      "◉": 1371,
      "◊": 1372,
      "○": 1373,
      "◌": 1374,
      "●": 1375,
      "◕": 1376,
      "◗": 1377,
      "◘": 1378,
      "◙": 1379,
      "◡": 1380,
      "◢": 1381,
      "◦": 1382,
      "◯": 1383,
      "◾": 1384,
      "☀": 1385,
      "☁": 1386,
      "☂": 1387,
      "☃": 1388,
      "☄": 1389,
      "★": 1390,
      "☆": 1391,
      "☉": 1392,
      "☎": 1393,
      "☐": 1394,
      "☑": 1395,
      "☔": 1396,
      "☕": 1397,
      "☛": 1398,
      "☝": 1399,
      "☞": 1400,
      "☟": 1401,
      "☠": 1402,
      "☢": 1403,
      "☣": 1404,
      "☪": 1405,
      "☮": 1406,
      "☯": 1407,
      "☰": 1408,
      "☺": 1409,
      "☻": 1410,
      "☼": 1411,
      "☾": 1412,
      "☿": 1413,
      "♀": 1414,
      "♂": 1415,
      "♃": 1416,
      "♄": 1417,
      "♅": 1418,
      "♆": 1419,
      "♈": 1420,
      "♉": 1421,
      "♊": 1422,
      "♋": 1423,
      "♌": 1424,
      "♍": 1425,
      "♎": 1426,
      "♏": 1427,
      "♐": 1428,
      "♑": 1429,
      "♒": 1430,
      "♓": 1431,
      "♕": 1432,
      "♖": 1433,
      "♗": 1434,
      "♙": 1435,
      "♛": 1436,
      "♜": 1437,
      "♟": 1438,
      "♠": 1439,
      "♡": 1440,
      "♢": 1441,
      "♣": 1442,
      "♥": 1443,
      "♦": 1444,
      "♩": 1445,
      "♪": 1446,
      "♫": 1447,
      "♬": 1448,
      "♭": 1449,
      "♮": 1450,
      "♯": 1451,
      "♱": 1452,
      "♻": 1453,
      "♿": 1454,
      "⚊": 1455,
      "⚑": 1456,
      "⚒": 1457,
      "⚓": 1458,
      "⚕": 1459,
      "⚖": 1460,
      "⚙": 1461,
      "⚛": 1462,
      "⚠": 1463,
      "⚡": 1464,
      "⚫": 1465,
      "⚬": 1466,
      "⛄": 1467,
      "⛏": 1468,
      "⛔": 1469,
      "⛺": 1470,
      "⛽": 1471,
      "✂": 1472,
      "✅": 1473,
      "✉": 1474,
      "✊": 1475,
      "✌": 1476,
      "✍": 1477,
      "✏": 1478,
      "✑": 1479,
      "✒": 1480,
      "✓": 1481,
      "✔": 1482,
      "✕": 1483,
      "✗": 1484,
      "✘": 1485,
      "✝": 1486,
      "✞": 1487,
      "✦": 1488,
      "✧": 1489,
      "✨": 1490,
      "✩": 1491,
      "✪": 1492,
      "✫": 1493,
      "✬": 1494,
      "✮": 1495,
      "✯": 1496,
      "✰": 1497,
      "✱": 1498,
      "✶": 1499,
      "✷": 1500,
      "✹": 1501,
      "❀": 1502,
      "❁": 1503,
      "❄": 1504,
      "❌": 1505,
      "❍": 1506,
      "❏": 1507,
      "❐": 1508,
      "❑": 1509,
      "❒": 1510,
      "❖": 1511,
      "❗": 1512,
      "❘": 1513,
      "❝": 1514,
      "❤": 1515,
      "❥": 1516,
      "❮": 1517,
      "❯": 1518,
      "❶": 1519,
      "❷": 1520,
      "❸": 1521,
      "❹": 1522,
      "❺": 1523,
      "❻": 1524,
      "❼": 1525,
      "❽": 1526,
      "❾": 1527,
      "➊": 1528,
      "➋": 1529,
      "➌": 1530,
      "➔": 1531,
      "➚": 1532,
      "➜": 1533,
      "➝": 1534,
      "➞": 1535,
      "➠": 1536,
      "➡": 1537,
      "➢": 1538,
      "➣": 1539,
      "➤": 1540,
      "➥": 1541,
      "➧": 1542,
      "➨": 1543,
      "➪": 1544,
      "➳": 1545,
      "➵": 1546,
      "➺": 1547,
      "⟨": 1548,
      "⟩": 1549,
      "⟶": 1550,
      "⟹": 1551,
      "⟿": 1552,
      "⠀": 1553,
      "⤢": 1554,
      "⧸": 1555,
      "⨪": 1556,
      "⩽": 1557,
      "⩾": 1558,
      "⫹": 1559,
      "⫺": 1560,
      "⬅": 1561,
      "⬆": 1562,
      "⬇": 1563,
      "⭐": 1564,
      "ⲁ": 1565,
      "ⲃ": 1566,
      "ⲏ": 1567,
      "ⲓ": 1568,
      "ⲕ": 1569,
      "ⲛ": 1570,
      "ⲣ": 1571,
      "ⲧ": 1572,
      "ⲫ": 1573,
      "ⲱ": 1574,
      "ⴰ": 1575,
      "ⴱ": 1576,
      "ⴳ": 1577,
      "ⴷ": 1578,
      "ⴼ": 1579,
      "ⴽ": 1580,
      "ⵇ": 1581,
      "ⵉ": 1582,
      "ⵍ": 1583,
      "ⵎ": 1584,
      "ⵏ": 1585,
      "ⵓ": 1586,
      "ⵔ": 1587,
      "ⵕ": 1588,
      "ⵖ": 1589,
      "ⵙ": 1590,
      "ⵜ": 1591,
      "ⵟ": 1592,
      "⸱": 1593,
      "⽇": 1594,
      "、": 1595,
      "。": 1596,
      "々": 1597,
      "〈": 1598,
      "〉": 1599,
      "《": 1600,
      "》": 1601,
      "「": 1602,
      "」": 1603,
      "『": 1604,
      "』": 1605,
      "【": 1606,
      "】": 1607,
      "〒": 1608,
      "〔": 1609,
      "〕": 1610,
      "〜": 1611,
      "〰": 1612,
      "あ": 1613,
      "い": 1614,
      "う": 1615,
      "ぇ": 1616,
      "え": 1617,
      "お": 1618,
      "か": 1619,
      "き": 1620,
      "く": 1621,
      "け": 1622,
      "こ": 1623,
      "さ": 1624,
      "し": 1625,
      "す": 1626,
      "せ": 1627,
      "そ": 1628,
      "た": 1629,
      "ち": 1630,
      "っ": 1631,
      "つ": 1632,
      "て": 1633,
      "と": 1634,
      "な": 1635,
      "に": 1636,
      "ぬ": 1637,
      "ね": 1638,
      "の": 1639,
      "は": 1640,
      "ひ": 1641,
      "ふ": 1642,
      "へ": 1643,
      "ほ": 1644,
      "ま": 1645,
      "み": 1646,
      "む": 1647,
      "め": 1648,
      "も": 1649,
      "ゃ": 1650,
      "や": 1651,
      "ゅ": 1652,
      "ゆ": 1653,
      "ょ": 1654,
      "よ": 1655,
      "ら": 1656,
      "り": 1657,
      "る": 1658,
      "れ": 1659,
      "ろ": 1660,
      "わ": 1661,
      "ゑ": 1662,
      "を": 1663,
      "ん": 1664,
      "ァ": 1665,
      "ア": 1666,
      "ィ": 1667,
      "イ": 1668,
      "ウ": 1669,
      "ェ": 1670,
      "エ": 1671,
      "ォ": 1672,
      "オ": 1673,
      "カ": 1674,
      "キ": 1675,
      "ク": 1676,
      "ケ": 1677,
      "コ": 1678,
      "サ": 1679,
      "シ": 1680,
      "ス": 1681,
      "セ": 1682,
      "ソ": 1683,
      "タ": 1684,
      "チ": 1685,
      "ッ": 1686,
      "ツ": 1687,
      "テ": 1688,
      "ト": 1689,
      "ナ": 1690,
      "ニ": 1691,
      "ヌ": 1692,
      "ネ": 1693,
      "ノ": 1694,
      "ハ": 1695,
      "ヒ": 1696,
      "フ": 1697,
      "ヘ": 1698,
      "ホ": 1699,
      "マ": 1700,
      "ミ": 1701,
      "ム": 1702,
      "メ": 1703,
      "モ": 1704,
      "ャ": 1705,
      "ヤ": 1706,
      "ュ": 1707,
      "ユ": 1708,
      "ョ": 1709,
      "ヨ": 1710,
      "ラ": 1711,
      "リ": 1712,
      "ル": 1713,
      "レ": 1714,
      "ロ": 1715,
      "ワ": 1716,
      "ン": 1717,
      "ヵ": 1718,
      "ヶ": 1719,
      "・": 1720,
      "ー": 1721,
      "ヽ": 1722,
      "㄀": 1723,
      "ㄱ": 1724,
      "ㄴ": 1725,
      "ㄹ": 1726,
      "ㅂ": 1727,
      "ㅅ": 1728,
      "ㅋ": 1729,
      "ㅎ": 1730,
      "ㅏ": 1731,
      "ㅡ": 1732,
      "ㅤ": 1733,
      "㊍": 1734,
      "㎡": 1735,
      "㐀": 1736,
      "㗂": 1737,
      "㜀": 1738,
      "㞗": 1739,
      "䌧": 1740,
      "䤀": 1741,
      "一": 1742,
      "丁": 1743,
      "七": 1744,
      "万": 1745,
      "三": 1746,
      "上": 1747,
      "下": 1748,
      "不": 1749,
      "与": 1750,
      "世": 1751,
      "丘": 1752,
      "业": 1753,
      "东": 1754,
      "丝": 1755,
      "両": 1756,
      "严": 1757,
      "丨": 1758,
      "个": 1759,
      "中": 1760,
      "丶": 1761,
      "丸": 1762,
      "丹": 1763,
      "为": 1764,
      "主": 1765,
      "丼": 1766,
      "乃": 1767,
      "久": 1768,
      "么": 1769,
      "义": 1770,
      "之": 1771,
      "乏": 1772,
      "乐": 1773,
      "乗": 1774,
      "九": 1775,
      "也": 1776,
      "书": 1777,
      "乱": 1778,
      "乾": 1779,
      "亀": 1780,
      "亂": 1781,
      "了": 1782,
      "争": 1783,
      "事": 1784,
      "二": 1785,
      "于": 1786,
      "云": 1787,
      "五": 1788,
      "井": 1789,
      "亘": 1790,
      "亚": 1791,
      "亜": 1792,
      "亞": 1793,
      "亡": 1794,
      "交": 1795,
      "亥": 1796,
      "产": 1797,
      "亩": 1798,
      "京": 1799,
      "亭": 1800,
      "亮": 1801,
      "亳": 1802,
      "人": 1803,
      "什": 1804,
      "仁": 1805,
      "仂": 1806,
      "今": 1807,
      "介": 1808,
      "仏": 1809,
      "仔": 1810,
      "他": 1811,
      "付": 1812,
      "仙": 1813,
      "代": 1814,
      "令": 1815,
      "以": 1816,
      "仪": 1817,
      "们": 1818,
      "仮": 1819,
      "件": 1820,
      "任": 1821,
      "份": 1822,
      "伀": 1823,
      "企": 1824,
      "伊": 1825,
      "伎": 1826,
      "会": 1827,
      "伝": 1828,
      "伟": 1829,
      "传": 1830,
      "伦": 1831,
      "伯": 1832,
      "伴": 1833,
      "伽": 1834,
      "佈": 1835,
      "位": 1836,
      "低": 1837,
      "佐": 1838,
      "体": 1839,
      "何": 1840,
      "余": 1841,
      "佛": 1842,
      "作": 1843,
      "你": 1844,
      "佬": 1845,
      "佳": 1846,
      "使": 1847,
      "侍": 1848,
      "供": 1849,
      "侯": 1850,
      "便": 1851,
      "係": 1852,
      "俊": 1853,
      "俐": 1854,
      "保": 1855,
      "俠": 1856,
      "信": 1857,
      "修": 1858,
      "俳": 1859,
      "倉": 1860,
      "個": 1861,
      "倍": 1862,
      "候": 1863,
      "倡": 1864,
      "倫": 1865,
      "倭": 1866,
      "倾": 1867,
      "偃": 1868,
      "假": 1869,
      "偏": 1870,
      "做": 1871,
      "停": 1872,
      "健": 1873,
      "偶": 1874,
      "傅": 1875,
      "傘": 1876,
      "備": 1877,
      "傣": 1878,
      "储": 1879,
      "傲": 1880,
      "傳": 1881,
      "像": 1882,
      "僕": 1883,
      "儀": 1884,
      "儒": 1885,
      "優": 1886,
      "元": 1887,
      "兄": 1888,
      "兆": 1889,
      "先": 1890,
      "光": 1891,
      "克": 1892,
      "児": 1893,
      "兒": 1894,
      "兔": 1895,
      "党": 1896,
      "入": 1897,
      "內": 1898,
      "全": 1899,
      "八": 1900,
      "公": 1901,
      "六": 1902,
      "兰": 1903,
      "共": 1904,
      "关": 1905,
      "兴": 1906,
      "兵": 1907,
      "具": 1908,
      "冀": 1909,
      "内": 1910,
      "円": 1911,
      "再": 1912,
      "写": 1913,
      "冚": 1914,
      "军": 1915,
      "农": 1916,
      "冠": 1917,
      "冨": 1918,
      "冫": 1919,
      "冬": 1920,
      "冰": 1921,
      "冷": 1922,
      "准": 1923,
      "凉": 1924,
      "凛": 1925,
      "凯": 1926,
      "凱": 1927,
      "出": 1928,
      "刀": 1929,
      "分": 1930,
      "切": 1931,
      "列": 1932,
      "刘": 1933,
      "则": 1934,
      "创": 1935,
      "初": 1936,
      "判": 1937,
      "利": 1938,
      "别": 1939,
      "刮": 1940,
      "到": 1941,
      "制": 1942,
      "券": 1943,
      "刺": 1944,
      "則": 1945,
      "前": 1946,
      "剣": 1947,
      "割": 1948,
      "劇": 1949,
      "劉": 1950,
      "力": 1951,
      "功": 1952,
      "加": 1953,
      "动": 1954,
      "努": 1955,
      "勇": 1956,
      "勉": 1957,
      "動": 1958,
      "務": 1959,
      "勧": 1960,
      "勲": 1961,
      "匂": 1962,
      "包": 1963,
      "匈": 1964,
      "化": 1965,
      "北": 1966,
      "匪": 1967,
      "匹": 1968,
      "区": 1969,
      "医": 1970,
      "匿": 1971,
      "十": 1972,
      "千": 1973,
      "升": 1974,
      "半": 1975,
      "卍": 1976,
      "华": 1977,
      "协": 1978,
      "卐": 1979,
      "卓": 1980,
      "单": 1981,
      "南": 1982,
      "単": 1983,
      "博": 1984,
      "卢": 1985,
      "卫": 1986,
      "卯": 1987,
      "印": 1988,
      "历": 1989,
      "厕": 1990,
      "厚": 1991,
      "原": 1992,
      "厩": 1993,
      "去": 1994,
      "县": 1995,
      "参": 1996,
      "又": 1997,
      "及": 1998,
      "友": 1999,
      "双": 2000,
      "发": 2001,
      "叔": 2002,
      "取": 2003,
      "口": 2004,
      "古": 2005,
      "句": 2006,
      "召": 2007,
      "可": 2008,
      "台": 2009,
      "史": 2010,
      "右": 2011,
      "叶": 2012,
      "号": 2013,
      "司": 2014,
      "吃": 2015,
      "合": 2016,
      "吉": 2017,
      "同": 2018,
      "名": 2019,
      "后": 2020,
      "向": 2021,
      "吗": 2022,
      "君": 2023,
      "吨": 2024,
      "吳": 2025,
      "吴": 2026,
      "吹": 2027,
      "呂": 2028,
      "告": 2029,
      "员": 2030,
      "周": 2031,
      "呪": 2032,
      "味": 2033,
      "呼": 2034,
      "命": 2035,
      "和": 2036,
      "咲": 2037,
      "咸": 2038,
      "品": 2039,
      "哈": 2040,
      "响": 2041,
      "哎": 2042,
      "哥": 2043,
      "哪": 2044,
      "哭": 2045,
      "哲": 2046,
      "唐": 2047,
      "唱": 2048,
      "商": 2049,
      "問": 2050,
      "啟": 2051,
      "善": 2052,
      "喜": 2053,
      "單": 2054,
      "喰": 2055,
      "嘉": 2056,
      "噌": 2057,
      "器": 2058,
      "噸": 2059,
      "嚴": 2060,
      "囍": 2061,
      "四": 2062,
      "回": 2063,
      "因": 2064,
      "团": 2065,
      "団": 2066,
      "园": 2067,
      "围": 2068,
      "固": 2069,
      "国": 2070,
      "图": 2071,
      "圆": 2072,
      "國": 2073,
      "圏": 2074,
      "園": 2075,
      "圓": 2076,
      "圖": 2077,
      "團": 2078,
      "土": 2079,
      "圧": 2080,
      "在": 2081,
      "地": 2082,
      "圳": 2083,
      "场": 2084,
      "址": 2085,
      "坏": 2086,
      "坐": 2087,
      "块": 2088,
      "坝": 2089,
      "坡": 2090,
      "坪": 2091,
      "垂": 2092,
      "型": 2093,
      "垣": 2094,
      "城": 2095,
      "埔": 2096,
      "埠": 2097,
      "執": 2098,
      "基": 2099,
      "堂": 2100,
      "堅": 2101,
      "堕": 2102,
      "堤": 2103,
      "報": 2104,
      "場": 2105,
      "塊": 2106,
      "塔": 2107,
      "塚": 2108,
      "增": 2109,
      "墟": 2110,
      "墨": 2111,
      "墳": 2112,
      "壁": 2113,
      "壊": 2114,
      "壞": 2115,
      "壤": 2116,
      "士": 2117,
      "壮": 2118,
      "声": 2119,
      "壱": 2120,
      "壽": 2121,
      "変": 2122,
      "夏": 2123,
      "夕": 2124,
      "外": 2125,
      "多": 2126,
      "夜": 2127,
      "夢": 2128,
      "大": 2129,
      "天": 2130,
      "太": 2131,
      "夫": 2132,
      "央": 2133,
      "头": 2134,
      "夷": 2135,
      "夸": 2136,
      "奈": 2137,
      "套": 2138,
      "奠": 2139,
      "奥": 2140,
      "奧": 2141,
      "女": 2142,
      "奴": 2143,
      "奶": 2144,
      "好": 2145,
      "如": 2146,
      "妇": 2147,
      "妖": 2148,
      "妮": 2149,
      "妹": 2150,
      "妻": 2151,
      "姉": 2152,
      "始": 2153,
      "姓": 2154,
      "姚": 2155,
      "姫": 2156,
      "姬": 2157,
      "威": 2158,
      "娘": 2159,
      "娛": 2160,
      "娯": 2161,
      "婆": 2162,
      "婚": 2163,
      "婦": 2164,
      "嬴": 2165,
      "子": 2166,
      "孔": 2167,
      "字": 2168,
      "存": 2169,
      "孙": 2170,
      "孝": 2171,
      "孟": 2172,
      "季": 2173,
      "孤": 2174,
      "学": 2175,
      "孩": 2176,
      "孫": 2177,
      "學": 2178,
      "宁": 2179,
      "宅": 2180,
      "宇": 2181,
      "守": 2182,
      "安": 2183,
      "宋": 2184,
      "完": 2185,
      "宏": 2186,
      "宗": 2187,
      "官": 2188,
      "宙": 2189,
      "定": 2190,
      "宜": 2191,
      "宝": 2192,
      "実": 2193,
      "客": 2194,
      "室": 2195,
      "宫": 2196,
      "宮": 2197,
      "害": 2198,
      "家": 2199,
      "宾": 2200,
      "富": 2201,
      "寒": 2202,
      "寛": 2203,
      "寝": 2204,
      "寧": 2205,
      "寫": 2206,
      "寶": 2207,
      "寺": 2208,
      "寿": 2209,
      "封": 2210,
      "将": 2211,
      "將": 2212,
      "尊": 2213,
      "尋": 2214,
      "對": 2215,
      "小": 2216,
      "少": 2217,
      "尔": 2218,
      "尙": 2219,
      "尩": 2220,
      "就": 2221,
      "尻": 2222,
      "尾": 2223,
      "局": 2224,
      "屁": 2225,
      "屄": 2226,
      "居": 2227,
      "屈": 2228,
      "屋": 2229,
      "屌": 2230,
      "展": 2231,
      "属": 2232,
      "層": 2233,
      "屮": 2234,
      "山": 2235,
      "屲": 2236,
      "岁": 2237,
      "岐": 2238,
      "岛": 2239,
      "岡": 2240,
      "岩": 2241,
      "岭": 2242,
      "岱": 2243,
      "岳": 2244,
      "岸": 2245,
      "峪": 2246,
      "峰": 2247,
      "島": 2248,
      "崎": 2249,
      "崔": 2250,
      "崖": 2251,
      "崩": 2252,
      "崽": 2253,
      "嶋": 2254,
      "嶽": 2255,
      "川": 2256,
      "州": 2257,
      "工": 2258,
      "左": 2259,
      "巧": 2260,
      "巨": 2261,
      "巫": 2262,
      "差": 2263,
      "巳": 2264,
      "巴": 2265,
      "巻": 2266,
      "币": 2267,
      "市": 2268,
      "布": 2269,
      "帆": 2270,
      "师": 2271,
      "希": 2272,
      "帕": 2273,
      "帝": 2274,
      "带": 2275,
      "師": 2276,
      "帶": 2277,
      "常": 2278,
      "帽": 2279,
      "幌": 2280,
      "幕": 2281,
      "幣": 2282,
      "干": 2283,
      "平": 2284,
      "年": 2285,
      "并": 2286,
      "幸": 2287,
      "幹": 2288,
      "幻": 2289,
      "幽": 2290,
      "幾": 2291,
      "广": 2292,
      "広": 2293,
      "庆": 2294,
      "序": 2295,
      "店": 2296,
      "府": 2297,
      "度": 2298,
      "座": 2299,
      "庫": 2300,
      "庭": 2301,
      "康": 2302,
      "廉": 2303,
      "廖": 2304,
      "廣": 2305,
      "廳": 2306,
      "延": 2307,
      "廷": 2308,
      "建": 2309,
      "开": 2310,
      "弁": 2311,
      "式": 2312,
      "弓": 2313,
      "弘": 2314,
      "弟": 2315,
      "张": 2316,
      "弥": 2317,
      "張": 2318,
      "強": 2319,
      "弾": 2320,
      "彌": 2321,
      "彎": 2322,
      "归": 2323,
      "当": 2324,
      "形": 2325,
      "彦": 2326,
      "彩": 2327,
      "彰": 2328,
      "影": 2329,
      "役": 2330,
      "彼": 2331,
      "征": 2332,
      "待": 2333,
      "律": 2334,
      "後": 2335,
      "徐": 2336,
      "徒": 2337,
      "従": 2338,
      "得": 2339,
      "御": 2340,
      "復": 2341,
      "微": 2342,
      "徳": 2343,
      "德": 2344,
      "徽": 2345,
      "心": 2346,
      "必": 2347,
      "忌": 2348,
      "忍": 2349,
      "志": 2350,
      "忠": 2351,
      "快": 2352,
      "怕": 2353,
      "思": 2354,
      "怡": 2355,
      "性": 2356,
      "怪": 2357,
      "怯": 2358,
      "恋": 2359,
      "恩": 2360,
      "恵": 2361,
      "悟": 2362,
      "悦": 2363,
      "悬": 2364,
      "情": 2365,
      "惠": 2366,
      "惧": 2367,
      "惨": 2368,
      "想": 2369,
      "愀": 2370,
      "愉": 2371,
      "意": 2372,
      "愚": 2373,
      "愛": 2374,
      "感": 2375,
      "慈": 2376,
      "態": 2377,
      "慕": 2378,
      "慢": 2379,
      "慧": 2380,
      "慶": 2381,
      "憲": 2382,
      "懸": 2383,
      "懼": 2384,
      "戀": 2385,
      "戈": 2386,
      "戊": 2387,
      "戌": 2388,
      "戎": 2389,
      "成": 2390,
      "我": 2391,
      "戒": 2392,
      "战": 2393,
      "戦": 2394,
      "戯": 2395,
      "戰": 2396,
      "戴": 2397,
      "戸": 2398,
      "房": 2399,
      "所": 2400,
      "手": 2401,
      "扑": 2402,
      "扬": 2403,
      "扭": 2404,
      "扯": 2405,
      "扶": 2406,
      "承": 2407,
      "技": 2408,
      "把": 2409,
      "抑": 2410,
      "投": 2411,
      "抖": 2412,
      "抗": 2413,
      "折": 2414,
      "抜": 2415,
      "报": 2416,
      "抹": 2417,
      "抽": 2418,
      "担": 2419,
      "拉": 2420,
      "拏": 2421,
      "拓": 2422,
      "招": 2423,
      "拳": 2424,
      "挀": 2425,
      "持": 2426,
      "指": 2427,
      "振": 2428,
      "捕": 2429,
      "损": 2430,
      "掃": 2431,
      "授": 2432,
      "掛": 2433,
      "接": 2434,
      "控": 2435,
      "推": 2436,
      "提": 2437,
      "揚": 2438,
      "搀": 2439,
      "摂": 2440,
      "摩": 2441,
      "摺": 2442,
      "撃": 2443,
      "撈": 2444,
      "撚": 2445,
      "播": 2446,
      "撮": 2447,
      "撲": 2448,
      "擂": 2449,
      "擎": 2450,
      "擬": 2451,
      "攀": 2452,
      "攝": 2453,
      "支": 2454,
      "改": 2455,
      "攻": 2456,
      "放": 2457,
      "政": 2458,
      "故": 2459,
      "效": 2460,
      "敏": 2461,
      "教": 2462,
      "散": 2463,
      "敦": 2464,
      "整": 2465,
      "敵": 2466,
      "文": 2467,
      "斉": 2468,
      "斋": 2469,
      "斎": 2470,
      "斐": 2471,
      "斗": 2472,
      "料": 2473,
      "斜": 2474,
      "斤": 2475,
      "斬": 2476,
      "断": 2477,
      "斯": 2478,
      "新": 2479,
      "方": 2480,
      "於": 2481,
      "施": 2482,
      "旁": 2483,
      "旋": 2484,
      "旌": 2485,
      "族": 2486,
      "旗": 2487,
      "日": 2488,
      "旦": 2489,
      "旧": 2490,
      "时": 2491,
      "旻": 2492,
      "昂": 2493,
      "昌": 2494,
      "明": 2495,
      "易": 2496,
      "星": 2497,
      "映": 2498,
      "春": 2499,
      "昭": 2500,
      "是": 2501,
      "昼": 2502,
      "時": 2503,
      "晃": 2504,
      "晉": 2505,
      "晗": 2506,
      "普": 2507,
      "景": 2508,
      "晴": 2509,
      "晶": 2510,
      "智": 2511,
      "暁": 2512,
      "暈": 2513,
      "暗": 2514,
      "暦": 2515,
      "暹": 2516,
      "曆": 2517,
      "曜": 2518,
      "曲": 2519,
      "更": 2520,
      "曾": 2521,
      "最": 2522,
      "會": 2523,
      "月": 2524,
      "有": 2525,
      "服": 2526,
      "朔": 2527,
      "朗": 2528,
      "望": 2529,
      "朝": 2530,
      "期": 2531,
      "木": 2532,
      "未": 2533,
      "末": 2534,
      "本": 2535,
      "札": 2536,
      "术": 2537,
      "朱": 2538,
      "朴": 2539,
      "朽": 2540,
      "杉": 2541,
      "李": 2542,
      "村": 2543,
      "杘": 2544,
      "杜": 2545,
      "杞": 2546,
      "束": 2547,
      "条": 2548,
      "来": 2549,
      "杭": 2550,
      "東": 2551,
      "松": 2552,
      "板": 2553,
      "极": 2554,
      "构": 2555,
      "林": 2556,
      "枚": 2557,
      "果": 2558,
      "枝": 2559,
      "枢": 2560,
      "枣": 2561,
      "枯": 2562,
      "枸": 2563,
      "柏": 2564,
      "柒": 2565,
      "柔": 2566,
      "柚": 2567,
      "柱": 2568,
      "柳": 2569,
      "柴": 2570,
      "栀": 2571,
      "栄": 2572,
      "标": 2573,
      "树": 2574,
      "栓": 2575,
      "栗": 2576,
      "校": 2577,
      "株": 2578,
      "根": 2579,
      "格": 2580,
      "栽": 2581,
      "桂": 2582,
      "桃": 2583,
      "框": 2584,
      "案": 2585,
      "桐": 2586,
      "桑": 2587,
      "桜": 2588,
      "档": 2589,
      "桥": 2590,
      "梁": 2591,
      "梅": 2592,
      "梢": 2593,
      "梨": 2594,
      "械": 2595,
      "棋": 2596,
      "棒": 2597,
      "森": 2598,
      "椀": 2599,
      "椎": 2600,
      "椒": 2601,
      "椰": 2602,
      "椿": 2603,
      "楊": 2604,
      "楓": 2605,
      "業": 2606,
      "楮": 2607,
      "極": 2608,
      "楼": 2609,
      "楽": 2610,
      "榉": 2611,
      "榮": 2612,
      "構": 2613,
      "様": 2614,
      "槟": 2615,
      "槻": 2616,
      "樂": 2617,
      "樓": 2618,
      "標": 2619,
      "権": 2620,
      "横": 2621,
      "樹": 2622,
      "橋": 2623,
      "機": 2624,
      "橫": 2625,
      "檚": 2626,
      "櫃": 2627,
      "櫸": 2628,
      "櫻": 2629,
      "欅": 2630,
      "權": 2631,
      "次": 2632,
      "欣": 2633,
      "欲": 2634,
      "歌": 2635,
      "歐": 2636,
      "止": 2637,
      "正": 2638,
      "武": 2639,
      "歩": 2640,
      "歲": 2641,
      "死": 2642,
      "殊": 2643,
      "殤": 2644,
      "段": 2645,
      "殷": 2646,
      "殺": 2647,
      "殻": 2648,
      "母": 2649,
      "毒": 2650,
      "比": 2651,
      "毗": 2652,
      "毛": 2653,
      "毫": 2654,
      "氀": 2655,
      "氏": 2656,
      "民": 2657,
      "气": 2658,
      "気": 2659,
      "氟": 2660,
      "氣": 2661,
      "水": 2662,
      "永": 2663,
      "汇": 2664,
      "汉": 2665,
      "汝": 2666,
      "江": 2667,
      "汪": 2668,
      "汶": 2669,
      "決": 2670,
      "汽": 2671,
      "沈": 2672,
      "沖": 2673,
      "沙": 2674,
      "沛": 2675,
      "沪": 2676,
      "河": 2677,
      "沸": 2678,
      "治": 2679,
      "況": 2680,
      "泉": 2681,
      "法": 2682,
      "波": 2683,
      "泰": 2684,
      "洀": 2685,
      "洁": 2686,
      "洋": 2687,
      "洗": 2688,
      "洞": 2689,
      "津": 2690,
      "洪": 2691,
      "洲": 2692,
      "活": 2693,
      "派": 2694,
      "流": 2695,
      "浄": 2696,
      "浜": 2697,
      "浦": 2698,
      "浩": 2699,
      "浪": 2700,
      "浮": 2701,
      "海": 2702,
      "消": 2703,
      "涙": 2704,
      "润": 2705,
      "液": 2706,
      "涼": 2707,
      "深": 2708,
      "淵": 2709,
      "渀": 2710,
      "清": 2711,
      "渡": 2712,
      "温": 2713,
      "港": 2714,
      "游": 2715,
      "湖": 2716,
      "湘": 2717,
      "湯": 2718,
      "湾": 2719,
      "湿": 2720,
      "満": 2721,
      "源": 2722,
      "準": 2723,
      "溝": 2724,
      "滑": 2725,
      "滨": 2726,
      "滩": 2727,
      "滬": 2728,
      "滿": 2729,
      "漀": 2730,
      "漢": 2731,
      "漫": 2732,
      "漿": 2733,
      "潍": 2734,
      "潘": 2735,
      "潟": 2736,
      "澄": 2737,
      "激": 2738,
      "濃": 2739,
      "濤": 2740,
      "瀀": 2741,
      "瀬": 2742,
      "灣": 2743,
      "火": 2744,
      "灯": 2745,
      "灵": 2746,
      "災": 2747,
      "灾": 2748,
      "炉": 2749,
      "炎": 2750,
      "炮": 2751,
      "炸": 2752,
      "点": 2753,
      "為": 2754,
      "烈": 2755,
      "烏": 2756,
      "烟": 2757,
      "热": 2758,
      "無": 2759,
      "焦": 2760,
      "然": 2761,
      "焼": 2762,
      "煌": 2763,
      "煎": 2764,
      "照": 2765,
      "煩": 2766,
      "煬": 2767,
      "煮": 2768,
      "熊": 2769,
      "熙": 2770,
      "熱": 2771,
      "熾": 2772,
      "燃": 2773,
      "燈": 2774,
      "燒": 2775,
      "燕": 2776,
      "爀": 2777,
      "爆": 2778,
      "爐": 2779,
      "爭": 2780,
      "爰": 2781,
      "爱": 2782,
      "父": 2783,
      "爽": 2784,
      "爾": 2785,
      "牆": 2786,
      "片": 2787,
      "版": 2788,
      "牌": 2789,
      "牛": 2790,
      "牡": 2791,
      "物": 2792,
      "特": 2793,
      "犬": 2794,
      "犭": 2795,
      "状": 2796,
      "狄": 2797,
      "狖": 2798,
      "狗": 2799,
      "狛": 2800,
      "狩": 2801,
      "独": 2802,
      "狮": 2803,
      "狸": 2804,
      "狼": 2805,
      "猀": 2806,
      "猛": 2807,
      "猜": 2808,
      "猫": 2809,
      "猴": 2810,
      "猿": 2811,
      "獄": 2812,
      "獅": 2813,
      "獢": 2814,
      "獣": 2815,
      "玄": 2816,
      "率": 2817,
      "玉": 2818,
      "王": 2819,
      "玛": 2820,
      "玮": 2821,
      "玲": 2822,
      "珀": 2823,
      "珍": 2824,
      "珠": 2825,
      "珤": 2826,
      "班": 2827,
      "現": 2828,
      "琀": 2829,
      "球": 2830,
      "理": 2831,
      "琉": 2832,
      "琛": 2833,
      "琴": 2834,
      "瑞": 2835,
      "瑟": 2836,
      "瑠": 2837,
      "瑪": 2838,
      "璧": 2839,
      "瓜": 2840,
      "瓶": 2841,
      "甀": 2842,
      "甄": 2843,
      "生": 2844,
      "産": 2845,
      "用": 2846,
      "甫": 2847,
      "田": 2848,
      "由": 2849,
      "甲": 2850,
      "申": 2851,
      "电": 2852,
      "町": 2853,
      "画": 2854,
      "界": 2855,
      "畑": 2856,
      "留": 2857,
      "畠": 2858,
      "略": 2859,
      "番": 2860,
      "異": 2861,
      "畳": 2862,
      "疾": 2863,
      "病": 2864,
      "症": 2865,
      "痛": 2866,
      "痞": 2867,
      "痧": 2868,
      "痴": 2869,
      "瘀": 2870,
      "発": 2871,
      "發": 2872,
      "白": 2873,
      "百": 2874,
      "的": 2875,
      "皆": 2876,
      "皇": 2877,
      "皮": 2878,
      "皿": 2879,
      "盆": 2880,
      "益": 2881,
      "監": 2882,
      "盧": 2883,
      "目": 2884,
      "直": 2885,
      "相": 2886,
      "省": 2887,
      "眉": 2888,
      "看": 2889,
      "県": 2890,
      "真": 2891,
      "眠": 2892,
      "眼": 2893,
      "着": 2894,
      "睇": 2895,
      "督": 2896,
      "瞳": 2897,
      "矢": 2898,
      "知": 2899,
      "短": 2900,
      "石": 2901,
      "矿": 2902,
      "码": 2903,
      "砂": 2904,
      "研": 2905,
      "破": 2906,
      "硝": 2907,
      "硬": 2908,
      "碧": 2909,
      "碼": 2910,
      "碾": 2911,
      "磁": 2912,
      "磅": 2913,
      "磨": 2914,
      "礀": 2915,
      "示": 2916,
      "礼": 2917,
      "社": 2918,
      "祉": 2919,
      "祖": 2920,
      "祝": 2921,
      "神": 2922,
      "祥": 2923,
      "票": 2924,
      "祸": 2925,
      "祿": 2926,
      "禁": 2927,
      "禅": 2928,
      "福": 2929,
      "禧": 2930,
      "禪": 2931,
      "禮": 2932,
      "秀": 2933,
      "私": 2934,
      "秋": 2935,
      "科": 2936,
      "秒": 2937,
      "秦": 2938,
      "称": 2939,
      "移": 2940,
      "稀": 2941,
      "程": 2942,
      "種": 2943,
      "稲": 2944,
      "稼": 2945,
      "穂": 2946,
      "穆": 2947,
      "積": 2948,
      "穎": 2949,
      "空": 2950,
      "穿": 2951,
      "突": 2952,
      "窟": 2953,
      "窮": 2954,
      "窰": 2955,
      "立": 2956,
      "站": 2957,
      "竜": 2958,
      "章": 2959,
      "端": 2960,
      "競": 2961,
      "竹": 2962,
      "竺": 2963,
      "笋": 2964,
      "笑": 2965,
      "笙": 2966,
      "第": 2967,
      "等": 2968,
      "筒": 2969,
      "策": 2970,
      "筧": 2971,
      "筷": 2972,
      "简": 2973,
      "箏": 2974,
      "算": 2975,
      "箭": 2976,
      "箱": 2977,
      "箴": 2978,
      "箸": 2979,
      "節": 2980,
      "篇": 2981,
      "築": 2982,
      "篠": 2983,
      "簧": 2984,
      "籃": 2985,
      "籠": 2986,
      "米": 2987,
      "类": 2988,
      "粉": 2989,
      "粤": 2990,
      "粵": 2991,
      "粽": 2992,
      "精": 2993,
      "糖": 2994,
      "糞": 2995,
      "糟": 2996,
      "糯": 2997,
      "糸": 2998,
      "系": 2999,
      "紀": 3000,
      "紂": 3001,
      "約": 3002,
      "紅": 3003,
      "紇": 3004,
      "紋": 3005,
      "納": 3006,
      "紙": 3007,
      "級": 3008,
      "素": 3009,
      "索": 3010,
      "紫": 3011,
      "細": 3012,
      "紺": 3013,
      "終": 3014,
      "結": 3015,
      "絡": 3016,
      "絢": 3017,
      "給": 3018,
      "統": 3019,
      "絲": 3020,
      "絵": 3021,
      "經": 3022,
      "継": 3023,
      "続": 3024,
      "綱": 3025,
      "綾": 3026,
      "緋": 3027,
      "緑": 3028,
      "編": 3029,
      "練": 3030,
      "縄": 3031,
      "縛": 3032,
      "縣": 3033,
      "縮": 3034,
      "總": 3035,
      "繁": 3036,
      "織": 3037,
      "繼": 3038,
      "纏": 3039,
      "纖": 3040,
      "红": 3041,
      "纤": 3042,
      "约": 3043,
      "级": 3044,
      "纽": 3045,
      "线": 3046,
      "绍": 3047,
      "经": 3048,
      "结": 3049,
      "给": 3050,
      "统": 3051,
      "继": 3052,
      "缩": 3053,
      "缺": 3054,
      "网": 3055,
      "罗": 3056,
      "羅": 3057,
      "美": 3058,
      "群": 3059,
      "義": 3060,
      "羯": 3061,
      "羽": 3062,
      "翁": 3063,
      "翊": 3064,
      "習": 3065,
      "翔": 3066,
      "翠": 3067,
      "翡": 3068,
      "翻": 3069,
      "老": 3070,
      "者": 3071,
      "耆": 3072,
      "耳": 3073,
      "联": 3074,
      "聖": 3075,
      "聞": 3076,
      "聡": 3077,
      "聯": 3078,
      "聶": 3079,
      "職": 3080,
      "肉": 3081,
      "肖": 3082,
      "肝": 3083,
      "肠": 3084,
      "股": 3085,
      "肥": 3086,
      "育": 3087,
      "背": 3088,
      "胡": 3089,
      "胶": 3090,
      "能": 3091,
      "脚": 3092,
      "脫": 3093,
      "脱": 3094,
      "脳": 3095,
      "脸": 3096,
      "脾": 3097,
      "腊": 3098,
      "腐": 3099,
      "腰": 3100,
      "腸": 3101,
      "腹": 3102,
      "腿": 3103,
      "膠": 3104,
      "臘": 3105,
      "自": 3106,
      "至": 3107,
      "臺": 3108,
      "興": 3109,
      "舊": 3110,
      "舍": 3111,
      "舞": 3112,
      "航": 3113,
      "般": 3114,
      "船": 3115,
      "艦": 3116,
      "良": 3117,
      "色": 3118,
      "艸": 3119,
      "艺": 3120,
      "艾": 3121,
      "节": 3122,
      "芋": 3123,
      "芙": 3124,
      "芝": 3125,
      "芥": 3126,
      "花": 3127,
      "芳": 3128,
      "芷": 3129,
      "芸": 3130,
      "苏": 3131,
      "苔": 3132,
      "若": 3133,
      "苦": 3134,
      "英": 3135,
      "苺": 3136,
      "茂": 3137,
      "范": 3138,
      "茨": 3139,
      "茶": 3140,
      "茸": 3141,
      "茹": 3142,
      "草": 3143,
      "荒": 3144,
      "荘": 3145,
      "药": 3146,
      "荷": 3147,
      "莉": 3148,
      "莊": 3149,
      "莫": 3150,
      "莲": 3151,
      "莹": 3152,
      "莽": 3153,
      "菇": 3154,
      "菊": 3155,
      "菖": 3156,
      "菜": 3157,
      "華": 3158,
      "萌": 3159,
      "萠": 3160,
      "营": 3161,
      "萩": 3162,
      "落": 3163,
      "葉": 3164,
      "葛": 3165,
      "董": 3166,
      "葬": 3167,
      "葵": 3168,
      "蒂": 3169,
      "蒙": 3170,
      "蒲": 3171,
      "蓄": 3172,
      "蓉": 3173,
      "蓮": 3174,
      "蔘": 3175,
      "蔡": 3176,
      "蔦": 3177,
      "蔵": 3178,
      "蕊": 3179,
      "蕭": 3180,
      "薄": 3181,
      "薇": 3182,
      "薔": 3183,
      "薩": 3184,
      "薪": 3185,
      "藍": 3186,
      "藝": 3187,
      "藤": 3188,
      "藥": 3189,
      "蘇": 3190,
      "蘋": 3191,
      "蘑": 3192,
      "蘭": 3193,
      "虎": 3194,
      "虏": 3195,
      "虚": 3196,
      "號": 3197,
      "虫": 3198,
      "虬": 3199,
      "虹": 3200,
      "蚁": 3201,
      "蛇": 3202,
      "蛋": 3203,
      "蛛": 3204,
      "蜀": 3205,
      "蜂": 3206,
      "蜍": 3207,
      "蜗": 3208,
      "蜘": 3209,
      "蝦": 3210,
      "蝶": 3211,
      "螭": 3212,
      "螺": 3213,
      "蟹": 3214,
      "蟾": 3215,
      "血": 3216,
      "行": 3217,
      "衍": 3218,
      "術": 3219,
      "街": 3220,
      "衛": 3221,
      "衣": 3222,
      "表": 3223,
      "衫": 3224,
      "袍": 3225,
      "被": 3226,
      "裁": 3227,
      "装": 3228,
      "裏": 3229,
      "裕": 3230,
      "補": 3231,
      "裝": 3232,
      "製": 3233,
      "西": 3234,
      "要": 3235,
      "覇": 3236,
      "見": 3237,
      "親": 3238,
      "観": 3239,
      "觀": 3240,
      "观": 3241,
      "视": 3242,
      "角": 3243,
      "解": 3244,
      "言": 3245,
      "計": 3246,
      "訊": 3247,
      "記": 3248,
      "訝": 3249,
      "許": 3250,
      "訳": 3251,
      "詞": 3252,
      "試": 3253,
      "詩": 3254,
      "話": 3255,
      "誌": 3256,
      "誕": 3257,
      "語": 3258,
      "誠": 3259,
      "說": 3260,
      "説": 3261,
      "読": 3262,
      "誰": 3263,
      "誼": 3264,
      "調": 3265,
      "談": 3266,
      "論": 3267,
      "諶": 3268,
      "諸": 3269,
      "諻": 3270,
      "謎": 3271,
      "謙": 3272,
      "謝": 3273,
      "譚": 3274,
      "警": 3275,
      "護": 3276,
      "變": 3277,
      "计": 3278,
      "议": 3279,
      "记": 3280,
      "许": 3281,
      "设": 3282,
      "证": 3283,
      "诊": 3284,
      "词": 3285,
      "诗": 3286,
      "诚": 3287,
      "话": 3288,
      "语": 3289,
      "请": 3290,
      "谈": 3291,
      "谊": 3292,
      "谌": 3293,
      "谜": 3294,
      "谢": 3295,
      "谭": 3296,
      "谷": 3297,
      "豆": 3298,
      "豊": 3299,
      "豌": 3300,
      "象": 3301,
      "豪": 3302,
      "貓": 3303,
      "貝": 3304,
      "貞": 3305,
      "財": 3306,
      "貢": 3307,
      "貨": 3308,
      "貫": 3309,
      "貴": 3310,
      "資": 3311,
      "賊": 3312,
      "賓": 3313,
      "賞": 3314,
      "賢": 3315,
      "賽": 3316,
      "贛": 3317,
      "贞": 3318,
      "财": 3319,
      "贵": 3320,
      "赋": 3321,
      "赛": 3322,
      "赤": 3323,
      "赫": 3324,
      "走": 3325,
      "起": 3326,
      "超": 3327,
      "越": 3328,
      "足": 3329,
      "跃": 3330,
      "路": 3331,
      "踊": 3332,
      "身": 3333,
      "車": 3334,
      "軍": 3335,
      "軟": 3336,
      "転": 3337,
      "軸": 3338,
      "軽": 3339,
      "輔": 3340,
      "輝": 3341,
      "輩": 3342,
      "輪": 3343,
      "轎": 3344,
      "车": 3345,
      "轻": 3346,
      "辛": 3347,
      "辜": 3348,
      "農": 3349,
      "边": 3350,
      "辺": 3351,
      "达": 3352,
      "运": 3353,
      "返": 3354,
      "进": 3355,
      "迦": 3356,
      "追": 3357,
      "逆": 3358,
      "逐": 3359,
      "途": 3360,
      "通": 3361,
      "速": 3362,
      "造": 3363,
      "連": 3364,
      "進": 3365,
      "遇": 3366,
      "遊": 3367,
      "運": 3368,
      "過": 3369,
      "道": 3370,
      "達": 3371,
      "遗": 3372,
      "遥": 3373,
      "適": 3374,
      "遺": 3375,
      "還": 3376,
      "邊": 3377,
      "邑": 3378,
      "那": 3379,
      "邦": 3380,
      "邪": 3381,
      "邮": 3382,
      "邱": 3383,
      "郁": 3384,
      "郎": 3385,
      "部": 3386,
      "都": 3387,
      "鄢": 3388,
      "鄭": 3389,
      "鄰": 3390,
      "酉": 3391,
      "配": 3392,
      "酒": 3393,
      "酢": 3394,
      "酱": 3395,
      "醫": 3396,
      "里": 3397,
      "重": 3398,
      "野": 3399,
      "量": 3400,
      "金": 3401,
      "釗": 3402,
      "釜": 3403,
      "針": 3404,
      "鈥": 3405,
      "鈴": 3406,
      "鉄": 3407,
      "鉢": 3408,
      "銀": 3409,
      "銅": 3410,
      "銑": 3411,
      "銘": 3412,
      "鋒": 3413,
      "錐": 3414,
      "錬": 3415,
      "鍋": 3416,
      "鎌": 3417,
      "鎖": 3418,
      "鏟": 3419,
      "鏡": 3420,
      "鐘": 3421,
      "鐵": 3422,
      "鑑": 3423,
      "鑫": 3424,
      "针": 3425,
      "钟": 3426,
      "钱": 3427,
      "钻": 3428,
      "铃": 3429,
      "铭": 3430,
      "银": 3431,
      "锥": 3432,
      "镇": 3433,
      "長": 3434,
      "长": 3435,
      "門": 3436,
      "閆": 3437,
      "開": 3438,
      "間": 3439,
      "関": 3440,
      "閥": 3441,
      "閩": 3442,
      "閪": 3443,
      "閻": 3444,
      "闘": 3445,
      "门": 3446,
      "闫": 3447,
      "间": 3448,
      "阎": 3449,
      "阜": 3450,
      "阪": 3451,
      "阮": 3452,
      "防": 3453,
      "阳": 3454,
      "阴": 3455,
      "阿": 3456,
      "陀": 3457,
      "际": 3458,
      "陆": 3459,
      "陈": 3460,
      "限": 3461,
      "陕": 3462,
      "院": 3463,
      "除": 3464,
      "陳": 3465,
      "陵": 3466,
      "陸": 3467,
      "陽": 3468,
      "隆": 3469,
      "隈": 3470,
      "隊": 3471,
      "隋": 3472,
      "階": 3473,
      "際": 3474,
      "隠": 3475,
      "隱": 3476,
      "难": 3477,
      "雄": 3478,
      "雅": 3479,
      "集": 3480,
      "雞": 3481,
      "雨": 3482,
      "雪": 3483,
      "雯": 3484,
      "雲": 3485,
      "零": 3486,
      "雷": 3487,
      "電": 3488,
      "需": 3489,
      "震": 3490,
      "霊": 3491,
      "霞": 3492,
      "霧": 3493,
      "露": 3494,
      "霸": 3495,
      "靈": 3496,
      "青": 3497,
      "靖": 3498,
      "非": 3499,
      "面": 3500,
      "革": 3501,
      "鞏": 3502,
      "鞑": 3503,
      "鞠": 3504,
      "韓": 3505,
      "韩": 3506,
      "音": 3507,
      "響": 3508,
      "順": 3509,
      "預": 3510,
      "領": 3511,
      "頭": 3512,
      "頹": 3513,
      "頼": 3514,
      "顏": 3515,
      "顔": 3516,
      "類": 3517,
      "顧": 3518,
      "页": 3519,
      "须": 3520,
      "顾": 3521,
      "预": 3522,
      "颜": 3523,
      "風": 3524,
      "飛": 3525,
      "食": 3526,
      "飯": 3527,
      "飽": 3528,
      "飾": 3529,
      "餃": 3530,
      "養": 3531,
      "餐": 3532,
      "餘": 3533,
      "館": 3534,
      "饑": 3535,
      "饥": 3536,
      "饭": 3537,
      "饺": 3538,
      "饼": 3539,
      "首": 3540,
      "香": 3541,
      "馬": 3542,
      "駄": 3543,
      "駕": 3544,
      "駿": 3545,
      "騋": 3546,
      "騎": 3547,
      "験": 3548,
      "騨": 3549,
      "驛": 3550,
      "驢": 3551,
      "马": 3552,
      "驱": 3553,
      "骨": 3554,
      "體": 3555,
      "高": 3556,
      "髙": 3557,
      "鬼": 3558,
      "魂": 3559,
      "魏": 3560,
      "魔": 3561,
      "魚": 3562,
      "魯": 3563,
      "鮮": 3564,
      "鯉": 3565,
      "鯤": 3566,
      "鯨": 3567,
      "鯱": 3568,
      "鰻": 3569,
      "鱷": 3570,
      "鱼": 3571,
      "鲛": 3572,
      "鲤": 3573,
      "鲲": 3574,
      "鲶": 3575,
      "鲽": 3576,
      "鳄": 3577,
      "鳗": 3578,
      "鳥": 3579,
      "鳩": 3580,
      "鳳": 3581,
      "鳴": 3582,
      "鴉": 3583,
      "鴿": 3584,
      "鵬": 3585,
      "鶯": 3586,
      "鷄": 3587,
      "鷹": 3588,
      "鸟": 3589,
      "鸡": 3590,
      "鸽": 3591,
      "鹏": 3592,
      "鹵": 3593,
      "鹹": 3594,
      "鹿": 3595,
      "麗": 3596,
      "麵": 3597,
      "麹": 3598,
      "麺": 3599,
      "麻": 3600,
      "麼": 3601,
      "黃": 3602,
      "黄": 3603,
      "黒": 3604,
      "點": 3605,
      "鼠": 3606,
      "鼻": 3607,
      "齐": 3608,
      "齡": 3609,
      "齿": 3610,
      "龍": 3611,
      "龔": 3612,
      "龙": 3613,
      "ꜜ": 3614,
      "ꜣ": 3615,
      "ꜥ": 3616,
      "ꞌ": 3617,
      "ꦗ": 3618,
      "ꦮ": 3619,
      "ꭰ": 3620,
      "ꭲ": 3621,
      "ꭳ": 3622,
      "ꭶ": 3623,
      "ꭸ": 3624,
      "ꭹ": 3625,
      "ꭿ": 3626,
      "ꮀ": 3627,
      "ꮃ": 3628,
      "ꮄ": 3629,
      "ꮅ": 3630,
      "ꮉ": 3631,
      "ꮎ": 3632,
      "ꮒ": 3633,
      "ꮕ": 3634,
      "ꮙ": 3635,
      "ꮜ": 3636,
      "ꮝ": 3637,
      "ꮞ": 3638,
      "ꮟ": 3639,
      "ꮤ": 3640,
      "ꮦ": 3641,
      "ꮧ": 3642,
      "ꮳ": 3643,
      "ꮷ": 3644,
      "ꮻ": 3645,
      "ꮼ": 3646,
      "ꮿ": 3647,
      "ﬀ": 3648,
      "ﬁ": 3649,
      "ﬂ": 3650,
      "ﬃ": 3651,
      "ﬄ": 3652,
      "ﮐ": 3653,
      "ﯽ": 3654,
      "﴾": 3655,
      "﴿": 3656,
      "ﷺ": 3657,
      "﷼": 3658,
      "ﺍ": 3659,
      "ﺐ": 3660,
      "ﺑ": 3661,
      "ﺒ": 3662,
      "ﺔ": 3663,
      "ﺗ": 3664,
      "ﺢ": 3665,
      "ﺣ": 3666,
      "ﺭ": 3667,
      "ﺮ": 3668,
      "ﺳ": 3669,
      "ﻊ": 3670,
      "ﻟ": 3671,
      "ﻠ": 3672,
      "ﻤ": 3673,
      "ﻭ": 3674,
      "ﻲ": 3675,
      "ﻴ": 3676,
      "！": 3677,
      "％": 3678,
      "（": 3679,
      "）": 3680,
      "＊": 3681,
      "＋": 3682,
      "，": 3683,
      "－": 3684,
      "．": 3685,
      "０": 3686,
      "１": 3687,
      "９": 3688,
      "：": 3689,
      "；": 3690,
      "＝": 3691,
      "＞": 3692,
      "？": 3693,
      "｀": 3694,
      "ａ": 3695,
      "ｂ": 3696,
      "ｅ": 3697,
      "ｇ": 3698,
      "ｉ": 3699,
      "ｋ": 3700,
      "ｎ": 3701,
      "ｏ": 3702,
      "ｒ": 3703,
      "ｓ": 3704,
      "ｔ": 3705,
      "ｕ": 3706,
      "ｘ": 3707,
      "ｚ": 3708,
      "｜": 3709,
      "～": 3710,
      "･": 3711,
      "ｮ": 3712,
      "ｲ": 3713,
      "ﾀ": 3714,
      "ﾄ": 3715,
      "ﾉ": 3716,
      "ﾎ": 3717,
      "ﾒ": 3718,
      "ﾓ": 3719,
      "ﾙ": 3720,
      "ﾜ": 3721,
      "ﾠ": 3722,
      "￠": 3723,
      "￢": 3724,
      "￥": 3725,
      "￮": 3726,
      "𐀁": 3727,
      "𐀄": 3728,
      "𐀓": 3729,
      "𐀖": 3730,
      "𐀜": 3731,
      "𐀞": 3732,
      "𐀟": 3733,
      "𐀣": 3734,
      "𐀨": 3735,
      "𐀩": 3736,
      "𐀫": 3737,
      "𐀯": 3738,
      "𐁊": 3739,
      "𐎠": 3740,
      "𐎧": 3741,
      "𐎰": 3742,
      "𐎷": 3743,
      "𐎹": 3744,
      "𐎼": 3745,
      "𐏁": 3746,
      "𐤃": 3747,
      "𐤇": 3748,
      "𐤒": 3749,
      "𐤓": 3750,
      "𐤔": 3751,
      "𐤕": 3752,
      "𐩨": 3753,
      "𐩪": 3754,
      "𐩱": 3755,
      "𐬀": 3756,
      "𐬌": 3757,
      "𐬚": 3758,
      "𐬨": 3759,
      "𐬭": 3760,
      "𒀀": 3761,
      "𒂆": 3762,
      "𒂍": 3763,
      "𒂵": 3764,
      "𒄑": 3765,
      "𒆪": 3766,
      "𒈦": 3767,
      "𒈩": 3768,
      "𒉈": 3769,
      "𒊏": 3770,
      "𒊹": 3771,
      "𒋾": 3772,
      "𓇳": 3773,
      "𓈖": 3774,
      "𝑀": 3775,
      "𝑁": 3776,
      "𝑇": 3777,
      "𝑋": 3778,
      "𝑌": 3779,
      "𝑔": 3780,
      "𝑝": 3781,
      "𝑞": 3782,
      "𝑡": 3783,
      "𝑦": 3784,
      "𝛿": 3785,
      "𝜇": 3786,
      "𝟙": 3787,
      "🅱": 3788,
      "🅲": 3789,
      "🅴": 3790,
      "🅸": 3791,
      "🆁": 3792,
      "🆂": 3793,
      "🆄": 3794,
      "🆕": 3795,
      "🇦": 3796,
      "🇧": 3797,
      "🇨": 3798,
      "🇬": 3799,
      "🇭": 3800,
      "🇮": 3801,
      "🇳": 3802,
      "🇴": 3803,
      "🇸": 3804,
      "🇹": 3805,
      "🇺": 3806,
      "🌀": 3807,
      "🌆": 3808,
      "🌈": 3809,
      "🌊": 3810,
      "🌍": 3811,
      "🌎": 3812,
      "🌞": 3813,
      "🌟": 3814,
      "🌭": 3815,
      "🌱": 3816,
      "🌴": 3817,
      "🌵": 3818,
      "🌷": 3819,
      "🌸": 3820,
      "🌹": 3821,
      "🌺": 3822,
      "🌻": 3823,
      "🍀": 3824,
      "🍁": 3825,
      "🍃": 3826,
      "🍆": 3827,
      "🍇": 3828,
      "🍉": 3829,
      "🍋": 3830,
      "🍌": 3831,
      "🍑": 3832,
      "🍓": 3833,
      "🍔": 3834,
      "🍕": 3835,
      "🍦": 3836,
      "🍪": 3837,
      "🍫": 3838,
      "🍬": 3839,
      "🍭": 3840,
      "🍮": 3841,
      "🍳": 3842,
      "🍹": 3843,
      "🍺": 3844,
      "🍻": 3845,
      "🍽": 3846,
      "🎁": 3847,
      "🎂": 3848,
      "🎄": 3849,
      "🎅": 3850,
      "🎈": 3851,
      "🎉": 3852,
      "🎊": 3853,
      "🎓": 3854,
      "🎟": 3855,
      "🎤": 3856,
      "🎥": 3857,
      "🎧": 3858,
      "🎨": 3859,
      "🎬": 3860,
      "🎯": 3861,
      "🎵": 3862,
      "🎶": 3863,
      "🏀": 3864,
      "🏃": 3865,
      "🏆": 3866,
      "🏈": 3867,
      "🏓": 3868,
      "🏙": 3869,
      "🏻": 3870,
      "🏼": 3871,
      "🏽": 3872,
      "🏾": 3873,
      "🏿": 3874,
      "🐉": 3875,
      "🐊": 3876,
      "🐐": 3877,
      "🐘": 3878,
      "🐚": 3879,
      "🐢": 3880,
      "🐦": 3881,
      "🐬": 3882,
      "🐱": 3883,
      "🐵": 3884,
      "🐶": 3885,
      "🐸": 3886,
      "🐻": 3887,
      "🐿": 3888,
      "👀": 3889,
      "👁": 3890,
      "👄": 3891,
      "👆": 3892,
      "👇": 3893,
      "👈": 3894,
      "👉": 3895,
      "👊": 3896,
      "👌": 3897,
      "👍": 3898,
      "👎": 3899,
      "👏": 3900,
      "👑": 3901,
      "👓": 3902,
      "👗": 3903,
      "👙": 3904,
      "👣": 3905,
      "👤": 3906,
      "👥": 3907,
      "👨": 3908,
      "👩": 3909,
      "👵": 3910,
      "👶": 3911,
      "👻": 3912,
      "👽": 3913,
      "👾": 3914,
      "💃": 3915,
      "💅": 3916,
      "💆": 3917,
      "💋": 3918,
      "💌": 3919,
      "💍": 3920,
      "💎": 3921,
      "💐": 3922,
      "💓": 3923,
      "💔": 3924,
      "💕": 3925,
      "💖": 3926,
      "💗": 3927,
      "💘": 3928,
      "💙": 3929,
      "💚": 3930,
      "💛": 3931,
      "💜": 3932,
      "💞": 3933,
      "💡": 3934,
      "💥": 3935,
      "💦": 3936,
      "💨": 3937,
      "💩": 3938,
      "💪": 3939,
      "💫": 3940,
      "💬": 3941,
      "💭": 3942,
      "💯": 3943,
      "💰": 3944,
      "💸": 3945,
      "💹": 3946,
      "📊": 3947,
      "📋": 3948,
      "📍": 3949,
      "📙": 3950,
      "📚": 3951,
      "📝": 3952,
      "📞": 3953,
      "📟": 3954,
      "📩": 3955,
      "📱": 3956,
      "📲": 3957,
      "📷": 3958,
      "📸": 3959,
      "📺": 3960,
      "📽": 3961,
      "🔊": 3962,
      "🔍": 3963,
      "🔎": 3964,
      "🔒": 3965,
      "🔞": 3966,
      "🔥": 3967,
      "🔧": 3968,
      "🔴": 3969,
      "🔵": 3970,
      "🔸": 3971,
      "🔼": 3972,
      "🔽": 3973,
      "🖕": 3974,
      "🖳": 3975,
      "🗡": 3976,
      "🗯": 3977,
      "😀": 3978,
      "😁": 3979,
      "😂": 3980,
      "😃": 3981,
      "😄": 3982,
      "😇": 3983,
      "😈": 3984,
      "😉": 3985,
      "😊": 3986,
      "😋": 3987,
      "😌": 3988,
      "😍": 3989,
      "😎": 3990,
      "😑": 3991,
      "😒": 3992,
      "😘": 3993,
      "😛": 3994,
      "😜": 3995,
      "😡": 3996,
      "😢": 3997,
      "😤": 3998,
      "😥": 3999,
      "😩": 4000,
      "😫": 4001,
      "😬": 4002,
      "😭": 4003,
      "😮": 4004,
      "😱": 4005,
      "😳": 4006,
      "😴": 4007,
      "😵": 4008,
      "😸": 4009,
      "😺": 4010,
      "😻": 4011,
      "🙀": 4012,
      "🙁": 4013,
      "🙂": 4014,
      "🙃": 4015,
      "🙅": 4016,
      "🙈": 4017,
      "🙊": 4018,
      "🙋": 4019,
      "🙌": 4020,
      "🙏": 4021,
      "🚀": 4022,
      "🚑": 4023,
      "🚗": 4024,
      "🚧": 4025,
      "🚨": 4026,
      "🚩": 4027,
      "🚫": 4028,
      "🚭": 4029,
      "🚯": 4030,
      "🚱": 4031,
      "🚳": 4032,
      "🚴": 4033,
      "🚷": 4034,
      "🚸": 4035,
      "🚹": 4036,
      "🚺": 4037,
      "🚻": 4038,
      "🚼": 4039,
      "🚾": 4040,
      "🛍": 4041,
      "🤒": 4042,
      "🤔": 4043,
      "🤗": 4044,
      "🤤": 4045,
      "🤷": 4046,
      "🥃": 4047,
      "🥈": 4048,
      "🥉": 4049,
      "🦁": 4050,
      "🦋": 4051,
      "🧡": 4052,
      "𡳞": 4053,
      "𨳒": 4054,
      "𨶙": 4055,
      "##o": 4056,
      "##i": 4057,
      "##s": 4058,
      "##e": 4059,
      "##®": 4060,
      "##c": 4061,
      "##2": 4062,
      "##3": 4063,
      "##0": 4064,
      "##r": 4065,
      "##t": 4066,
      "##h": 4067,
      "##y": 4068,
      "##4": 4069,
      "##m": 4070,
      "##g": 4071,
      "##z": 4072,
      "##u": 4073,
      "##n": 4074,
      "##w": 4075,
      "##d": 4076,
      "##a": 4077,
      "##k": 4078,
      "##6": 4079,
      "##9": 4080,
      "##1": 4081,
      "##b": 4082,
      "##l": 4083,
      "##5": 4084,
      "##8": 4085,
      "##p": 4086,
      "##f": 4087,
      "##ﬁ": 4088,
      "##7": 4089,
      "##v": 4090,
      "##ニ": 4091,
      "##ッ": 4092,
      "##ク": 4093,
      "##ア": 4094,
      "##ト": 4095,
      "##ヘ": 4096,
      "##ン": 4097,
      "##チ": 4098,
      "##ャ": 4099,
      "##ー": 4100,
      "##ᅡ": 4101,
      "##ᆷ": 4102,
      "##ᄉ": 4103,
      "##ᅥ": 4104,
      "##ᆼ": 4105,
      "##ɪ": 4106,
      "##ᵻ": 4107,
      "##ː": 4108,
      "##°": 4109,
      "##x": 4110,
      "##ˈ": 4111,
      "##ɦ": 4112,
      "##ɔ": 4113,
      "##q": 4114,
      "##ʊ": 4115,
      "##ʒ": 4116,
      "##ʼ": 4117,
      "##ο": 4118,
      "##ν": 4119,
      "##τ": 4120,
      "##ι": 4121,
      "##α": 4122,
      "##κ": 4123,
      "##η": 4124,
      "##ɑ": 4125,
      "##ə": 4126,
      "##−": 4127,
      "##ε": 4128,
      "##υ": 4129,
      "##ρ": 4130,
      "##™": 4131,
      "##λ": 4132,
      "##π": 4133,
      "##σ": 4134,
      "##ς": 4135,
      "##ɣ": 4136,
      "##ɾ": 4137,
      "##j": 4138,
      "##у": 4139,
      "##н": 4140,
      "##т": 4141,
      "##ы": 4142,
      "##æ": 4143,
      "##ʃ": 4144,
      "##ա": 4145,
      "##ր": 4146,
      "##ի": 4147,
      "##մ": 4148,
      "##ı": 4149,
      "##л": 4150,
      "##а": 4151,
      "##д": 4152,
      "##е": 4153,
      "##р": 4154,
      "##■": 4155,
      "##ŋ": 4156,
      "##↔": 4157,
      "##º": 4158,
      "##©": 4159,
      "##ل": 4160,
      "##ق": 4161,
      "##ر": 4162,
      "##ش": 4163,
      "##ي": 4164,
      "##½": 4165,
      "##´": 4166,
      "##¤": 4167,
      "##ᅦ": 4168,
      "##ᄅ": 4169,
      "##ᅵ": 4170,
      "##ᆨ": 4171,
      "##ᄋ": 4172,
      "##ک": 4173,
      "##ھ": 4174,
      "##ا": 4175,
      "##ی": 4176,
      "##ˌ": 4177,
      "##🐊": 4178,
      "##ɛ": 4179,
      "##♪": 4180,
      "##→": 4181,
      "##θ": 4182,
      "##ロ": 4183,
      "##±": 4184,
      "##テ": 4185,
      "##ス": 4186,
      "##с": 4187,
      "##х": 4188,
      "##ʌ": 4189,
      "##ו": 4190,
      "##ל": 4191,
      "##ק": 4192,
      "##י": 4193,
      "##ן": 4194,
      "##ث": 4195,
      "##ب": 4196,
      "##μ": 4197,
      "##℃": 4198,
      "##п": 4199,
      "##γ": 4200,
      "##˚": 4201,
      "##⁻": 4202,
      "##€": 4203,
      "##ʲ": 4204,
      "##レ": 4205,
      "##の": 4206,
      "##タ": 4207,
      "##メ": 4208,
      "##¬": 4209,
      "##●": 4210,
      "##و": 4211,
      "##ة": 4212,
      "##र": 4213,
      "##ी": 4214,
      "##क": 4215,
      "##ष": 4216,
      "##ा": 4217,
      "##ج": 4218,
      "##ɒ": 4219,
      "##ɲ": 4220,
      "##𐎰": 4221,
      "##𐎼": 4222,
      "##ʻ": 4223,
      "##ɡ": 4224,
      "##ɨ": 4225,
      "##√": 4226,
      "##خ": 4227,
      "##ص": 4228,
      "##ม": 4229,
      "##ล": 4230,
      "##м": 4231,
      "##¹": 4232,
      "##ב": 4233,
      "##ר": 4234,
      "##ת": 4235,
      "##ɚ": 4236,
      "##χ": 4237,
      "##ن": 4238,
      "##▲": 4239,
      "##×": 4240,
      "##イ": 4241,
      "##カ": 4242,
      "##ح": 4243,
      "##ى": 4244,
      "##♯": 4245,
      "##േ": 4246,
      "##ാ": 4247,
      "##ന": 4248,
      "##ീ": 4249,
      "##د": 4250,
      "##س": 4251,
      "##ɐ": 4252,
      "##キ": 4253,
      "##フ": 4254,
      "##ル": 4255,
      "##ے": 4256,
      "##🐸": 4257,
      "##☕": 4258,
      "##ᅯ": 4259,
      "##ᆫ": 4260,
      "##ᄈ": 4261,
      "##ᅮ": 4262,
      "##ᆯ": 4263,
      "##о": 4264,
      "##и": 4265,
      "##ѣ": 4266,
      "##ъ": 4267,
      "##к": 4268,
      "##マ": 4269,
      "##ュ": 4270,
      "##ケ": 4271,
      "##と": 4272,
      "##ˤ": 4273,
      "##¢": 4274,
      "##ᅩ": 4275,
      "##ᄍ": 4276,
      "##ð": 4277,
      "##צ": 4278,
      "##פ": 4279,
      "##ה": 4280,
      "##⋅": 4281,
      "##δ": 4282,
      "##📩": 4283,
      "##ח": 4284,
      "##ש": 4285,
      "##ᄂ": 4286,
      "##ᄌ": 4287,
      "##ʁ": 4288,
      "##া": 4289,
      "##ক": 4290,
      "##দ": 4291,
      "##স": 4292,
      "##ь": 4293,
      "##ह": 4294,
      "##य": 4295,
      "##त": 4296,
      "##в": 4297,
      "##ㅅ": 4298,
      "##♡": 4299,
      "##❏": 4300,
      "##ع": 4301,
      "##ه": 4302,
      "##г": 4303,
      "##ˑ": 4304,
      "##ʳ": 4305,
      "##ɜ": 4306,
      "##ʔ": 4307,
      "##♠": 4308,
      "##℉": 4309,
      "##ﬂ": 4310,
      "##ラ": 4311,
      "##コ": 4312,
      "##リ": 4313,
      "##シ": 4314,
      "##モ": 4315,
      "##इ": 4316,
      "##ट": 4317,
      "##б": 4318,
      "##˜": 4319,
      "##⁰": 4320,
      "##ホ": 4321,
      "##ミ": 4322,
      "##さ": 4323,
      "##ম": 4324,
      "##ৰ": 4325,
      "##ß": 4326,
      "##ゃ": 4327,
      "##ふ": 4328,
      "##²": 4329,
      "##▼": 4330,
      "##⁺": 4331,
      "##უ": 4332,
      "##რ": 4333,
      "##ი": 4334,
      "##✓": 4335,
      "##¨": 4336,
      "##β": 4337,
      "##ょ": 4338,
      "##う": 4339,
      "##は": 4340,
      "##⁄": 4341,
      "##ร": 4342,
      "##ะ": 4343,
      "##ห": 4344,
      "##า": 4345,
      "##ก": 4346,
      "##ษ": 4347,
      "##ต": 4348,
      "##ย": 4349,
      "##ไ": 4350,
      "##ท": 4351,
      "##φ": 4352,
      "##³": 4353,
      "##þ": 4354,
      "##ん": 4355,
      "##し": 4356,
      "##ゅ": 4357,
      "##ד": 4358,
      "##ך": 4359,
      "##ʷ": 4360,
      "##ᄐ": 4361,
      "##ˆ": 4362,
      "##ꜣ": 4363,
      "##श": 4364,
      "##म": 4365,
      "##ł": 4366,
      "##م": 4367,
      "##ك": 4368,
      "##ف": 4369,
      "##♭": 4370,
      "##נ": 4371,
      "##ت": 4372,
      "##थ": 4373,
      "##ि": 4374,
      "##ɫ": 4375,
      "##व": 4376,
      "##न": 4377,
      "##ω": 4378,
      "##ᄑ": 4379,
      "##ᅳ": 4380,
      "##ण": 4381,
      "##ᄃ": 4382,
      "##ᅢ": 4383,
      "##ч": 4384,
      "##ड": 4385,
      "##प": 4386,
      "##て": 4387,
      "##ⵓ": 4388,
      "##ⴱ": 4389,
      "##ⴽ": 4390,
      "##ⴰ": 4391,
      "##ⵍ": 4392,
      "##ɕ": 4393,
      "##ʰ": 4394,
      "##ե": 4395,
      "##յ": 4396,
      "##ո": 4397,
      "##ն": 4398,
      "##դ": 4399,
      "##す": 4400,
      "##る": 4401,
      "##ξ": 4402,
      "##ᄒ": 4403,
      "##ᆸ": 4404,
      "##ʎ": 4405,
      "##ԁ": 4406,
      "##ღ": 4407,
      "##ʑ": 4408,
      "##œ": 4409,
      "##з": 4410,
      "##મ": 4411,
      "##લ": 4412,
      "##𐤃": 4413,
      "##𐤔": 4414,
      "##𐤕": 4415,
      "##⎜": 4416,
      "##∇": 4417,
      "##ʝ": 4418,
      "##ɖ": 4419,
      "##ರ": 4420,
      "##ೕ": 4421,
      "##ಷ": 4422,
      "##ಠ": 4423,
      "##ಾ": 4424,
      "##റ": 4425,
      "##ണ": 4426,
      "##ക": 4427,
      "##ള": 4428,
      "##ം": 4429,
      "##چ": 4430,
      "##ර": 4431,
      "##ා": 4432,
      "##ס": 4433,
      "##ض": 4434,
      "##¦": 4435,
      "##і": 4436,
      "##ট": 4437,
      "##ে": 4438,
      "##ড": 4439,
      "##ি": 4440,
      "##য": 4441,
      "##ʹ": 4442,
      "##ே": 4443,
      "##ா": 4444,
      "##ட": 4445,
      "##ி": 4446,
      "##ж": 4447,
      "##₃": 4448,
      "##ो": 4449,
      "##я": 4450,
      "##ォ": 4451,
      "##ø": 4452,
      "##○": 4453,
      "##ヤ": 4454,
      "##ヒ": 4455,
      "##ע": 4456,
      "##מ": 4457,
      "##א": 4458,
      "##ɵ": 4459,
      "##⅜": 4460,
      "##😭": 4461,
      "##ᄆ": 4462,
      "##ħ": 4463,
      "##☄": 4464,
      "##ल": 4465,
      "##ग": 4466,
      "##│": 4467,
      "##◊": 4468,
      "##れ": 4469,
      "##£": 4470,
      "##ய": 4471,
      "##ு": 4472,
      "##ஷ": 4473,
      "##¯": 4474,
      "##ѕ": 4475,
      "##জ": 4476,
      "##খ": 4477,
      "##ৱ": 4478,
      "##ﬀ": 4479,
      "##ด": 4480,
      "##द": 4481,
      "##🙂": 4482,
      "##ɝ": 4483,
      "##た": 4484,
      "##µ": 4485,
      "##ధ": 4486,
      "##య": 4487,
      "##∘": 4488,
      "##ʉ": 4489,
      "##ᵿ": 4490,
      "##ʿ": 4491,
      "##な": 4492,
      "##か": 4493,
      "##セ": 4494,
      "##ハ": 4495,
      "##হ": 4496,
      "##ন": 4497,
      "##ब": 4498,
      "##≤": 4499,
      "##ʏ": 4500,
      "##℠": 4501,
      "##स": 4502,
      "##ɹ": 4503,
      "##հ": 4504,
      "##ᅪ": 4505,
      "##₂": 4506,
      "##ᅧ": 4507,
      "##ᄇ": 4508,
      "##¼": 4509,
      "##ɠ": 4510,
      "##ꮟ": 4511,
      "##ꮙ": 4512,
      "##ꮿ": 4513,
      "##ろ": 4514,
      "##ᅴ": 4515,
      "##よ": 4516,
      "##っ": 4517,
      "##ख": 4518,
      "##ɳ": 4519,
      "##ـ": 4520,
      "##へ": 4521,
      "##く": 4522,
      "##ヵ": 4523,
      "##↓": 4524,
      "##ध": 4525,
      "##ґ": 4526,
      "##ウ": 4527,
      "##★": 4528,
      "##♥": 4529,
      "##˙": 4530,
      "##⇓": 4531,
      "##♮": 4532,
      "##ᵊ": 4533,
      "##గ": 4534,
      "##ద": 4535,
      "##ވ": 4536,
      "##ހ": 4537,
      "##ц": 4538,
      "##ڑ": 4539,
      "##░": 4540,
      "##▀": 4541,
      "##ᄀ": 4542,
      "##♦": 4543,
      "##ィ": 4544,
      "##ง": 4545,
      "##อ": 4546,
      "##あ": 4547,
      "##⇑": 4548,
      "##✨": 4549,
      "##ೂ": 4550,
      "##ನ": 4551,
      "##ם": 4552,
      "##ナ": 4553,
      "##い": 4554,
      "##ま": 4555,
      "##ɬ": 4556,
      "##տ": 4557,
      "##շ": 4558,
      "##ム": 4559,
      "##ט": 4560,
      "##み": 4561,
      "##ᅬ": 4562,
      "##☝": 4563,
      "##👉": 4564,
      "##👇": 4565,
      "##👾": 4566,
      "##ワ": 4567,
      "##ﬃ": 4568,
      "##ネ": 4569,
      "##ꮝ": 4570,
      "##ꭶ": 4571,
      "##ʺ": 4572,
      "##ط": 4573,
      "##ሰ": 4574,
      "##ጥ": 4575,
      "##ⵕ": 4576,
      "##ⵟ": 4577,
      "##つ": 4578,
      "##÷": 4579,
      "##¾": 4580,
      "##⁵": 4581,
      "##ᄎ": 4582,
      "##ℓ": 4583,
      "##☾": 4584,
      "##ψ": 4585,
      "##વ": 4586,
      "##િ": 4587,
      "##ત": 4588,
      "##ા": 4589,
      "##∀": 4590,
      "##๑": 4591,
      "##غ": 4592,
      "##ᵗ": 4593,
      "##⅞": 4594,
      "##ˀ": 4595,
      "##¥": 4596,
      "##น": 4597,
      "##แ": 4598,
      "##め": 4599,
      "##エ": 4600,
      "##ェ": 4601,
      "##ソ": 4602,
      "##ᅭ": 4603,
      "##❗": 4604,
      "##𐀞": 4605,
      "##𐀫": 4606,
      "##ज": 4607,
      "##∈": 4608,
      "##ℚ": 4609,
      "##ョ": 4610,
      "##₁": 4611,
      "##ף": 4612,
      "##🏼": 4613,
      "##り": 4614,
      "##わ": 4615,
      "##ш": 4616,
      "##に": 4617,
      "##ち": 4618,
      "##उ": 4619,
      "##˨": 4620,
      "##☼": 4621,
      "##ढ": 4622,
      "##བ": 4623,
      "##љ": 4624,
      "##▬": 4625,
      "##✪": 4626,
      "##₅": 4627,
      "##ድ": 4628,
      "##ረ": 4629,
      "##ግ": 4630,
      "##👍": 4631,
      "##💃": 4632,
      "##ј": 4633,
      "##⅛": 4634,
      "##ʾ": 4635,
      "##ァ": 4636,
      "##⇔": 4637,
      "##छ": 4638,
      "##ʋ": 4639,
      "##ג": 4640,
      "##₆": 4641,
      "##த": 4642,
      "##ன": 4643,
      "##≅": 4644,
      "##♫": 4645,
      "##ਲ": 4646,
      "##ਾ": 4647,
      "##￠": 4648,
      "##ツ": 4649,
      "##ɿ": 4650,
      "##ɥ": 4651,
      "##ʂ": 4652,
      "##ײ": 4653,
      "##ʕ": 4654,
      "##˝": 4655,
      "##◦": 4656,
      "##ર": 4657,
      "##ી": 4658,
      "##ည": 4659,
      "##က": 4660,
      "##လ": 4661,
      "##ာ": 4662,
      "##˧": 4663,
      "##˩": 4664,
      "##こ": 4665,
      "##∏": 4666,
      "##ϕ": 4667,
      "##⁶": 4668,
      "##₈": 4669,
      "##ര": 4670,
      "##ശ": 4671,
      "##ζ": 4672,
      "##ֆ": 4673,
      "##অ": 4674,
      "##ျ": 4675,
      "##ပ": 4676,
      "##ء": 4677,
      "##ﻴ": 4678,
      "##ﮐ": 4679,
      "##ﺮ": 4680,
      "##ﺗ": 4681,
      "##☀": 4682,
      "##भ": 4683,
      "##∆": 4684,
      "##オ": 4685,
      "##ལ": 4686,
      "##đ": 4687,
      "##ว": 4688,
      "##ʈ": 4689,
      "##เ": 4690,
      "##ℝ": 4691,
      "##શ": 4692,
      "##ક": 4693,
      "##⇌": 4694,
      "##ɟ": 4695,
      "##ர": 4696,
      "##💓": 4697,
      "##🙀": 4698,
      "##ம": 4699,
      "##ப": 4700,
      "##ல": 4701,
      "##க": 4702,
      "##ள": 4703,
      "##𐀖": 4704,
      "##𐀜": 4705,
      "##ɽ": 4706,
      "##প": 4707,
      "##ল": 4708,
      "##お": 4709,
      "##ら": 4710,
      "##ฮ": 4711,
      "##ซ": 4712,
      "##ˇ": 4713,
      "##𐀯": 4714,
      "##𐀩": 4715,
      "##𐀄": 4716,
      "##𐤓": 4717,
      "##ہ": 4718,
      "##ذ": 4719,
      "##ˠ": 4720,
      "##¸": 4721,
      "##⁹": 4722,
      "##ױ": 4723,
      "##כ": 4724,
      "##❀": 4725,
      "##∞": 4726,
      "##ز": 4727,
      "##ባ": 4728,
      "##ይ": 4729,
      "##ை": 4730,
      "##ɘ": 4731,
      "##ધ": 4732,
      "##ય": 4733,
      "##サ": 4734,
      "##မ": 4735,
      "##န": 4736,
      "##け": 4737,
      "##⅔": 4738,
      "##█": 4739,
      "##▄": 4740,
      "##ெ": 4741,
      "##ね": 4742,
      "##✒": 4743,
      "##ז": 4744,
      "##ও": 4745,
      "##😡": 4746,
      "##ⲛ": 4747,
      "##ⲧ": 4748,
      "##ⲱ": 4749,
      "##ⲓ": 4750,
      "##կ": 4751,
      "##լ": 4752,
      "##գ": 4753,
      "##ส": 4754,
      "##⊥": 4755,
      "##ʱ": 4756,
      "##そ": 4757,
      "##∂": 4758,
      "##ა": 4759,
      "##ქ": 4760,
      "##თ": 4761,
      "##ვ": 4762,
      "##ე": 4763,
      "##ლ": 4764,
      "##ო": 4765,
      "##ª": 4766,
      "##🚀": 4767,
      "##ठ": 4768,
      "##ፐ": 4769,
      "##ብ": 4770,
      "##ሊ": 4771,
      "##ክ": 4772,
      "##═": 4773,
      "##╦": 4774,
      "##╗": 4775,
      "##╔": 4776,
      "##ბ": 4777,
      "##ს": 4778,
      "##ʤ": 4779,
      "##∼": 4780,
      "##ಡ": 4781,
      "##∗": 4782,
      "##ས": 4783,
      "##➤": 4784,
      "##ᅲ": 4785,
      "##ぇ": 4786,
      "##ɯ": 4787,
      "##☺": 4788,
      "##😂": 4789,
      "##ᄁ": 4790,
      "##☆": 4791,
      "##ŧ": 4792,
      "##ታ": 4793,
      "##ង": 4794,
      "##គ": 4795,
      "##រ": 4796,
      "##₄": 4797,
      "##∙": 4798,
      "##も": 4799,
      "##き": 4800,
      "##🍪": 4801,
      "##🍮": 4802,
      "##🍫": 4803,
      "##🍬": 4804,
      "##🍭": 4805,
      "##ป": 4806,
      "##₵": 4807,
      "##ひ": 4808,
      "##≈": 4809,
      "##ষ": 4810,
      "##র": 4811,
      "##ම": 4812,
      "##ක": 4813,
      "##ත": 4814,
      "##ꜜ": 4815,
      "##🙈": 4816,
      "##پ": 4817,
      "##ڈ": 4818,
      "##ந": 4819,
      "##ಂ": 4820,
      "##ಗ": 4821,
      "##ಳ": 4822,
      "##ು": 4823,
      "##ᄏ": 4824,
      "##ञ": 4825,
      "##च": 4826,
      "##ำ": 4827,
      "##ۥ": 4828,
      "##↑": 4829,
      "##ः": 4830,
      "##ල": 4831,
      "##ෙ": 4832,
      "##گ": 4833,
      "##వ": 4834,
      "##త": 4835,
      "##ᆹ": 4836,
      "##ʀ": 4837,
      "##⃝": 4838,
      "##ช": 4839,
      "##ほ": 4840,
      "##ᬮ": 4841,
      "##ศ": 4842,
      "##⃣": 4843,
      "##ｏ": 4844,
      "##ｒ": 4845,
      "##ｕ": 4846,
      "##ｔ": 4847,
      "##𐩨": 4848,
      "##𐩱": 4849,
      "##യ": 4850,
      "##ौ": 4851,
      "##ী": 4852,
      "##ు": 4853,
      "##శ": 4854,
      "##ವ": 4855,
      "##ತ": 4856,
      "##ค": 4857,
      "##ץ": 4858,
      "##∋": 4859,
      "##℧": 4860,
      "##ſ": 4861,
      "##ӕ": 4862,
      "##ደ": 4863,
      "##ት": 4864,
      "##ᆺ": 4865,
      "##せ": 4866,
      "##ф": 4867,
      "##🔥": 4868,
      "##ષ": 4869,
      "##ઠ": 4870,
      "##ስ": 4871,
      "##ђ": 4872,
      "##⁴": 4873,
      "##🇦": 4874,
      "##─": 4875,
      "##є": 4876,
      "##ƒ": 4877,
      "##ɴ": 4878,
      "##ழ": 4879,
      "##˘": 4880,
      "##ຈ": 4881,
      "##ˉ": 4882,
      "##అ": 4883,
      "##న": 4884,
      "##ற": 4885,
      "##ნ": 4886,
      "##ტ": 4887,
      "##โ": 4888,
      "##พ": 4889,
      "##ธ": 4890,
      "##⋯": 4891,
      "##𒂆": 4892,
      "##𒈦": 4893,
      "##🌻": 4894,
      "##ძ": 4895,
      "##କ": 4896,
      "##ଷ": 4897,
      "##😍": 4898,
      "##►": 4899,
      "##え": 4900,
      "##ᅣ": 4901,
      "##ᴇ": 4902,
      "##ई": 4903,
      "##🔴": 4904,
      "##🔵": 4905,
      "##🏈": 4906,
      "##⁸": 4907,
      "##ჭ": 4908,
      "##ና": 4909,
      "##𝑇": 4910,
      "##❤": 4911,
      "##₀": 4912,
      "##ﬄ": 4913,
      "##ノ": 4914,
      "##ܘ": 4915,
      "##ܢ": 4916,
      "##ܓ": 4917,
      "##ܠ": 4918,
      "##ܝ": 4919,
      "##ꮒ": 4920,
      "##ᏼ": 4921,
      "##ꮻ": 4922,
      "##ю": 4923,
      "##ស": 4924,
      "##ន": 4925,
      "##វ": 4926,
      "##ជ": 4927,
      "##ា": 4928,
      "##ល": 4929,
      "##ធ": 4930,
      "##ម": 4931,
      "##ᅨ": 4932,
      "##ꮎ": 4933,
      "##ꭲ": 4934,
      "##ᏹ": 4935,
      "##บ": 4936,
      "##จ": 4937,
      "##⊆": 4938,
      "##फ": 4939,
      "##ச": 4940,
      "##క": 4941,
      "##ష": 4942,
      "##▒": 4943,
      "##←": 4944,
      "##ٹ": 4945,
      "##ヨ": 4946,
      "##њ": 4947,
      "##ณ": 4948,
      "##ԍ": 4949,
      "##⛔": 4950,
      "##ꮳ": 4951,
      "##ⁱ": 4952,
      "##ॉ": 4953,
      "##வ": 4954,
      "##ʇ": 4955,
      "##ﾀ": 4956,
      "##ﾙ": 4957,
      "##ȝ": 4958,
      "##ြ": 4959,
      "##း": 4960,
      "##щ": 4961,
      "##જ": 4962,
      "##⁷": 4963,
      "##ฐ": 4964,
      "##ゆ": 4965,
      "##や": 4966,
      "##መ": 4967,
      "##ራ": 4968,
      "##ব": 4969,
      "##ծ": 4970,
      "##ւ": 4971,
      "##ք": 4972,
      "##ᓄ": 4973,
      "##ᙳ": 4974,
      "##ᐊ": 4975,
      "##ᖅ": 4976,
      "##ો": 4977,
      "##ન": 4978,
      "##▪": 4979,
      "##₫": 4980,
      "##ᖃ": 4981,
      "##ᓗ": 4982,
      "##ᐃ": 4983,
      "##ᑦ": 4984,
      "##๒": 4985,
      "##📱": 4986,
      "##ꮼ": 4987,
      "##ꭿ": 4988,
      "##ꮧ": 4989,
      "##ǁ": 4990,
      "##🇸": 4991,
      "##ঠ": 4992,
      "##🍋": 4993,
      "##🍓": 4994,
      "##🍉": 4995,
      "##💦": 4996,
      "##ധ": 4997,
      "##ถ": 4998,
      "##☎": 4999,
      "##ග": 5000,
      "##🤗": 5001,
      "##⎞": 5002,
      "##⎟": 5003,
      "##⎝": 5004,
      "##⎠": 5005,
      "##ত": 5006,
      "##ˊ": 5007,
      "##ማ": 5008,
      "##🍳": 5009,
      "##ା": 5010,
      "##ମ": 5011,
      "##ର": 5012,
      "##ን": 5013,
      "##ዳ": 5014,
      "##ধ": 5015,
      "##қ": 5016,
      "##ﻤ": 5017,
      "##ﺳ": 5018,
      "##ി": 5019,
      "##മ": 5020,
      "##ഥ": 5021,
      "##⊇": 5022,
      "##ս": 5023,
      "##և": 5024,
      "##ข": 5025,
      "##ᄊ": 5026,
      "##を": 5027,
      "##ܐ": 5028,
      "##🇳": 5029,
      "##ڬ": 5030,
      "##ਵ": 5031,
      "##ਨ": 5032,
      "##˛": 5033,
      "##င": 5034,
      "##െ": 5035,
      "##ച": 5036,
      "##∠": 5037,
      "##➨": 5038,
      "##🏾": 5039,
      "##හ": 5040,
      "##න": 5041,
      "##ව": 5042,
      "##आ": 5043,
      "##ꮄ": 5044,
      "##ꮜ": 5045,
      "##ꮕ": 5046,
      "##✫": 5047,
      "##✩": 5048,
      "##☮": 5049,
      "##☪": 5050,
      "##⅓": 5051,
      "##ត": 5052,
      "##ព": 5053,
      "##ទ": 5054,
      "##ਿ": 5055,
      "##ಶ": 5056,
      "##👣": 5057,
      "##⚖": 5058,
      "##ᓇ": 5059,
      "##ᑕ": 5060,
      "##ਅ": 5061,
      "##⇒": 5062,
      "##⊝": 5063,
      "##ฟ": 5064,
      "##ϝ": 5065,
      "##♛": 5066,
      "##ນ": 5067,
      "##ກ": 5068,
      "##າ": 5069,
      "##ທ": 5070,
      "##╩": 5071,
      "##╝": 5072,
      "##╚": 5073,
      "##ਥ": 5074,
      "##დ": 5075,
      "##ట": 5076,
      "##ᇾ": 5077,
      "##ᇻ": 5078,
      "##ቕ": 5079,
      "##ፋ": 5080,
      "##⋁": 5081,
      "##⋀": 5082,
      "##ప": 5083,
      "##শ": 5084,
      "##থ": 5085,
      "##😒": 5086,
      "##₇": 5087,
      "##⑆": 5088,
      "##ឃ": 5089,
      "##💆": 5090,
      "##🏿": 5091,
      "##🏻": 5092,
      "##👌": 5093,
      "##𝑋": 5094,
      "##ܕ": 5095,
      "##მ": 5096,
      "##⛏": 5097,
      "##🍑": 5098,
      "##ਰ": 5099,
      "##ਸ": 5100,
      "##💰": 5101,
      "##🇧": 5102,
      "##￢": 5103,
      "##ﾓ": 5104,
      "##∩": 5105,
      "##ぬ": 5106,
      "##👎": 5107,
      "##🐬": 5108,
      "##🌊": 5109,
      "##✍": 5110,
      "##🍕": 5111,
      "##ហ": 5112,
      "##អ": 5113,
      "##ក": 5114,
      "##ല": 5115,
      "##ⁿ": 5116,
      "##₴": 5117,
      "##⊖": 5118,
      "##😩": 5119,
      "##😘": 5120,
      "##ǝ": 5121,
      "##ۇ": 5122,
      "##℥": 5123,
      "##ᵒ": 5124,
      "##🎨": 5125,
      "##▾": 5126,
      "##ظ": 5127,
      "##ጀ": 5128,
      "##💜": 5129,
      "##≡": 5130,
      "##យ": 5131,
      "##េ": 5132,
      "##❷": 5133,
      "##ោ": 5134,
      "##ⵇ": 5135,
      "##🦁": 5136,
      "##አ": 5137,
      "##ው": 5138,
      "##ᆻ": 5139,
      "##ହ": 5140,
      "##ସ": 5141,
      "##ɭ": 5142,
      "##ɓ": 5143,
      "##ⲁ": 5144,
      "##ⲣ": 5145,
      "##ഷ": 5146,
      "##ﺑ": 5147,
      "##ﻲ": 5148,
      "##🆄": 5149,
      "##🅱": 5150,
      "##🆂": 5151,
      "##🅲": 5152,
      "##🆁": 5153,
      "##🅸": 5154,
      "##🅴": 5155,
      "##∝": 5156,
      "##🏽": 5157,
      "##ር": 5158,
      "##ኛ": 5159,
      "##э": 5160,
      "##👻": 5161,
      "##🇭": 5162,
      "##🇹": 5163,
      "##ꮃ": 5164,
      "##ꮀ": 5165,
      "##ꮉ": 5166,
      "##₮": 5167,
      "##ㅋ": 5168,
      "##🐐": 5169,
      "##პ": 5170,
      "##⛺": 5171,
      "##ﺭ": 5172,
      "##🎥": 5173,
      "##🏃": 5174,
      "##💙": 5175,
      "##😮": 5176,
      "##😤": 5177,
      "##ಯ": 5178,
      "##ⴷ": 5179,
      "##ⵔ": 5180,
      "##ܪ": 5181,
      "##ܡ": 5182,
      "##ዮ": 5183,
      "##ጵ": 5184,
      "##ያ": 5185,
      "##ங": 5186,
      "##↨": 5187,
      "##∟": 5188,
      "##ᅱ": 5189,
      "##▸": 5190,
      "##ں": 5191,
      "##✮": 5192,
      "##ﺍ": 5193,
      "##ﻟ": 5194,
      "##ﺣ": 5195,
      "##ﺔ": 5196,
      "##ኢ": 5197,
      "##ց": 5198,
      "##խ": 5199,
      "##ލ": 5200,
      "##ਤ": 5201,
      "##ˢ": 5202,
      "##ᵉ": 5203,
      "##⚡": 5204,
      "##☉": 5205,
      "##ඹ": 5206,
      "##ැ": 5207,
      "##💋": 5208,
      "##ਯ": 5209,
      "##ੀ": 5210,
      "##▓": 5211,
      "##ү": 5212,
      "##ө": 5213,
      "##ձ": 5214,
      "##≥": 5215,
      "##👄": 5216,
      "##💎": 5217,
      "##ల": 5218,
      "##ਖ": 5219,
      "##む": 5220,
      "##ｅ": 5221,
      "##ｎ": 5222,
      "##ａ": 5223,
      "##ｉ": 5224,
      "##ｓ": 5225,
      "##ਡ": 5226,
      "##ང": 5227,
      "##∕": 5228,
      "##🥉": 5229,
      "##ਕ": 5230,
      "##ꭸ": 5231,
      "##ћ": 5232,
      "##ூ": 5233,
      "##⭐": 5234,
      "##✔": 5235,
      "##ස": 5236,
      "##ය": 5237,
      "##ಕ": 5238,
      "##በ": 5239,
      "##ە": 5240,
      "##ڵ": 5241,
      "##અ": 5242,
      "##େ": 5243,
      "##ତ": 5244,
      "##ਮ": 5245,
      "##♃": 5246,
      "##␤": 5247,
      "##ղ": 5248,
      "##ጋ": 5249,
      "##ሲ": 5250,
      "##∪": 5251,
      "##ළ": 5252,
      "##💕": 5253,
      "##😈": 5254,
      "##😬": 5255,
      "##🙅": 5256,
      "##ռ": 5257,
      "##🎤": 5258,
      "##ᏸ": 5259,
      "##ꮅ": 5260,
      "##☻": 5261,
      "##ꭹ": 5262,
      "##∫": 5263,
      "##⊕": 5264,
      "##ێ": 5265,
      "##˥": 5266,
      "##ಮ": 5267,
      "##ಥ": 5268,
      "##ㅏ": 5269,
      "##ㄴ": 5270,
      "##ㄱ": 5271,
      "##ㅡ": 5272,
      "##ㄹ": 5273,
      "##ⵎ": 5274,
      "##ⵖ": 5275,
      "##ⵉ": 5276,
      "##அ": 5277,
      "##🌸": 5278,
      "##ﾜ": 5279,
      "##ｲ": 5280,
      "##ﾄ": 5281,
      "##𐀨": 5282,
      "##ண": 5283,
      "##♟": 5284,
      "##വ": 5285,
      "##ത": 5286,
      "##ᆾ": 5287,
      "##ⵙ": 5288,
      "##ɤ": 5289,
      "##♣": 5290,
      "##ﻠ": 5291,
      "##ﺒ": 5292,
      "##ﺢ": 5293,
      "##ᕐ": 5294,
      "##ᑐ": 5295,
      "##ᒥ": 5296,
      "##ᖕ": 5297,
      "##ᒪ": 5298,
      "##ᒃ": 5299,
      "##ɧ": 5300,
      "##♂": 5301,
      "##👀": 5302,
      "##∨": 5303,
      "##⎯": 5304,
      "##📸": 5305,
      "##𝑝": 5306,
      "##𝑞": 5307,
      "##థ": 5308,
      "##ɻ": 5309,
      "##🌀": 5310,
      "##ௗ": 5311,
      "##మ": 5312,
      "##🇺": 5313,
      "##𐬭": 5314,
      "##𐬚": 5315,
      "##𐬌": 5316,
      "##𐬨": 5317,
      "##ሃ": 5318,
      "##է": 5319,
      "##ժ": 5320,
      "##ប": 5321,
      "##❻": 5322,
      "##❹": 5323,
      "##❼": 5324,
      "##❽": 5325,
      "##❾": 5326,
      "##❸": 5327,
      "##ɩ": 5328,
      "##घ": 5329,
      "##ਧ": 5330,
      "##ᗺ": 5331,
      "##ᗷ": 5332,
      "##ᗅ": 5333,
      "##ᇀ": 5334,
      "##△": 5335,
      "##💅": 5336,
      "##ⵏ": 5337,
      "##ⴼ": 5338,
      "##ഠ": 5339,
      "##ሞ": 5340,
      "##ዊ": 5341,
      "##⫺": 5342,
      "##ƃ": 5343,
      "##ප": 5344,
      "##ϑ": 5345,
      "##ә": 5346,
      "##ڼ": 5347,
      "##ෂ": 5348,
      "##˦": 5349,
      "##≦": 5350,
      "##ˣ": 5351,
      "##😁": 5352,
      "##𒋾": 5353,
      "##𒀀": 5354,
      "##𒂍": 5355,
      "##𒊹": 5356,
      "##𒊏": 5357,
      "##⅝": 5358,
      "##ܬ": 5359,
      "##ⲃ": 5360,
      "##◗": 5361,
      "##🐘": 5362,
      "##😱": 5363,
      "##🎓": 5364,
      "##ユ": 5365,
      "##ಧ": 5366,
      "##ለ": 5367,
      "##ዎ": 5368,
      "##ヌ": 5369,
      "##╣": 5370,
      "##║": 5371,
      "##ӏ": 5372,
      "##ፍ": 5373,
      "##ሉ": 5374,
      "##😃": 5375,
      "##😄": 5376,
      "##😀": 5377,
      "##😻": 5378,
      "##😸": 5379,
      "##😺": 5380,
      "##👑": 5381,
      "##👗": 5382,
      "##💛": 5383,
      "##💚": 5384,
      "##💗": 5385,
      "##💖": 5386,
      "##💞": 5387,
      "##💘": 5388,
      "##💌": 5389,
      "##💍": 5390,
      "##👤": 5391,
      "##👥": 5392,
      "##💬": 5393,
      "##💭": 5394,
      "##ሬ": 5395,
      "##◄": 5396,
      "##👈": 5397,
      "##♀": 5398,
      "##അ": 5399,
      "##ಅ": 5400,
      "##ⲫ": 5401,
      "##ผ": 5402,
      "##ℵ": 5403,
      "##𐁊": 5404,
      "##ਠ": 5405,
      "##ጅ": 5406,
      "##ዝ": 5407,
      "##ች": 5408,
      "##╠": 5409,
      "##እ": 5410,
      "##ዛ": 5411,
      "##⎛": 5412,
      "##ⴳ": 5413,
      "##ং": 5414,
      "##ङ": 5415,
      "##◆": 5416,
      "##ኣ": 5417,
      "##😢": 5418,
      "##𒉈": 5419,
      "##𒂵": 5420,
      "##𒈩": 5421,
      "##😎": 5422,
      "##🍺": 5423,
      "##🍻": 5424,
      "##ဋ": 5425,
      "##ေ": 5426,
      "##０": 5427,
      "##９": 5428,
      "##😊": 5429,
      "##∧": 5430,
      "##╥": 5431,
      "##ಸ": 5432,
      "##ಪ": 5433,
      "##঵": 5434,
      "##ሻ": 5435,
      "##✏": 5436,
      "##ㅤ": 5437,
      "##ই": 5438,
      "##ზ": 5439,
      "##ዴ": 5440,
      "##ላ": 5441,
      "##ᆶ": 5442,
      "##◙": 5443,
      "##↕": 5444,
      "##੝": 5445,
      "##👽": 5446,
      "##ට": 5447,
      "##ۆ": 5448,
      "##ʜ": 5449,
      "##ژ": 5450,
      "##ϩ": 5451,
      "##ⲏ": 5452,
      "##ใ": 5453,
      "##উ": 5454,
      "##ভ": 5455,
      "##ƹ": 5456,
      "##ԩ": 5457,
      "##ៈ": 5458,
      "##΄": 5459,
      "##ડ": 5460,
      "##ଟ": 5461,
      "##થ": 5462,
      "##ｘ": 5463,
      "##❖": 5464,
      "##ዋ": 5465,
      "##ɱ": 5466,
      "##ҽ": 5467,
      "##ƈ": 5468,
      "##📞": 5469,
      "##📟": 5470,
      "##🎟": 5471,
      "##ါ": 5472,
      "##💥": 5473,
      "##պ": 5474,
      "##ꦮ": 5475,
      "##ⵜ": 5476,
      "##ˁ": 5477,
      "##｜": 5478,
      "##ག": 5479,
      "##ꞌ": 5480,
      "##ᵝ": 5481,
      "##٥": 5482,
      "##ဘ": 5483,
      "##သ": 5484,
      "##ې": 5485,
      "##ర": 5486,
      "##ఠ": 5487,
      "##👊": 5488,
      "##✊": 5489,
      "##❁": 5490,
      "##٠": 5491,
      "##ᆩ": 5492,
      "##🚴": 5493,
      "##ც": 5494,
      "##ხ": 5495,
      "##👙": 5496,
      "##ฝ": 5497,
      "##✶": 5498,
      "##𐏁": 5499,
      "##𐎹": 5500,
      "##𐎠": 5501,
      "##ရ": 5502,
      "##တ": 5503,
      "th": 5504,
      "##er": 5505,
      "the": 5506,
      "##in": 5507,
      "##on": 5508,
      "##es": 5509,
      "##at": 5510,
      "##or": 5511,
      "##en": 5512,
      "##an": 5513,
      "##ou": 5514,
      "an": 5515,
      "##al": 5516,
      "##ed": 5517,
      "##ar": 5518,
      "in": 5519,
      "of": 5520,
      "##it": 5521,
      "##ing": 5522,
      "to": 5523,
      "##ic": 5524,
      "and": 5525,
      "##re": 5526,
      "##st": 5527,
      "##ion": 5528,
      "##om": 5529,
      "is": 5530,
      "##le": 5531,
      "##is": 5532,
      "##as": 5533,
      "##ent": 5534,
      "##il": 5535,
      "##el": 5536,
      "##ct": 5537,
      "##et": 5538,
      "you": 5539,
      "##ro": 5540,
      "for": 5541,
      "##th": 5542,
      "##ol": 5543,
      "on": 5544,
      "st": 5545,
      "##ur": 5546,
      "re": 5547,
      "##ow": 5548,
      "##am": 5549,
      "##id": 5550,
      "or": 5551,
      "##ve": 5552,
      "##ch": 5553,
      "wh": 5554,
      "##ly": 5555,
      "be": 5556,
      "##ay": 5557,
      "##ig": 5558,
      "##ation": 5559,
      "##ce": 5560,
      "##ut": 5561,
      "##ot": 5562,
      "##se": 5563,
      "##ver": 5564,
      "it": 5565,
      "as": 5566,
      "are": 5567,
      "##ir": 5568,
      "##im": 5569,
      "##ith": 5570,
      "##od": 5571,
      "al": 5572,
      "##ul": 5573,
      "##ad": 5574,
      "that": 5575,
      "con": 5576,
      "##ge": 5577,
      "pro": 5578,
      "with": 5579,
      "ch": 5580,
      "##um": 5581,
      "##est": 5582,
      "de": 5583,
      "fr": 5584,
      "##ess": 5585,
      "##ers": 5586,
      "com": 5587,
      "##oun": 5588,
      "##us": 5589,
      "your": 5590,
      "se": 5591,
      "can": 5592,
      "##ate": 5593,
      "##ain": 5594,
      "##em": 5595,
      "##ter": 5596,
      "##ab": 5597,
      "##ill": 5598,
      "ex": 5599,
      "##if": 5600,
      "##igh": 5601,
      "##ist": 5602,
      "at": 5603,
      "sh": 5604,
      "##ak": 5605,
      "ne": 5606,
      "##op": 5607,
      "by": 5608,
      "su": 5609,
      "from": 5610,
      "##os": 5611,
      "##ac": 5612,
      "##oc": 5613,
      "##ies": 5614,
      "##ment": 5615,
      "ha": 5616,
      "##ost": 5617,
      "he": 5618,
      "##ere": 5619,
      "un": 5620,
      "##pe": 5621,
      "pr": 5622,
      "##and": 5623,
      "##ant": 5624,
      "us": 5625,
      "tr": 5626,
      "##un": 5627,
      "##all": 5628,
      "##ity": 5629,
      "##art": 5630,
      "this": 5631,
      "en": 5632,
      "##ive": 5633,
      "##iv": 5634,
      "##ore": 5635,
      "##age": 5636,
      "##pp": 5637,
      "le": 5638,
      "##act": 5639,
      "##ast": 5640,
      "pl": 5641,
      "##ine": 5642,
      "##ort": 5643,
      "not": 5644,
      "we": 5645,
      "##ell": 5646,
      "##ld": 5647,
      "##ect": 5648,
      "##ap": 5649,
      "##ome": 5650,
      "##00": 5651,
      "##ally": 5652,
      "##ight": 5653,
      "ab": 5654,
      "have": 5655,
      "##ood": 5656,
      "##qu": 5657,
      "was": 5658,
      "do": 5659,
      "##ip": 5660,
      "##ure": 5661,
      "##our": 5662,
      "##ag": 5663,
      "##ud": 5664,
      "##ther": 5665,
      "##ib": 5666,
      "wor": 5667,
      "##ard": 5668,
      "ad": 5669,
      "##mp": 5670,
      "##ich": 5671,
      "##end": 5672,
      "if": 5673,
      "me": 5674,
      "##ated": 5675,
      "cl": 5676,
      "per": 5677,
      "##ust": 5678,
      "comp": 5679,
      "##ary": 5680,
      "ac": 5681,
      "##ount": 5682,
      "##ia": 5683,
      "##ial": 5684,
      "ar": 5685,
      "##out": 5686,
      "will": 5687,
      "##ound": 5688,
      "all": 5689,
      "##per": 5690,
      "##ans": 5691,
      "inc": 5692,
      "##ice": 5693,
      "##ear": 5694,
      "cont": 5695,
      "##one": 5696,
      "##ame": 5697,
      "one": 5698,
      "bl": 5699,
      "sy": 5700,
      "sp": 5701,
      "##iz": 5702,
      "##ition": 5703,
      "##ide": 5704,
      "##ber": 5705,
      "##ach": 5706,
      "dis": 5707,
      "##gh": 5708,
      "am": 5709,
      "which": 5710,
      "##oo": 5711,
      "but": 5712,
      "car": 5713,
      "##ical": 5714,
      "gr": 5715,
      "##ong": 5716,
      "##so": 5717,
      "has": 5718,
      "##ie": 5719,
      "res": 5720,
      "##orm": 5721,
      "##der": 5722,
      "##ake": 5723,
      "##fer": 5724,
      "more": 5725,
      "##ase": 5726,
      "man": 5727,
      "dr": 5728,
      "##ough": 5729,
      "##ack": 5730,
      "fl": 5731,
      "##og": 5732,
      "##ction": 5733,
      "when": 5734,
      "may": 5735,
      "also": 5736,
      "20": 5737,
      "##ff": 5738,
      "int": 5739,
      "how": 5740,
      "##au": 5741,
      "##ind": 5742,
      "##ous": 5743,
      "year": 5744,
      "##av": 5745,
      "##ance": 5746,
      "up": 5747,
      "tim": 5748,
      "##du": 5749,
      "##ater": 5750,
      "##ould": 5751,
      "fe": 5752,
      "##able": 5753,
      "most": 5754,
      "##ue": 5755,
      "br": 5756,
      "so": 5757,
      "col": 5758,
      "##ass": 5759,
      "they": 5760,
      "ph": 5761,
      "##ree": 5762,
      "##ick": 5763,
      "other": 5764,
      "##ens": 5765,
      "##ail": 5766,
      "##ire": 5767,
      "##pt": 5768,
      "##ates": 5769,
      "##ath": 5770,
      "##ke": 5771,
      "li": 5772,
      "te": 5773,
      "inf": 5774,
      "##ile": 5775,
      "##ish": 5776,
      "ser": 5777,
      "##own": 5778,
      "there": 5779,
      "##ace": 5780,
      "comm": 5781,
      "app": 5782,
      "out": 5783,
      "about": 5784,
      "part": 5785,
      "##ence": 5786,
      "19": 5787,
      "##ks": 5788,
      "pre": 5789,
      "sc": 5790,
      "ty": 5791,
      "co": 5792,
      "new": 5793,
      "##ult": 5794,
      "than": 5795,
      "pe": 5796,
      "##erm": 5797,
      "mo": 5798,
      "kn": 5799,
      "tw": 5800,
      "time": 5801,
      "some": 5802,
      "bo": 5803,
      "cr": 5804,
      "qu": 5805,
      "##ions": 5806,
      "acc": 5807,
      "day": 5808,
      "used": 5809,
      "##ite": 5810,
      "use": 5811,
      "##ord": 5812,
      "##les": 5813,
      "##ause": 5814,
      "fir": 5815,
      "spe": 5816,
      "num": 5817,
      "ind": 5818,
      "form": 5819,
      "##ents": 5820,
      "201": 5821,
      "##ub": 5822,
      "##ax": 5823,
      "mar": 5824,
      "##ep": 5825,
      "rep": 5826,
      "##ose": 5827,
      "##we": 5828,
      "med": 5829,
      "##lud": 5830,
      "##ely": 5831,
      "str": 5832,
      "over": 5833,
      "its": 5834,
      "##ign": 5835,
      "##ations": 5836,
      "##reat": 5837,
      "rec": 5838,
      "count": 5839,
      "bet": 5840,
      "any": 5841,
      "##gr": 5842,
      "##vel": 5843,
      "first": 5844,
      "##ook": 5845,
      "includ": 5846,
      "cal": 5847,
      "their": 5848,
      "sal": 5849,
      "get": 5850,
      "##ang": 5851,
      "what": 5852,
      "high": 5853,
      "##ry": 5854,
      "def": 5855,
      "##amp": 5856,
      "##eth": 5857,
      "go": 5858,
      "off": 5859,
      "##te": 5860,
      "no": 5861,
      "af": 5862,
      "who": 5863,
      "gen": 5864,
      "bec": 5865,
      "act": 5866,
      "inter": 5867,
      "two": 5868,
      "mon": 5869,
      "##are": 5870,
      "##ors": 5871,
      "##ian": 5872,
      "##ory": 5873,
      "dif": 5874,
      "##aw": 5875,
      "loc": 5876,
      "di": 5877,
      "##int": 5878,
      "call": 5879,
      "into": 5880,
      "##ond": 5881,
      "##oll": 5882,
      "##lect": 5883,
      "##row": 5884,
      "imp": 5885,
      "##verage": 5886,
      "add": 5887,
      "need": 5888,
      "cost": 5889,
      "ca": 5890,
      "produ": 5891,
      "##ular": 5892,
      "dep": 5893,
      "ag": 5894,
      "##cess": 5895,
      "##ild": 5896,
      "min": 5897,
      "ear": 5898,
      "number": 5899,
      "ro": 5900,
      "##ings": 5901,
      "water": 5902,
      "name": 5903,
      "##ph": 5904,
      "ev": 5905,
      "##ons": 5906,
      "##lo": 5907,
      "peop": 5908,
      "##ert": 5909,
      "##orn": 5910,
      "people": 5911,
      "jo": 5912,
      "10": 5913,
      "##uc": 5914,
      "these": 5915,
      "sm": 5916,
      "average": 5917,
      "like": 5918,
      "##lic": 5919,
      "blood": 5920,
      "##ade": 5921,
      "many": 5922,
      "hel": 5923,
      "only": 5924,
      "##ual": 5925,
      "after": 5926,
      "##urn": 5927,
      "##anc": 5928,
      "ass": 5929,
      "##ually": 5930,
      "serv": 5931,
      "cons": 5932,
      "bas": 5933,
      "des": 5934,
      "differ": 5935,
      "##stem": 5936,
      "work": 5937,
      "his": 5938,
      "exp": 5939,
      "##ween": 5940,
      "long": 5941,
      "##ific": 5942,
      "between": 5943,
      "cell": 5944,
      "##ery": 5945,
      "##ric": 5946,
      "state": 5947,
      "spec": 5948,
      "thr": 5949,
      "##ody": 5950,
      "##enc": 5951,
      "system": 5952,
      "my": 5953,
      "##its": 5954,
      "##ange": 5955,
      "##iver": 5956,
      "reg": 5957,
      "##ft": 5958,
      "##ffect": 5959,
      "such": 5960,
      "trans": 5961,
      "##ited": 5962,
      "sec": 5963,
      "years": 5964,
      "##ower": 5965,
      "##ys": 5966,
      "par": 5967,
      "po": 5968,
      "##iss": 5969,
      "##ied": 5970,
      "##eral": 5971,
      "##ten": 5972,
      "##eric": 5973,
      "##ix": 5974,
      "under": 5975,
      "##ock": 5976,
      "ins": 5977,
      "prov": 5978,
      "##ium": 5979,
      "sur": 5980,
      "sub": 5981,
      "heal": 5982,
      "rel": 5983,
      "##ating": 5984,
      "common": 5985,
      "##land": 5986,
      "body": 5987,
      "pres": 5988,
      "see": 5989,
      "##ays": 5990,
      "##ec": 5991,
      "make": 5992,
      "through": 5993,
      "##old": 5994,
      "##ments": 5995,
      "called": 5996,
      "mus": 5997,
      "bel": 5998,
      "##ug": 5999,
      "help": 6000,
      "##ink": 6001,
      "pers": 6002,
      "rem": 6003,
      "cent": 6004,
      "char": 6005,
      "inst": 6006,
      "should": 6007,
      "just": 6008,
      "typ": 6009,
      "##uring": 6010,
      "then": 6011,
      "##tom": 6012,
      "caus": 6013,
      "lar": 6014,
      "sk": 6015,
      "##ress": 6016,
      "defin": 6017,
      "fun": 6018,
      "been": 6019,
      "food": 6020,
      "hour": 6021,
      "tax": 6022,
      "ever": 6023,
      "##wn": 6024,
      "our": 6025,
      "bre": 6026,
      "pop": 6027,
      "americ": 6028,
      "air": 6029,
      "her": 6030,
      "health": 6031,
      "test": 6032,
      "##olog": 6033,
      "each": 6034,
      "bu": 6035,
      "##als": 6036,
      "them": 6037,
      "##ows": 6038,
      "requ": 6039,
      "states": 6040,
      "##cc": 6041,
      "does": 6042,
      "##ts": 6043,
      "term": 6044,
      "val": 6045,
      "ap": 6046,
      "##cr": 6047,
      "##ible": 6048,
      "##ious": 6049,
      "found": 6050,
      "##atur": 6051,
      "county": 6052,
      "mean": 6053,
      "pain": 6054,
      "ve": 6055,
      "##fore": 6056,
      "##bs": 6057,
      "##ature": 6058,
      "000": 6059,
      "tem": 6060,
      "sim": 6061,
      "200": 6062,
      "##gan": 6063,
      "sch": 6064,
      "var": 6065,
      "##ins": 6066,
      "##oss": 6067,
      "eng": 6068,
      "##ene": 6069,
      "ke": 6070,
      "world": 6071,
      "##ational": 6072,
      "##io": 6073,
      "##ject": 6074,
      "month": 6075,
      "##ather": 6076,
      "##ily": 6077,
      "red": 6078,
      "where": 6079,
      "##ne": 6080,
      "18": 6081,
      "person": 6082,
      "mu": 6083,
      "cur": 6084,
      "pay": 6085,
      "##inal": 6086,
      "sa": 6087,
      "lo": 6088,
      "symp": 6089,
      "##ty": 6090,
      "dec": 6091,
      "known": 6092,
      "inform": 6093,
      "different": 6094,
      "well": 6095,
      "det": 6096,
      "##erg": 6097,
      "type": 6098,
      "dist": 6099,
      "mil": 6100,
      "##ton": 6101,
      "supp": 6102,
      "##ities": 6103,
      "stud": 6104,
      "##ices": 6105,
      "##ient": 6106,
      "because": 6107,
      "att": 6108,
      "symptom": 6109,
      "city": 6110,
      "nor": 6111,
      "##ict": 6112,
      "foll": 6113,
      "find": 6114,
      "set": 6115,
      "##ms": 6116,
      "inv": 6117,
      "during": 6118,
      "home": 6119,
      "id": 6120,
      "would": 6121,
      "##ise": 6122,
      "##ra": 6123,
      "ret": 6124,
      "best": 6125,
      "back": 6126,
      "war": 6127,
      "were": 6128,
      "take": 6129,
      "right": 6130,
      "list": 6131,
      "pol": 6132,
      "##ble": 6133,
      "##ting": 6134,
      "av": 6135,
      "##ru": 6136,
      "examp": 6137,
      "information": 6138,
      "treat": 6139,
      "occ": 6140,
      "##iew": 6141,
      "##ative": 6142,
      "12": 6143,
      "##ank": 6144,
      "start": 6145,
      "##ics": 6146,
      "##lish": 6147,
      "gu": 6148,
      "while": 6149,
      "##ility": 6150,
      "process": 6151,
      "im": 6152,
      "much": 6153,
      "sl": 6154,
      "level": 6155,
      "area": 6156,
      "usually": 6157,
      "emp": 6158,
      "every": 6159,
      "met": 6160,
      "before": 6161,
      "##ode": 6162,
      "down": 6163,
      "sign": 6164,
      "mem": 6165,
      "##ize": 6166,
      "very": 6167,
      "##rit": 6168,
      "united": 6169,
      "##ines": 6170,
      "lif": 6171,
      "##rol": 6172,
      "end": 6173,
      "elect": 6174,
      "effect": 6175,
      "op": 6176,
      "pat": 6177,
      "##ams": 6178,
      "##ss": 6179,
      "est": 6180,
      "15": 6181,
      "cause": 6182,
      "##oup": 6183,
      "##ful": 6184,
      "often": 6185,
      "cre": 6186,
      "same": 6187,
      "made": 6188,
      "##up": 6189,
      "##outh": 6190,
      "##ull": 6191,
      "##ants": 6192,
      "##aking": 6193,
      "##ale": 6194,
      "##ution": 6195,
      "##tle": 6196,
      "##ool": 6197,
      "symptoms": 6198,
      "care": 6199,
      "wee": 6200,
      "follow": 6201,
      "small": 6202,
      "##cent": 6203,
      "##ron": 6204,
      "##akes": 6205,
      "##ern": 6206,
      "##ains": 6207,
      "em": 6208,
      "child": 6209,
      "dise": 6210,
      "el": 6211,
      "way": 6212,
      "##ases": 6213,
      "ext": 6214,
      "##any": 6215,
      "both": 6216,
      "main": 6217,
      "days": 6218,
      "sol": 6219,
      "##day": 6220,
      "hy": 6221,
      "good": 6222,
      "fam": 6223,
      "temper": 6224,
      "##ulation": 6225,
      "##cle": 6226,
      "cond": 6227,
      "##ork": 6228,
      "dire": 6229,
      "don": 6230,
      "three": 6231,
      "##ri": 6232,
      "##ning": 6233,
      "definition": 6234,
      "old": 6235,
      "##ider": 6236,
      "##ically": 6237,
      "fil": 6238,
      "##ced": 6239,
      "progr": 6240,
      "##ages": 6241,
      "cor": 6242,
      "she": 6243,
      "ob": 6244,
      "using": 6245,
      "sw": 6246,
      "##ved": 6247,
      "##ever": 6248,
      "##ye": 6249,
      "had": 6250,
      "know": 6251,
      "play": 6252,
      "bus": 6253,
      "##els": 6254,
      "##acter": 6255,
      "##co": 6256,
      "##air": 6257,
      "##ories": 6258,
      "free": 6259,
      "##rop": 6260,
      "som": 6261,
      "ref": 6262,
      "##velop": 6263,
      "mod": 6264,
      "##ness": 6265,
      "organ": 6266,
      "here": 6267,
      "own": 6268,
      "fact": 6269,
      "around": 6270,
      "##ds": 6271,
      "cour": 6272,
      "stand": 6273,
      "even": 6274,
      "want": 6275,
      "##xt": 6276,
      "gre": 6277,
      "ma": 6278,
      "pur": 6279,
      "vis": 6280,
      "include": 6281,
      "develop": 6282,
      "leg": 6283,
      "depend": 6284,
      "heart": 6285,
      "##iness": 6286,
      "grow": 6287,
      "amount": 6288,
      "wind": 6289,
      "plan": 6290,
      "must": 6291,
      "example": 6292,
      "comple": 6293,
      "##gest": 6294,
      "top": 6295,
      "condition": 6296,
      "cle": 6297,
      "import": 6298,
      "hours": 6299,
      "equ": 6300,
      "curr": 6301,
      "##iet": 6302,
      "##cept": 6303,
      "contr": 6304,
      "medic": 6305,
      "law": 6306,
      "look": 6307,
      "##ash": 6308,
      "##ized": 6309,
      "gl": 6310,
      "american": 6311,
      "less": 6312,
      "hum": 6313,
      "occur": 6314,
      "##ces": 6315,
      "however": 6316,
      "age": 6317,
      "low": 6318,
      "cells": 6319,
      "##ove": 6320,
      "##ency": 6321,
      "cert": 6322,
      "result": 6323,
      "##ral": 6324,
      "##ides": 6325,
      "now": 6326,
      "##other": 6327,
      "##ars": 6328,
      "too": 6329,
      "product": 6330,
      "##tal": 6331,
      "meaning": 6332,
      "##ute": 6333,
      "cap": 6334,
      "fat": 6335,
      "proper": 6336,
      "sever": 6337,
      "##ets": 6338,
      "##na": 6339,
      "##gen": 6340,
      "place": 6341,
      "dat": 6342,
      "orig": 6343,
      "account": 6344,
      "life": 6345,
      "##ident": 6346,
      "incre": 6347,
      "based": 6348,
      "##ives": 6349,
      "side": 6350,
      "##ivers": 6351,
      "types": 6352,
      "intern": 6353,
      "including": 6354,
      "class": 6355,
      "##eng": 6356,
      "card": 6357,
      "##ouse": 6358,
      "last": 6359,
      "30": 6360,
      "##port": 6361,
      "press": 6362,
      "##ason": 6363,
      "school": 6364,
      "lit": 6365,
      "##form": 6366,
      "emplo": 6367,
      "infect": 6368,
      "##ving": 6369,
      "##ior": 6370,
      "##ital": 6371,
      "##ether": 6372,
      "##cul": 6373,
      "##dr": 6374,
      "pass": 6375,
      "bene": 6376,
      "##aph": 6377,
      "exper": 6378,
      "north": 6379,
      "##sw": 6380,
      "below": 6381,
      "point": 6382,
      "##way": 6383,
      "rate": 6384,
      "read": 6385,
      "##ology": 6386,
      "##iving": 6387,
      "service": 6388,
      "chec": 6389,
      "second": 6390,
      "##ven": 6391,
      "skin": 6392,
      "##ator": 6393,
      "##ures": 6394,
      "deg": 6395,
      "disease": 6396,
      "##iod": 6397,
      "##elf": 6398,
      "mark": 6399,
      "color": 6400,
      "group": 6401,
      "located": 6402,
      "##ted": 6403,
      "##pect": 6404,
      "100": 6405,
      "open": 6406,
      "##ves": 6407,
      "company": 6408,
      "ant": 6409,
      "##ince": 6410,
      "##ah": 6411,
      "fo": 6412,
      "period": 6413,
      "price": 6414,
      "##ren": 6415,
      "direct": 6416,
      "const": 6417,
      "mill": 6418,
      "##ues": 6419,
      "##hip": 6420,
      "##res": 6421,
      "benef": 6422,
      "bro": 6423,
      "net": 6424,
      "means": 6425,
      "within": 6426,
      "head": 6427,
      "##ience": 6428,
      "##cer": 6429,
      "ed": 6430,
      "##ward": 6431,
      "great": 6432,
      "art": 6433,
      "norm": 6434,
      "function": 6435,
      "##ivid": 6436,
      "resp": 6437,
      "##he": 6438,
      "##bers": 6439,
      "causes": 6440,
      "##ism": 6441,
      "temperature": 6442,
      "soc": 6443,
      "##ergy": 6444,
      "business": 6445,
      "click": 6446,
      "##line": 6447,
      "ur": 6448,
      "hist": 6449,
      "hand": 6450,
      "being": 6451,
      "another": 6452,
      "south": 6453,
      "oil": 6454,
      "##iel": 6455,
      "important": 6456,
      "##utes": 6457,
      "##ids": 6458,
      "answ": 6459,
      "report": 6460,
      "fin": 6461,
      "##ury": 6462,
      "four": 6463,
      "run": 6464,
      "pub": 6465,
      "percent": 6466,
      "control": 6467,
      "##uct": 6468,
      "##vent": 6469,
      "##ones": 6470,
      "light": 6471,
      "prote": 6472,
      "check": 6473,
      "ele": 6474,
      "25": 6475,
      "gener": 6476,
      "lim": 6477,
      "ann": 6478,
      "lead": 6479,
      "##ists": 6480,
      "sun": 6481,
      "##pl": 6482,
      "sug": 6483,
      "sing": 6484,
      "code": 6485,
      "conn": 6486,
      "squ": 6487,
      "##br": 6488,
      "prof": 6489,
      "show": 6490,
      "##ames": 6491,
      "salary": 6492,
      "current": 6493,
      "proble": 6494,
      "##ense": 6495,
      "##cl": 6496,
      "wom": 6497,
      "pot": 6498,
      "11": 6499,
      "cred": 6500,
      "##ier": 6501,
      "##ina": 6502,
      "record": 6503,
      "##ark": 6504,
      "weight": 6505,
      "##ially": 6506,
      "meas": 6507,
      "total": 6508,
      "16": 6509,
      "consider": 6510,
      "##atch": 6511,
      "men": 6512,
      "non": 6513,
      "appro": 6514,
      "##til": 6515,
      "prot": 6516,
      "energy": 6517,
      "weather": 6518,
      "lear": 6519,
      "post": 6520,
      "17": 6521,
      "those": 6522,
      "vir": 6523,
      "medical": 6524,
      "ent": 6525,
      "bab": 6526,
      "##ired": 6527,
      "cy": 6528,
      "following": 6529,
      "es": 6530,
      "##ional": 6531,
      "##az": 6532,
      "##ont": 6533,
      "prim": 6534,
      "data": 6535,
      "calories": 6536,
      "connect": 6537,
      "##oci": 6538,
      "##ane": 6539,
      "##read": 6540,
      "rest": 6541,
      "vol": 6542,
      "avail": 6543,
      "eas": 6544,
      "50": 6545,
      "white": 6546,
      "del": 6547,
      "##ger": 6548,
      "tech": 6549,
      "rece": 6550,
      "power": 6551,
      "opt": 6552,
      "sour": 6553,
      "##aining": 6554,
      "associ": 6555,
      "##gs": 6556,
      "##ified": 6557,
      "##red": 6558,
      "cook": 6559,
      "keep": 6560,
      "##ately": 6561,
      "population": 6562,
      "could": 6563,
      "##gin": 6564,
      "##ats": 6565,
      "few": 6566,
      "hot": 6567,
      "size": 6568,
      "since": 6569,
      "design": 6570,
      "14": 6571,
      "full": 6572,
      "family": 6573,
      "order": 6574,
      "program": 6575,
      "gover": 6576,
      "##led": 6577,
      "##agn": 6578,
      "##ym": 6579,
      "maj": 6580,
      "##ll": 6581,
      "partic": 6582,
      "##get": 6583,
      "conf": 6584,
      "real": 6585,
      "ste": 6586,
      "ll": 6587,
      "bar": 6588,
      "near": 6589,
      "change": 6590,
      "##ave": 6591,
      "simp": 6592,
      "available": 6593,
      "refer": 6594,
      "##ches": 6595,
      "move": 6596,
      "range": 6597,
      "ge": 6598,
      "syn": 6599,
      "##bo": 6600,
      "national": 6601,
      "large": 6602,
      "##gn": 6603,
      "disc": 6604,
      "let": 6605,
      "without": 6606,
      "govern": 6607,
      "answer": 6608,
      "##par": 6609,
      "##amin": 6610,
      "rad": 6611,
      "phone": 6612,
      "cover": 6613,
      "ir": 6614,
      "colle": 6615,
      "step": 6616,
      "again": 6617,
      "major": 6618,
      "accord": 6619,
      "ox": 6620,
      "minutes": 6621,
      "##ner": 6622,
      "har": 6623,
      "qual": 6624,
      "anim": 6625,
      "phys": 6626,
      "doct": 6627,
      "general": 6628,
      "##view": 6629,
      "earth": 6630,
      "##ross": 6631,
      "##ased": 6632,
      "specific": 6633,
      "until": 6634,
      "appe": 6635,
      "lower": 6636,
      "standard": 6637,
      "lab": 6638,
      "word": 6639,
      "aut": 6640,
      "##iety": 6641,
      "foot": 6642,
      "natur": 6643,
      "port": 6644,
      "poss": 6645,
      "univers": 6646,
      "credit": 6647,
      "##enn": 6648,
      "cust": 6649,
      "pos": 6650,
      "techn": 6651,
      "english": 6652,
      "commun": 6653,
      "dev": 6654,
      "chem": 6655,
      "miles": 6656,
      "oper": 6657,
      "stat": 6658,
      "house": 6659,
      "contin": 6660,
      "gas": 6661,
      "##ee": 6662,
      "##rees": 6663,
      "##less": 6664,
      "chr": 6665,
      "fed": 6666,
      "13": 6667,
      "##ength": 6668,
      "according": 6669,
      "turn": 6670,
      "west": 6671,
      "land": 6672,
      "protein": 6673,
      "##imum": 6674,
      "require": 6675,
      "chang": 6676,
      "pressure": 6677,
      "stre": 6678,
      "short": 6679,
      "##omes": 6680,
      "##osed": 6681,
      "bir": 6682,
      "##ipt": 6683,
      "special": 6684,
      "ner": 6685,
      "support": 6686,
      "insur": 6687,
      "##oney": 6688,
      "##etim": 6689,
      "week": 6690,
      "baby": 6691,
      "##ney": 6692,
      "##ental": 6693,
      "adv": 6694,
      "##erc": 6695,
      "file": 6696,
      "muscle": 6697,
      "infl": 6698,
      "descr": 6699,
      "treatment": 6700,
      "line": 6701,
      "affect": 6702,
      "##ump": 6703,
      "though": 6704,
      "bi": 6705,
      "plant": 6706,
      "ris": 6707,
      "bank": 6708,
      "black": 6709,
      "drug": 6710,
      "months": 6711,
      "##tern": 6712,
      "##ify": 6713,
      "rele": 6714,
      "pa": 6715,
      "##icle": 6716,
      "perform": 6717,
      "born": 6718,
      "comput": 6719,
      "custom": 6720,
      "##arch": 6721,
      "##ield": 6722,
      "applic": 6723,
      "still": 6724,
      "##por": 6725,
      "hard": 6726,
      "##yl": 6727,
      "##alk": 6728,
      "##atter": 6729,
      "##etic": 6730,
      "mic": 6731,
      "che": 6732,
      "##osis": 6733,
      "foods": 6734,
      "eg": 6735,
      "sum": 6736,
      "##action": 6737,
      "addition": 6738,
      "##ogr": 6739,
      "view": 6740,
      "spr": 6741,
      "##man": 6742,
      "center": 6743,
      "several": 6744,
      "vit": 6745,
      "##ither": 6746,
      "##ization": 6747,
      "feet": 6748,
      "far": 6749,
      "##une": 6750,
      "##iven": 6751,
      "times": 6752,
      "mid": 6753,
      "services": 6754,
      "president": 6755,
      "ju": 6756,
      "determ": 6757,
      "##eter": 6758,
      "##ision": 6759,
      "##ients": 6760,
      "##amm": 6761,
      "offic": 6762,
      "enter": 6763,
      "meth": 6764,
      "build": 6765,
      "dig": 6766,
      "##thing": 6767,
      "##ctions": 6768,
      "flu": 6769,
      "comb": 6770,
      "caused": 6771,
      "lang": 6772,
      "individ": 6773,
      "big": 6774,
      "value": 6775,
      "due": 6776,
      "return": 6777,
      "phot": 6778,
      "benefits": 6779,
      "least": 6780,
      "pregn": 6781,
      "##ries": 6782,
      "cop": 6783,
      "40": 6784,
      "insurance": 6785,
      "activ": 6786,
      "24": 6787,
      "wr": 6788,
      "expl": 6789,
      "##ling": 6790,
      "live": 6791,
      "writ": 6792,
      "##ule": 6793,
      "fib": 6794,
      "##uth": 6795,
      "ang": 6796,
      "##ination": 6797,
      "##ox": 6798,
      "##ways": 6799,
      "public": 6800,
      "hal": 6801,
      "human": 6802,
      "fre": 6803,
      "##itis": 6804,
      "income": 6805,
      "normal": 6806,
      "##duc": 6807,
      "individual": 6808,
      "children": 6809,
      "##hy": 6810,
      "learn": 6811,
      "ep": 6812,
      "certain": 6813,
      "quest": 6814,
      "history": 6815,
      "sometim": 6816,
      "##ability": 6817,
      "imm": 6818,
      "ple": 6819,
      "langu": 6820,
      "green": 6821,
      "surf": 6822,
      "put": 6823,
      "job": 6824,
      "199": 6825,
      "mater": 6826,
      "conver": 6827,
      "##oid": 6828,
      "##uck": 6829,
      "effects": 6830,
      "might": 6831,
      "install": 6832,
      "mot": 6833,
      "above": 6834,
      "##eds": 6835,
      "select": 6836,
      "once": 6837,
      "either": 6838,
      "office": 6839,
      "sn": 6840,
      "page": 6841,
      "cancer": 6842,
      "east": 6843,
      "costs": 6844,
      "university": 6845,
      "cir": 6846,
      "soft": 6847,
      "##ounds": 6848,
      "become": 6849,
      "sometimes": 6850,
      "origin": 6851,
      "women": 6852,
      "tiss": 6853,
      "left": 6854,
      "little": 6855,
      "next": 6856,
      "##con": 6857,
      "##ots": 6858,
      "local": 6859,
      "##ived": 6860,
      "##ik": 6861,
      "doctor": 6862,
      "largest": 6863,
      "##mit": 6864,
      "##ential": 6865,
      "character": 6866,
      "nut": 6867,
      "popular": 6868,
      "season": 6869,
      "##let": 6870,
      "park": 6871,
      "natural": 6872,
      "weeks": 6873,
      "##que": 6874,
      "##atic": 6875,
      "educ": 6876,
      "##omm": 6877,
      "##uss": 6878,
      "social": 6879,
      "early": 6880,
      "lat": 6881,
      "##inc": 6882,
      "mass": 6883,
      "protect": 6884,
      "government": 6885,
      "think": 6886,
      "ident": 6887,
      "allow": 6888,
      "federal": 6889,
      "##ration": 6890,
      "##tain": 6891,
      "calcul": 6892,
      "##iation": 6893,
      "contain": 6894,
      "brain": 6895,
      "case": 6896,
      "related": 6897,
      "million": 6898,
      "trad": 6899,
      "material": 6900,
      "##ancy": 6901,
      "market": 6902,
      "country": 6903,
      "mult": 6904,
      "##ley": 6905,
      "provide": 6906,
      "address": 6907,
      "wash": 6908,
      "##ended": 6909,
      "##itive": 6910,
      "bill": 6911,
      "##ips": 6912,
      "along": 6913,
      "dem": 6914,
      "mount": 6915,
      "did": 6916,
      "##ined": 6917,
      "fall": 6918,
      "saf": 6919,
      "bacter": 6920,
      "##ware": 6921,
      "##mb": 6922,
      "sure": 6923,
      "single": 6924,
      "##ograph": 6925,
      "diet": 6926,
      "##order": 6927,
      "iss": 6928,
      "##hn": 6929,
      "square": 6930,
      "windows": 6931,
      "try": 6932,
      "et": 6933,
      "york": 6934,
      "##ush": 6935,
      "exc": 6936,
      "higher": 6937,
      "##iction": 6938,
      "resear": 6939,
      "levels": 6940,
      "##atures": 6941,
      "computer": 6942,
      "research": 6943,
      "money": 6944,
      "struct": 6945,
      "##aries": 6946,
      "sit": 6947,
      "##ilar": 6948,
      "sugar": 6949,
      "come": 6950,
      "##uro": 6951,
      "table": 6952,
      "eat": 6953,
      "pan": 6954,
      "##ipp": 6955,
      "employe": 6956,
      "##son": 6957,
      "given": 6958,
      "tend": 6959,
      "give": 6960,
      "eye": 6961,
      "win": 6962,
      "secur": 6963,
      "conditions": 6964,
      "##itch": 6965,
      "products": 6966,
      "infection": 6967,
      "base": 6968,
      "town": 6969,
      "##work": 6970,
      "date": 6971,
      "contact": 6972,
      "repres": 6973,
      "##ently": 6974,
      "project": 6975,
      "hair": 6976,
      "subst": 6977,
      "trav": 6978,
      "##imate": 6979,
      "micro": 6980,
      "miss": 6981,
      "beh": 6982,
      "cut": 6983,
      "##oose": 6984,
      "access": 6985,
      "dam": 6986,
      "##ores": 6987,
      "##ables": 6988,
      "la": 6989,
      "summ": 6990,
      "chemical": 6991,
      "interest": 6992,
      "##thers": 6993,
      "conc": 6994,
      "##though": 6995,
      "island": 6996,
      "ver": 6997,
      "21": 6998,
      "similar": 6999,
      "##ison": 7000,
      "five": 7001,
      "earn": 7002,
      "experience": 7003,
      "won": 7004,
      "2015": 7005,
      "hold": 7006,
      "star": 7007,
      "engine": 7008,
      "repl": 7009,
      "making": 7010,
      "ide": 7011,
      "oxy": 7012,
      "method": 7013,
      "##ister": 7014,
      "feel": 7015,
      "##ences": 7016,
      "present": 7017,
      "pract": 7018,
      "always": 7019,
      "mix": 7020,
      "##ob": 7021,
      "brow": 7022,
      "dry": 7023,
      "manage": 7024,
      "##ething": 7025,
      "##bon": 7026,
      "adm": 7027,
      "better": 7028,
      "source": 7029,
      "invol": 7030,
      "court": 7031,
      "##ote": 7032,
      "burn": 7033,
      "fac": 7034,
      "half": 7035,
      "##ape": 7036,
      "today": 7037,
      "##ida": 7038,
      "arr": 7039,
      "fast": 7040,
      "##aves": 7041,
      "calif": 7042,
      "lay": 7043,
      "profess": 7044,
      "rock": 7045,
      "purp": 7046,
      "lic": 7047,
      "surface": 7048,
      "bal": 7049,
      "typically": 7050,
      "##ume": 7051,
      "##50": 7052,
      "offer": 7053,
      "##ification": 7054,
      "##urs": 7055,
      "john": 7056,
      "buy": 7057,
      "generally": 7058,
      "kind": 7059,
      "bot": 7060,
      "auth": 7061,
      "although": 7062,
      "acid": 7063,
      "##ared": 7064,
      "##ails": 7065,
      "##thern": 7066,
      "happ": 7067,
      "possible": 7068,
      "##ese": 7069,
      "degree": 7070,
      "property": 7071,
      "##ann": 7072,
      "series": 7073,
      "language": 7074,
      "contains": 7075,
      "something": 7076,
      "##ps": 7077,
      "six": 7078,
      "##wh": 7079,
      "##ural": 7080,
      "contract": 7081,
      "##pec": 7082,
      "##rodu": 7083,
      "ill": 7084,
      "heat": 7085,
      "wall": 7086,
      "say": 7087,
      "online": 7088,
      "max": 7089,
      "mole": 7090,
      "ps": 7091,
      "abs": 7092,
      "60": 7093,
      "##ively": 7094,
      "super": 7095,
      "key": 7096,
      "king": 7097,
      "dog": 7098,
      "##elling": 7099,
      "search": 7100,
      "##dom": 7101,
      "considered": 7102,
      "californ": 7103,
      "doc": 7104,
      "said": 7105,
      "horm": 7106,
      "risk": 7107,
      "depending": 7108,
      "loss": 7109,
      "thir": 7110,
      "required": 7111,
      "problems": 7112,
      "##ok": 7113,
      "location": 7114,
      "##ances": 7115,
      "california": 7116,
      "vide": 7117,
      "##aper": 7118,
      "##esh": 7119,
      "00": 7120,
      "parts": 7121,
      "##roid": 7122,
      "comes": 7123,
      "vers": 7124,
      "makes": 7125,
      "begin": 7126,
      "##ably": 7127,
      "##ucle": 7128,
      "degrees": 7129,
      "things": 7130,
      "tex": 7131,
      "fish": 7132,
      "sens": 7133,
      "study": 7134,
      "anal": 7135,
      "break": 7136,
      "having": 7137,
      "security": 7138,
      "##mber": 7139,
      "provid": 7140,
      "##me": 7141,
      "##aces": 7142,
      "##pper": 7143,
      "music": 7144,
      "##att": 7145,
      "song": 7146,
      "rout": 7147,
      "tog": 7148,
      "chick": 7149,
      "##atory": 7150,
      "##ember": 7151,
      "measure": 7152,
      "##po": 7153,
      "later": 7154,
      "ess": 7155,
      "lot": 7156,
      "##ends": 7157,
      "plants": 7158,
      "##ony": 7159,
      "##ana": 7160,
      "22": 7161,
      "college": 7162,
      "him": 7163,
      "flow": 7164,
      "scre": 7165,
      "central": 7166,
      "tit": 7167,
      "past": 7168,
      "whether": 7169,
      "##ester": 7170,
      "##amed": 7171,
      "lik": 7172,
      "indic": 7173,
      "##aim": 7174,
      "arm": 7175,
      "why": 7176,
      "gold": 7177,
      "##stand": 7178,
      "america": 7179,
      "##ino": 7180,
      "able": 7181,
      "##lex": 7182,
      "prevent": 7183,
      "oxygen": 7184,
      "germ": 7185,
      "##ateg": 7186,
      "employ": 7187,
      "book": 7188,
      "pack": 7189,
      "500": 7190,
      "##ada": 7191,
      "clear": 7192,
      "quick": 7193,
      "hem": 7194,
      "increase": 7195,
      "##cles": 7196,
      "describ": 7197,
      "fem": 7198,
      "flor": 7199,
      "distance": 7200,
      "birth": 7201,
      "together": 7202,
      "##ument": 7203,
      "##ges": 7204,
      "prob": 7205,
      "hun": 7206,
      "##ured": 7207,
      "inj": 7208,
      "##li": 7209,
      "##dle": 7210,
      "##xic": 7211,
      "198": 7212,
      "ul": 7213,
      "##ington": 7214,
      "liver": 7215,
      "depart": 7216,
      "particular": 7217,
      "##osph": 7218,
      "apply": 7219,
      "##fact": 7220,
      "purch": 7221,
      "expect": 7222,
      "unit": 7223,
      "fire": 7224,
      "##ille": 7225,
      "dna": 7226,
      "living": 7227,
      "##ball": 7228,
      "div": 7229,
      "##ills": 7230,
      "map": 7231,
      "sle": 7232,
      "difference": 7233,
      "##ime": 7234,
      "##uit": 7235,
      "##ai": 7236,
      "sales": 7237,
      "includes": 7238,
      "espec": 7239,
      "changes": 7240,
      "hol": 7241,
      "cat": 7242,
      "##yn": 7243,
      "adult": 7244,
      "especially": 7245,
      "length": 7246,
      "clean": 7247,
      "##umb": 7248,
      "away": 7249,
      "occurs": 7250,
      "##vir": 7251,
      "members": 7252,
      "cold": 7253,
      "corn": 7254,
      "approx": 7255,
      "provides": 7256,
      "box": 7257,
      "##ief": 7258,
      "invest": 7259,
      "river": 7260,
      "##ma": 7261,
      "electr": 7262,
      "##odes": 7263,
      "suc": 7264,
      "cann": 7265,
      "recomm": 7266,
      "sea": 7267,
      "##ler": 7268,
      "indust": 7269,
      "##ract": 7270,
      "create": 7271,
      "game": 7272,
      "airport": 7273,
      "commonly": 7274,
      "species": 7275,
      "nucle": 7276,
      "object": 7277,
      "##erv": 7278,
      "texas": 7279,
      "others": 7280,
      "works": 7281,
      "surg": 7282,
      "##oph": 7283,
      "##fl": 7284,
      "cup": 7285,
      "sex": 7286,
      "travel": 7287,
      "education": 7288,
      "##ems": 7289,
      "##ici": 7290,
      "vitamin": 7291,
      "rich": 7292,
      "lun": 7293,
      "drink": 7294,
      "ask": 7295,
      "personal": 7296,
      "words": 7297,
      "sil": 7298,
      "##aft": 7299,
      "tissue": 7300,
      "##ex": 7301,
      "prom": 7302,
      "terms": 7303,
      "stop": 7304,
      "manag": 7305,
      "associated": 7306,
      "night": 7307,
      "development": 7308,
      "appear": 7309,
      "##hol": 7310,
      "deb": 7311,
      "death": 7312,
      "against": 7313,
      "opp": 7314,
      "remove": 7315,
      "##avor": 7316,
      "bond": 7317,
      "needs": 7318,
      "complete": 7319,
      "diff": 7320,
      "##be": 7321,
      "blue": 7322,
      "position": 7323,
      "apr": 7324,
      "going": 7325,
      "enough": 7326,
      "uses": 7327,
      "reach": 7328,
      "##imately": 7329,
      "quality": 7330,
      "vari": 7331,
      "jan": 7332,
      "face": 7333,
      "atom": 7334,
      "##iption": 7335,
      "##rib": 7336,
      "review": 7337,
      "actually": 7338,
      "##oice": 7339,
      "##ensive": 7340,
      "visit": 7341,
      "regular": 7342,
      "takes": 7343,
      "2010": 7344,
      "euro": 7345,
      "hyd": 7346,
      "ther": 7347,
      "##osp": 7348,
      "pregnancy": 7349,
      "author": 7350,
      "areas": 7351,
      "veh": 7352,
      "##ret": 7353,
      "##aken": 7354,
      "ra": 7355,
      "joint": 7356,
      "##pr": 7357,
      "management": 7358,
      "##ama": 7359,
      "aug": 7360,
      "##acy": 7361,
      "##ires": 7362,
      "cases": 7363,
      "2016": 7364,
      "international": 7365,
      "196": 7366,
      "please": 7367,
      "##ival": 7368,
      "annual": 7369,
      "simple": 7370,
      "mal": 7371,
      "##yst": 7372,
      "dom": 7373,
      "tur": 7374,
      "remo": 7375,
      "various": 7376,
      "results": 7377,
      "link": 7378,
      "##phone": 7379,
      "numbers": 7380,
      "carbon": 7381,
      "physical": 7382,
      "course": 7383,
      "kid": 7384,
      "students": 7385,
      "##eding": 7386,
      "never": 7387,
      "wa": 7388,
      "admin": 7389,
      "2014": 7390,
      "film": 7391,
      "frequ": 7392,
      "really": 7393,
      "represent": 7394,
      "##und": 7395,
      "##aste": 7396,
      "##rogen": 7397,
      "er": 7398,
      "web": 7399,
      "patients": 7400,
      "##ville": 7401,
      "fig": 7402,
      "##ands": 7403,
      "chicken": 7404,
      "197": 7405,
      "text": 7406,
      "ter": 7407,
      "23": 7408,
      "problem": 7409,
      "##icult": 7410,
      "site": 7411,
      "##ench": 7412,
      "##omy": 7413,
      "note": 7414,
      "##ooks": 7415,
      "##side": 7416,
      "growth": 7417,
      "polic": 7418,
      "coun": 7419,
      "claim": 7420,
      "worth": 7421,
      "cult": 7422,
      "rat": 7423,
      "alm": 7424,
      "##ged": 7425,
      "forms": 7426,
      "field": 7427,
      "je": 7428,
      "milk": 7429,
      "##ension": 7430,
      "easy": 7431,
      "video": 7432,
      "whe": 7433,
      "##sh": 7434,
      "calc": 7435,
      "mov": 7436,
      "vac": 7437,
      "youn": 7438,
      "assist": 7439,
      "share": 7440,
      "##itution": 7441,
      "tool": 7442,
      "inside": 7443,
      "florida": 7444,
      "understand": 7445,
      "grad": 7446,
      "fri": 7447,
      "separ": 7448,
      "team": 7449,
      "space": 7450,
      "network": 7451,
      "ly": 7452,
      "##idge": 7453,
      "gree": 7454,
      "geor": 7455,
      "whole": 7456,
      "tv": 7457,
      "##ask": 7458,
      "bit": 7459,
      "##aily": 7460,
      "aust": 7461,
      "tell": 7462,
      "longer": 7463,
      "respons": 7464,
      "ce": 7465,
      "likely": 7466,
      "daily": 7467,
      "third": 7468,
      "##oy": 7469,
      "manu": 7470,
      "liqu": 7471,
      "##ised": 7472,
      "28": 7473,
      "##ression": 7474,
      "##ula": 7475,
      "taking": 7476,
      "##oses": 7477,
      "inches": 7478,
      "##ych": 7479,
      "cit": 7480,
      "multip": 7481,
      "bacteria": 7482,
      "##ission": 7483,
      "vary": 7484,
      "seat": 7485,
      "financ": 7486,
      "meat": 7487,
      "##cular": 7488,
      "##lor": 7489,
      "community": 7490,
      "##anch": 7491,
      "variety": 7492,
      "##val": 7493,
      "##ieve": 7494,
      "ground": 7495,
      "consum": 7496,
      "ey": 7497,
      "##ck": 7498,
      "##viron": 7499,
      "##yle": 7500,
      "basic": 7501,
      "webs": 7502,
      "etc": 7503,
      "environ": 7504,
      "salt": 7505,
      "primary": 7506,
      "##ention": 7507,
      "##lished": 7508,
      "room": 7509,
      "dou": 7510,
      "manufact": 7511,
      "urine": 7512,
      "##aut": 7513,
      "brit": 7514,
      "iron": 7515,
      "tre": 7516,
      "redu": 7517,
      "mail": 7518,
      "impro": 7519,
      "choose": 7520,
      "diagn": 7521,
      "##gress": 7522,
      "##ude": 7523,
      "sleep": 7524,
      "upd": 7525,
      "approximately": 7526,
      "##oma": 7527,
      "application": 7528,
      "washington": 7529,
      "muscles": 7530,
      "swe": 7531,
      "hosp": 7532,
      "done": 7533,
      "europe": 7534,
      "among": 7535,
      "strong": 7536,
      "ded": 7537,
      "log": 7538,
      "original": 7539,
      "disorder": 7540,
      "sent": 7541,
      "device": 7542,
      "##ored": 7543,
      "sen": 7544,
      "doesn": 7545,
      "##lob": 7546,
      "san": 7547,
      "bow": 7548,
      "cam": 7549,
      "contrib": 7550,
      "minimum": 7551,
      "ht": 7552,
      "##oes": 7553,
      "##oor": 7554,
      "legal": 7555,
      "oh": 7556,
      "##ilt": 7557,
      "paid": 7558,
      "produced": 7559,
      "##ead": 7560,
      "systems": 7561,
      "drive": 7562,
      "shows": 7563,
      "2017": 7564,
      "department": 7565,
      "beach": 7566,
      "##mon": 7567,
      "clos": 7568,
      "mel": 7569,
      "fiber": 7570,
      "90": 7571,
      "grams": 7572,
      "bone": 7573,
      "april": 7574,
      "shar": 7575,
      "healthy": 7576,
      "screen": 7577,
      "econ": 7578,
      "board": 7579,
      "##yroid": 7580,
      "names": 7581,
      "##apy": 7582,
      "store": 7583,
      "26": 7584,
      "working": 7585,
      "camp": 7586,
      "pet": 7587,
      "##cohol": 7588,
      "##over": 7589,
      "80": 7590,
      "chrom": 7591,
      "produce": 7592,
      "fill": 7593,
      "news": 7594,
      "charge": 7595,
      "production": 7596,
      "factors": 7597,
      "block": 7598,
      "gall": 7599,
      "##rect": 7600,
      "##ope": 7601,
      "getting": 7602,
      "love": 7603,
      "afric": 7604,
      "oct": 7605,
      "hor": 7606,
      "front": 7607,
      "stock": 7608,
      "someone": 7609,
      "tradition": 7610,
      "psych": 7611,
      "civ": 7612,
      "27": 7613,
      "july": 7614,
      "##ique": 7615,
      "arter": 7616,
      "highest": 7617,
      "warm": 7618,
      "##aff": 7619,
      "##rict": 7620,
      "looking": 7621,
      "alcohol": 7622,
      "canada": 7623,
      "bad": 7624,
      "cannot": 7625,
      "##ef": 7626,
      "speed": 7627,
      "defined": 7628,
      "##east": 7629,
      "transfer": 7630,
      "gar": 7631,
      "##uary": 7632,
      "priv": 7633,
      "section": 7634,
      "symb": 7635,
      "almost": 7636,
      "collect": 7637,
      "##uel": 7638,
      "##vious": 7639,
      "receive": 7640,
      "animals": 7641,
      "electric": 7642,
      "gir": 7643,
      "across": 7644,
      "tele": 7645,
      "der": 7646,
      "##sc": 7647,
      "batter": 7648,
      "##ters": 7649,
      "lake": 7650,
      "##edi": 7651,
      "software": 7652,
      "mouth": 7653,
      "pie": 7654,
      "question": 7655,
      "force": 7656,
      "nerve": 7657,
      "##ender": 7658,
      "bur": 7659,
      "success": 7660,
      "neg": 7661,
      "ways": 7662,
      "created": 7663,
      "##use": 7664,
      "##af": 7665,
      "environment": 7666,
      "2013": 7667,
      "requirements": 7668,
      "35": 7669,
      "determine": 7670,
      "damage": 7671,
      "##ding": 7672,
      "region": 7673,
      "veget": 7674,
      "labor": 7675,
      "mess": 7676,
      "##where": 7677,
      "surgery": 7678,
      "pu": 7679,
      "##aced": 7680,
      "middle": 7681,
      "creat": 7682,
      "##ained": 7683,
      "mich": 7684,
      "meet": 7685,
      "website": 7686,
      "structure": 7687,
      "##iting": 7688,
      "indian": 7689,
      "official": 7690,
      "symbol": 7691,
      "march": 7692,
      "party": 7693,
      "##room": 7694,
      "wood": 7695,
      "##ring": 7696,
      "teach": 7697,
      "45": 7698,
      "jack": 7699,
      "##ement": 7700,
      "32": 7701,
      "breath": 7702,
      "model": 7703,
      "enc": 7704,
      "mor": 7705,
      "##ogn": 7706,
      "helps": 7707,
      "loan": 7708,
      "noun": 7709,
      "rates": 7710,
      "##orts": 7711,
      "sod": 7712,
      "sav": 7713,
      "reason": 7714,
      "##omp": 7715,
      "mexic": 7716,
      "depends": 7717,
      "cool": 7718,
      "##ption": 7719,
      "exerc": 7720,
      "role": 7721,
      "corpor": 7722,
      "##ole": 7723,
      "cast": 7724,
      "##ellow": 7725,
      "##by": 7726,
      "autom": 7727,
      "financial": 7728,
      "rain": 7729,
      "##lin": 7730,
      "aud": 7731,
      "event": 7732,
      "##omet": 7733,
      "virus": 7734,
      "##ules": 7735,
      "inh": 7736,
      "##ties": 7737,
      "soil": 7738,
      "estab": 7739,
      "capital": 7740,
      "close": 7741,
      "##top": 7742,
      "##ronic": 7743,
      "customer": 7744,
      "january": 7745,
      "august": 7746,
      "##vers": 7747,
      "##istics": 7748,
      "aff": 7749,
      "wid": 7750,
      "sept": 7751,
      "##ending": 7752,
      "inflamm": 7753,
      "##thes": 7754,
      "sou": 7755,
      "circ": 7756,
      "##go": 7757,
      "necess": 7758,
      "##idence": 7759,
      "walk": 7760,
      "##otes": 7761,
      "building": 7762,
      "simply": 7763,
      "stom": 7764,
      "movement": 7765,
      "maximum": 7766,
      "named": 7767,
      "##ulf": 7768,
      "stay": 7769,
      "estim": 7770,
      "taken": 7771,
      "wal": 7772,
      "adj": 7773,
      "tub": 7774,
      "drop": 7775,
      "##ysis": 7776,
      "##abet": 7777,
      "##hydr": 7778,
      "replace": 7779,
      "proced": 7780,
      "cycle": 7781,
      "##ius": 7782,
      "records": 7783,
      "lin": 7784,
      "civil": 7785,
      "sat": 7786,
      "deep": 7787,
      "##epend": 7788,
      "teeth": 7789,
      "prem": 7790,
      "says": 7791,
      "throughout": 7792,
      "girl": 7793,
      "written": 7794,
      "training": 7795,
      "ago": 7796,
      "wide": 7797,
      "exist": 7798,
      "paper": 7799,
      "administ": 7800,
      "rib": 7801,
      "70": 7802,
      "mort": 7803,
      "doll": 7804,
      "brown": 7805,
      "##uation": 7806,
      "glass": 7807,
      "##fort": 7808,
      "road": 7809,
      "kill": 7810,
      "magn": 7811,
      "outside": 7812,
      "infections": 7813,
      "eff": 7814,
      "document": 7815,
      "article": 7816,
      "independ": 7817,
      "lib": 7818,
      "##astic": 7819,
      "fur": 7820,
      "cities": 7821,
      "arch": 7822,
      "additional": 7823,
      "rights": 7824,
      "medicine": 7825,
      "##wards": 7826,
      "equal": 7827,
      "##ze": 7828,
      "introdu": 7829,
      "oce": 7830,
      "fluid": 7831,
      "stomach": 7832,
      "31": 7833,
      "spread": 7834,
      "license": 7835,
      "severe": 7836,
      "dark": 7837,
      "##ilities": 7838,
      "##aster": 7839,
      "pow": 7840,
      "36": 7841,
      "pen": 7842,
      "##tr": 7843,
      "fit": 7844,
      "coll": 7845,
      "##ruction": 7846,
      "watch": 7847,
      "animal": 7848,
      "fresh": 7849,
      "science": 7850,
      "active": 7851,
      "gland": 7852,
      "prices": 7853,
      "##usion": 7854,
      "action": 7855,
      "height": 7856,
      "##iff": 7857,
      "limit": 7858,
      "serious": 7859,
      "vehicle": 7860,
      "programs": 7861,
      "fee": 7862,
      "needed": 7863,
      "29": 7864,
      "century": 7865,
      "points": 7866,
      "subject": 7867,
      "vi": 7868,
      "policy": 7869,
      "mob": 7870,
      "ii": 7871,
      "##load": 7872,
      "##iger": 7873,
      "liquid": 7874,
      "entire": 7875,
      "internet": 7876,
      "forec": 7877,
      "tree": 7878,
      "summer": 7879,
      "guide": 7880,
      "den": 7881,
      "got": 7882,
      "mach": 7883,
      "##self": 7884,
      "examples": 7885,
      "tar": 7886,
      "professional": 7887,
      "displ": 7888,
      "seen": 7889,
      "tests": 7890,
      "member": 7891,
      "##otic": 7892,
      "##arily": 7893,
      "prop": 7894,
      "taxes": 7895,
      "##ta": 7896,
      "diction": 7897,
      "salaries": 7898,
      "instead": 7899,
      "mac": 7900,
      "##wood": 7901,
      "probably": 7902,
      "antib": 7903,
      "mag": 7904,
      "##bur": 7905,
      "injury": 7906,
      "span": 7907,
      "##ipe": 7908,
      "##avy": 7909,
      "upper": 7910,
      "wed": 7911,
      "june": 7912,
      "compan": 7913,
      "##aur": 7914,
      "ital": 7915,
      "print": 7916,
      "austral": 7917,
      "categ": 7918,
      "##ued": 7919,
      "thing": 7920,
      "##itude": 7921,
      "grand": 7922,
      "countries": 7923,
      "##20": 7924,
      "sell": 7925,
      "rang": 7926,
      "difficult": 7927,
      "##augh": 7928,
      "cub": 7929,
      "prescr": 7930,
      "bul": 7931,
      "employees": 7932,
      "ten": 7933,
      "allows": 7934,
      "##den": 7935,
      "jap": 7936,
      "mg": 7937,
      "##ming": 7938,
      "deal": 7939,
      "ble": 7940,
      "km": 7941,
      "refers": 7942,
      "##ensus": 7943,
      "attack": 7944,
      "altern": 7945,
      "75": 7946,
      "##ological": 7947,
      "##key": 7948,
      "sand": 7949,
      "true": 7950,
      "##bre": 7951,
      "referred": 7952,
      "female": 7953,
      "itself": 7954,
      "yellow": 7955,
      "japan": 7956,
      "zip": 7957,
      "signific": 7958,
      "##light": 7959,
      "phil": 7960,
      "ach": 7961,
      "directly": 7962,
      "resour": 7963,
      "org": 7964,
      "##ster": 7965,
      "flight": 7966,
      "##ators": 7967,
      "##ife": 7968,
      "feb": 7969,
      "accept": 7970,
      "reduce": 7971,
      "estate": 7972,
      "##ift": 7973,
      "pict": 7974,
      "dece": 7975,
      "thick": 7976,
      "solution": 7977,
      "rot": 7978,
      "##inary": 7979,
      "mineral": 7980,
      "##ocks": 7981,
      "##itical": 7982,
      "male": 7983,
      "dest": 7984,
      "drugs": 7985,
      "signs": 7986,
      "prec": 7987,
      "init": 7988,
      "purpose": 7989,
      "bat": 7990,
      "divid": 7991,
      "listed": 7992,
      "diseases": 7993,
      "##duct": 7994,
      "nurs": 7995,
      "##ried": 7996,
      "cross": 7997,
      "##cover": 7998,
      "##itary": 7999,
      "upon": 8000,
      "appl": 8001,
      "designed": 8002,
      "became": 8003,
      "##fect": 8004,
      "jud": 8005,
      "eating": 8006,
      "congress": 8007,
      "safe": 8008,
      "influ": 8009,
      "french": 8010,
      "##ising": 8011,
      "avoid": 8012,
      "options": 8013,
      "beaut": 8014,
      "cash": 8015,
      "nutr": 8016,
      "amaz": 8017,
      "email": 8018,
      "##ises": 8019,
      "##asing": 8020,
      "bottom": 8021,
      "organization": 8022,
      "2012": 8023,
      "slow": 8024,
      "dictionary": 8025,
      "calcium": 8026,
      "##itor": 8027,
      "pred": 8028,
      "except": 8029,
      "alb": 8030,
      "stress": 8031,
      "chromos": 8032,
      "version": 8033,
      "copy": 8034,
      "ball": 8035,
      "mi": 8036,
      "bud": 8037,
      "title": 8038,
      "##icles": 8039,
      "##isc": 8040,
      "offers": 8041,
      "added": 8042,
      "currently": 8043,
      "##ought": 8044,
      "dut": 8045,
      "effective": 8046,
      "volume": 8047,
      "late": 8048,
      "##utions": 8049,
      "essential": 8050,
      "kil": 8051,
      "carry": 8052,
      "option": 8053,
      "ut": 8054,
      "mer": 8055,
      "motor": 8056,
      "register": 8057,
      "##ault": 8058,
      "patient": 8059,
      "census": 8060,
      "plus": 8061,
      "ban": 8062,
      "young": 8063,
      "christ": 8064,
      "##to": 8065,
      "react": 8066,
      "scient": 8067,
      "membr": 8068,
      "##ready": 8069,
      "pron": 8070,
      "fro": 8071,
      "##izon": 8072,
      "distrib": 8073,
      "clin": 8074,
      "built": 8075,
      "greek": 8076,
      "hyper": 8077,
      "content": 8078,
      "fix": 8079,
      "already": 8080,
      "pal": 8081,
      "released": 8082,
      "hormone": 8083,
      "exact": 8084,
      "bed": 8085,
      "##aring": 8086,
      "eyes": 8087,
      "student": 8088,
      "transport": 8089,
      "anc": 8090,
      "relations": 8091,
      "rev": 8092,
      "eggs": 8093,
      "path": 8094,
      "histor": 8095,
      "foc": 8096,
      "htt": 8097,
      "sold": 8098,
      "apple": 8099,
      "deliver": 8100,
      "samp": 8101,
      "##oud": 8102,
      "##orders": 8103,
      "metal": 8104,
      "fort": 8105,
      "##mph": 8106,
      "##for": 8107,
      "regard": 8108,
      "larger": 8109,
      "compon": 8110,
      "##enses": 8111,
      "194": 8112,
      "prior": 8113,
      "internal": 8114,
      "coast": 8115,
      "industry": 8116,
      "##izes": 8117,
      "##tic": 8118,
      "##gage": 8119,
      "rom": 8120,
      "cab": 8121,
      "tom": 8122,
      "##ooth": 8123,
      "talk": 8124,
      "##reg": 8125,
      "carol": 8126,
      "ip": 8127,
      "300": 8128,
      "cand": 8129,
      "temperatures": 8130,
      "##asons": 8131,
      "##ening": 8132,
      "assess": 8133,
      "##ado": 8134,
      "ocean": 8135,
      "ok": 8136,
      "china": 8137,
      "complex": 8138,
      "##gle": 8139,
      "hospital": 8140,
      "plate": 8141,
      "medication": 8142,
      "movie": 8143,
      "features": 8144,
      "##oming": 8145,
      "companies": 8146,
      "useful": 8147,
      "dogs": 8148,
      "tour": 8149,
      "save": 8150,
      "##chan": 8151,
      "sched": 8152,
      "##lant": 8153,
      "constitution": 8154,
      "ingr": 8155,
      "##aps": 8156,
      "##oles": 8157,
      "##lement": 8158,
      "sound": 8159,
      "virgin": 8160,
      "activity": 8161,
      "fol": 8162,
      "transl": 8163,
      "score": 8164,
      "wire": 8165,
      "photos": 8166,
      "##ians": 8167,
      "gluc": 8168,
      "september": 8169,
      "##ublic": 8170,
      "##bor": 8171,
      "mexico": 8172,
      "tick": 8173,
      "##emon": 8174,
      "therefore": 8175,
      "union": 8176,
      "##ov": 8177,
      "brand": 8178,
      "practice": 8179,
      "exec": 8180,
      "correct": 8181,
      "##uff": 8182,
      "pounds": 8183,
      "eth": 8184,
      "release": 8185,
      "ice": 8186,
      "median": 8187,
      "driving": 8188,
      "self": 8189,
      "payment": 8190,
      "former": 8191,
      "reduc": 8192,
      "republic": 8193,
      "ol": 8194,
      "roll": 8195,
      "significant": 8196,
      "draw": 8197,
      "december": 8198,
      "chart": 8199,
      "##ram": 8200,
      "##ober": 8201,
      "##ae": 8202,
      "host": 8203,
      "zone": 8204,
      "behav": 8205,
      "suggest": 8206,
      "##olution": 8207,
      "fair": 8208,
      "sem": 8209,
      "formed": 8210,
      "employee": 8211,
      "diabet": 8212,
      "october": 8213,
      "digest": 8214,
      "los": 8215,
      "##zym": 8216,
      "broad": 8217,
      "fing": 8218,
      "##erous": 8219,
      "##sel": 8220,
      "leave": 8221,
      "##ibility": 8222,
      "story": 8223,
      "vent": 8224,
      "element": 8225,
      "usa": 8226,
      "track": 8227,
      "##iter": 8228,
      "mind": 8229,
      "regul": 8230,
      "liter": 8231,
      "rather": 8232,
      "sources": 8233,
      "boil": 8234,
      "attach": 8235,
      "pick": 8236,
      "nation": 8237,
      "##book": 8238,
      "forecast": 8239,
      "radio": 8240,
      "focus": 8241,
      "##ili": 8242,
      "breast": 8243,
      "consist": 8244,
      "nar": 8245,
      "layer": 8246,
      "##adder": 8247,
      "pul": 8248,
      "vess": 8249,
      "positive": 8250,
      "purchase": 8251,
      "woman": 8252,
      "roast": 8253,
      "absor": 8254,
      "supply": 8255,
      "street": 8256,
      "##ites": 8257,
      "ingred": 8258,
      "oun": 8259,
      "discover": 8260,
      "round": 8261,
      "northern": 8262,
      "thyroid": 8263,
      "princ": 8264,
      "latin": 8265,
      "therapy": 8266,
      "extre": 8267,
      "prepar": 8268,
      "coff": 8269,
      "##empt": 8270,
      "##izz": 8271,
      "previous": 8272,
      "files": 8273,
      "bring": 8274,
      "##verse": 8275,
      "easily": 8276,
      "fail": 8277,
      "jobs": 8278,
      "reaction": 8279,
      "sale": 8280,
      "improve": 8281,
      "wel": 8282,
      "pair": 8283,
      "decre": 8284,
      "flag": 8285,
      "provided": 8286,
      "running": 8287,
      "fees": 8288,
      "double": 8289,
      "district": 8290,
      "battery": 8291,
      "concent": 8292,
      "##put": 8293,
      "##arm": 8294,
      "mobile": 8295,
      "figure": 8296,
      "##ero": 8297,
      "son": 8298,
      "resid": 8299,
      "moon": 8300,
      "tea": 8301,
      "spring": 8302,
      "##ards": 8303,
      "obs": 8304,
      "##ott": 8305,
      "started": 8306,
      "express": 8307,
      "manager": 8308,
      "33": 8309,
      "enzym": 8310,
      "##ba": 8311,
      "died": 8312,
      "balance": 8313,
      "##char": 8314,
      "questions": 8315,
      "##emia": 8316,
      "diabetes": 8317,
      "recogn": 8318,
      "##ota": 8319,
      "ww": 8320,
      "surr": 8321,
      "pin": 8322,
      "extra": 8323,
      "subs": 8324,
      "gives": 8325,
      "egg": 8326,
      "properties": 8327,
      "mechan": 8328,
      "sus": 8329,
      "mother": 8330,
      "silver": 8331,
      "modern": 8332,
      "detect": 8333,
      "beg": 8334,
      "climate": 8335,
      "##isms": 8336,
      "serving": 8337,
      "##app": 8338,
      "disney": 8339,
      "image": 8340,
      "winter": 8341,
      "requires": 8342,
      "idea": 8343,
      "complet": 8344,
      "shop": 8345,
      "units": 8346,
      "technology": 8347,
      "angel": 8348,
      "##ership": 8349,
      "india": 8350,
      "hit": 8351,
      "matter": 8352,
      "sodium": 8353,
      "sett": 8354,
      "chann": 8355,
      "coup": 8356,
      "notice": 8357,
      "functions": 8358,
      "military": 8359,
      "medications": 8360,
      "##rant": 8361,
      "necessary": 8362,
      "##itation": 8363,
      "##ician": 8364,
      "multiple": 8365,
      "##soft": 8366,
      "materials": 8367,
      "##12": 8368,
      "syndr": 8369,
      "traditional": 8370,
      "##ros": 8371,
      "bath": 8372,
      "elements": 8373,
      "feed": 8374,
      "perfect": 8375,
      "style": 8376,
      "chol": 8377,
      "mountain": 8378,
      "##ream": 8379,
      "dead": 8380,
      "gard": 8381,
      "steps": 8382,
      "carolina": 8383,
      "##ocr": 8384,
      "2000": 8385,
      "western": 8386,
      "ratio": 8387,
      "##10": 8388,
      "private": 8389,
      "ast": 8390,
      "ben": 8391,
      "user": 8392,
      "##west": 8393,
      "excess": 8394,
      "british": 8395,
      "monthly": 8396,
      "chlor": 8397,
      "trip": 8398,
      "secret": 8399,
      "root": 8400,
      "colon": 8401,
      "performance": 8402,
      "tall": 8403,
      "##ocol": 8404,
      "thro": 8405,
      "gal": 8406,
      "limited": 8407,
      "nit": 8408,
      "##uk": 8409,
      "ov": 8410,
      "door": 8411,
      "discuss": 8412,
      "inflammation": 8413,
      "laws": 8414,
      "##omic": 8415,
      "button": 8416,
      "older": 8417,
      "##ritis": 8418,
      "##iciency": 8419,
      "stim": 8420,
      "coffee": 8421,
      "##change": 8422,
      "paint": 8423,
      "##ering": 8424,
      "microsoft": 8425,
      "southern": 8426,
      "##sa": 8427,
      "ability": 8428,
      "normally": 8429,
      "career": 8430,
      "strength": 8431,
      "bound": 8432,
      "##uate": 8433,
      "compet": 8434,
      "increased": 8435,
      "2011": 8436,
      "trust": 8437,
      "cream": 8438,
      "seeds": 8439,
      "fuel": 8440,
      "depos": 8441,
      "ven": 8442,
      "server": 8443,
      "bay": 8444,
      "syndrome": 8445,
      "##ests": 8446,
      "wild": 8447,
      "##ruct": 8448,
      "##ety": 8449,
      "leaves": 8450,
      "kidney": 8451,
      "tu": 8452,
      "communic": 8453,
      "disorders": 8454,
      "final": 8455,
      "willi": 8456,
      "##ouch": 8457,
      "glob": 8458,
      "##aged": 8459,
      "goes": 8460,
      "format": 8461,
      "starting": 8462,
      "##ica": 8463,
      "abdom": 8464,
      "exercise": 8465,
      "inte": 8466,
      "##ography": 8467,
      "##anced": 8468,
      "iphone": 8469,
      "sweet": 8470,
      "##str": 8471,
      "came": 8472,
      "carbo": 8473,
      "##cules": 8474,
      "##ruary": 8475,
      "ham": 8476,
      "codes": 8477,
      "schools": 8478,
      "floor": 8479,
      "included": 8480,
      "typical": 8481,
      "800": 8482,
      "relationship": 8483,
      "february": 8484,
      "via": 8485,
      "eight": 8486,
      "favor": 8487,
      "##cy": 8488,
      "speak": 8489,
      "cooking": 8490,
      "rank": 8491,
      "diam": 8492,
      "cart": 8493,
      "haw": 8494,
      "thin": 8495,
      "citiz": 8496,
      "##unch": 8497,
      "nutrition": 8498,
      "37": 8499,
      "##onse": 8500,
      "god": 8501,
      "potential": 8502,
      "##rete": 8503,
      "smaller": 8504,
      "insert": 8505,
      "testing": 8506,
      "values": 8507,
      "##istic": 8508,
      "arth": 8509,
      "isn": 8510,
      "##iac": 8511,
      "48": 8512,
      "homes": 8513,
      "colors": 8514,
      "mortgage": 8515,
      "glucose": 8516,
      "famous": 8517,
      "details": 8518,
      "medium": 8519,
      "nerv": 8520,
      "195": 8521,
      "##ny": 8522,
      "hon": 8523,
      "seven": 8524,
      "##oster": 8525,
      "trees": 8526,
      "player": 8527,
      "http": 8528,
      "inch": 8529,
      "association": 8530,
      "pool": 8531,
      "commerc": 8532,
      "took": 8533,
      "download": 8534,
      "adults": 8535,
      "##can": 8536,
      "oven": 8537,
      "response": 8538,
      "fut": 8539,
      "193": 8540,
      "benefit": 8541,
      "stick": 8542,
      "neck": 8543,
      "##40": 8544,
      "##ightly": 8545,
      "##ging": 8546,
      "rh": 8547,
      "developed": 8548,
      "##ining": 8549,
      "theory": 8550,
      "further": 8551,
      "nursing": 8552,
      "formula": 8553,
      "lou": 8554,
      "beef": 8555,
      "father": 8556,
      "pump": 8557,
      "virginia": 8558,
      "intest": 8559,
      "fever": 8560,
      "rub": 8561,
      "fund": 8562,
      "epis": 8563,
      "repair": 8564,
      "counter": 8565,
      "butter": 8566,
      "carbohydr": 8567,
      "brok": 8568,
      "conduct": 8569,
      "russ": 8570,
      "scr": 8571,
      "shown": 8572,
      "swelling": 8573,
      "##nes": 8574,
      "greater": 8575,
      "bag": 8576,
      "ax": 8577,
      "respir": 8578,
      "unique": 8579,
      "400": 8580,
      "www": 8581,
      "ring": 8582,
      "send": 8583,
      "ny": 8584,
      "princip": 8585,
      "atm": 8586,
      "cd": 8587,
      "enj": 8588,
      "invent": 8589,
      "growing": 8590,
      "elig": 8591,
      "##gar": 8592,
      "window": 8593,
      "##rupt": 8594,
      "responsible": 8595,
      "ens": 8596,
      "behind": 8597,
      "consists": 8598,
      "stone": 8599,
      "yet": 8600,
      "99": 8601,
      "pattern": 8602,
      "covered": 8603,
      "65": 8604,
      "recommended": 8605,
      "individuals": 8606,
      "fruit": 8607,
      "##time": 8608,
      "ohio": 8609,
      "##of": 8610,
      "vag": 8611,
      "spanish": 8612,
      "goo": 8613,
      "items": 8614,
      "solar": 8615,
      "thus": 8616,
      "stage": 8617,
      "display": 8618,
      "##ung": 8619,
      "band": 8620,
      "vict": 8621,
      "resist": 8622,
      "exam": 8623,
      "##pa": 8624,
      "##esterol": 8625,
      "##olf": 8626,
      "anywhere": 8627,
      "ira": 8628,
      "games": 8629,
      "friend": 8630,
      "##ened": 8631,
      "##ffer": 8632,
      "molecules": 8633,
      "pregnant": 8634,
      "anything": 8635,
      "routing": 8636,
      "cholesterol": 8637,
      "nervous": 8638,
      "stra": 8639,
      "concept": 8640,
      "parents": 8641,
      "uk": 8642,
      "##nam": 8643,
      "status": 8644,
      "immedi": 8645,
      "analysis": 8646,
      "chest": 8647,
      "##omb": 8648,
      "basis": 8649,
      "allerg": 8650,
      "quickly": 8651,
      "station": 8652,
      "##bit": 8653,
      "shape": 8654,
      "pull": 8655,
      "nove": 8656,
      "tum": 8657,
      "auto": 8658,
      "combination": 8659,
      "negative": 8660,
      "rene": 8661,
      "continue": 8662,
      "sense": 8663,
      "november": 8664,
      "nearly": 8665,
      "german": 8666,
      "yes": 8667,
      "##ror": 8668,
      "cable": 8669,
      "rare": 8670,
      "##iday": 8671,
      "groups": 8672,
      "led": 8673,
      "chronic": 8674,
      "##set": 8675,
      "obtain": 8676,
      "impact": 8677,
      "mr": 8678,
      "##ania": 8679,
      "gets": 8680,
      "fly": 8681,
      "cheese": 8682,
      "mile": 8683,
      "compared": 8684,
      "began": 8685,
      "hall": 8686,
      "##oon": 8687,
      "rap": 8688,
      "hom": 8689,
      "quite": 8690,
      "begins": 8691,
      "membrane": 8692,
      "##da": 8693,
      "##atively": 8694,
      "##oof": 8695,
      "##hold": 8696,
      "throat": 8697,
      "penn": 8698,
      "execut": 8699,
      "##tes": 8700,
      "##vision": 8701,
      "recent": 8702,
      "dim": 8703,
      "held": 8704,
      "procedure": 8705,
      "mc": 8706,
      "reported": 8707,
      "australia": 8708,
      "##aging": 8709,
      "weak": 8710,
      "thought": 8711,
      "mis": 8712,
      "sports": 8713,
      "substance": 8714,
      "##edia": 8715,
      "hen": 8716,
      "choice": 8717,
      "fert": 8718,
      "las": 8719,
      "##come": 8720,
      "taste": 8721,
      "calculate": 8722,
      "##la": 8723,
      "##izing": 8724,
      "gene": 8725,
      "refr": 8726,
      "safety": 8727,
      "vacc": 8728,
      "##ture": 8729,
      "load": 8730,
      "##icient": 8731,
      "humans": 8732,
      "surv": 8733,
      "##erson": 8734,
      "anx": 8735,
      "dav": 8736,
      "tract": 8737,
      "trade": 8738,
      "hip": 8739,
      "##ael": 8740,
      "##head": 8741,
      "james": 8742,
      "hydro": 8743,
      "branch": 8744,
      "##cel": 8745,
      "dose": 8746,
      "##bert": 8747,
      "acad": 8748,
      "wage": 8749,
      "sq": 8750,
      "##uments": 8751,
      "hous": 8752,
      "played": 8753,
      "pc": 8754,
      "wik": 8755,
      "od": 8756,
      "rules": 8757,
      "poly": 8758,
      "photo": 8759,
      "culture": 8760,
      "enjoy": 8761,
      "flex": 8762,
      "##ha": 8763,
      "agre": 8764,
      "flat": 8765,
      "retire": 8766,
      "learning": 8767,
      "commercial": 8768,
      "letter": 8769,
      "##mitted": 8770,
      "##°f": 8771,
      "poll": 8772,
      "lymph": 8773,
      "africa": 8774,
      "percentage": 8775,
      "memory": 8776,
      "prefer": 8777,
      "os": 8778,
      "##ipment": 8779,
      "neut": 8780,
      "exchange": 8781,
      "beans": 8782,
      "overall": 8783,
      "places": 8784,
      "activities": 8785,
      "##ales": 8786,
      "spot": 8787,
      "##ago": 8788,
      "remember": 8789,
      "valve": 8790,
      "depression": 8791,
      "quant": 8792,
      "solid": 8793,
      "lu": 8794,
      "hotel": 8795,
      "##ground": 8796,
      "##umn": 8797,
      "renew": 8798,
      "vill": 8799,
      "separate": 8800,
      "adjust": 8801,
      "beginning": 8802,
      "rule": 8803,
      "scale": 8804,
      "unc": 8805,
      "emb": 8806,
      "##gia": 8807,
      "wonder": 8808,
      "##ensity": 8809,
      "ren": 8810,
      "lines": 8811,
      "stimul": 8812,
      "index": 8813,
      "behavior": 8814,
      "##ford": 8815,
      "genetic": 8816,
      "##ils": 8817,
      "cele": 8818,
      "machine": 8819,
      "##inate": 8820,
      "identify": 8821,
      "amazon": 8822,
      "pound": 8823,
      "soon": 8824,
      "write": 8825,
      "tra": 8826,
      "causing": 8827,
      "media": 8828,
      "estimated": 8829,
      "spl": 8830,
      "club": 8831,
      "integr": 8832,
      "##ounced": 8833,
      "150": 8834,
      "detail": 8835,
      "crim": 8836,
      "anti": 8837,
      "amend": 8838,
      "future": 8839,
      "concern": 8840,
      "spir": 8841,
      "##ished": 8842,
      "adap": 8843,
      "mental": 8844,
      "received": 8845,
      "##vey": 8846,
      "constant": 8847,
      "surround": 8848,
      "description": 8849,
      "dur": 8850,
      "weigh": 8851,
      "apart": 8852,
      "##ga": 8853,
      "established": 8854,
      "39": 8855,
      "academ": 8856,
      "##oxide": 8857,
      "reading": 8858,
      "rid": 8859,
      "convert": 8860,
      "global": 8861,
      "pac": 8862,
      "stor": 8863,
      "pit": 8864,
      "google": 8865,
      "hands": 8866,
      "minute": 8867,
      "##igr": 8868,
      "lip": 8869,
      "bread": 8870,
      "commit": 8871,
      "##0s": 8872,
      "george": 8873,
      "horse": 8874,
      "##osphere": 8875,
      "##iful": 8876,
      "doing": 8877,
      "experi": 8878,
      "cav": 8879,
      "request": 8880,
      "##atives": 8881,
      "38": 8882,
      "55": 8883,
      "variable": 8884,
      "34": 8885,
      "menu": 8886,
      "currency": 8887,
      "containing": 8888,
      "rent": 8889,
      "math": 8890,
      "grass": 8891,
      "##roll": 8892,
      "resources": 8893,
      "operating": 8894,
      "##iment": 8895,
      "grant": 8896,
      "##ropri": 8897,
      "thous": 8898,
      "##lines": 8899,
      "therm": 8900,
      "##ald": 8901,
      "illness": 8902,
      "voice": 8903,
      "refriger": 8904,
      "##zer": 8905,
      "##ivity": 8906,
      "coc": 8907,
      "##rial": 8908,
      "issues": 8909,
      "carbs": 8910,
      "electrical": 8911,
      "##abol": 8912,
      "nur": 8913,
      "##board": 8914,
      "facts": 8915,
      "42": 8916,
      "##eign": 8917,
      "##ogen": 8918,
      "reven": 8919,
      "tenn": 8920,
      "maintain": 8921,
      "recept": 8922,
      "everything": 8923,
      "match": 8924,
      "##umin": 8925,
      "mild": 8926,
      "gro": 8927,
      "lond": 8928,
      "trail": 8929,
      "bor": 8930,
      "fel": 8931,
      "command": 8932,
      "rough": 8933,
      "jer": 8934,
      "celebr": 8935,
      "amounts": 8936,
      "london": 8937,
      "hur": 8938,
      "involved": 8939,
      "antibi": 8940,
      "##agon": 8941,
      "flavor": 8942,
      "tooth": 8943,
      "anxiety": 8944,
      "elev": 8945,
      "##norm": 8946,
      "bones": 8947,
      "tow": 8948,
      "eastern": 8949,
      "completely": 8950,
      "straight": 8951,
      "##osure": 8952,
      "events": 8953,
      "py": 8954,
      "parent": 8955,
      "##encies": 8956,
      "shap": 8957,
      "##inct": 8958,
      "vegetables": 8959,
      "il": 8960,
      "grade": 8961,
      "viol": 8962,
      "phosph": 8963,
      "mart": 8964,
      "tab": 8965,
      "carp": 8966,
      "increases": 8967,
      "protection": 8968,
      "inject": 8969,
      "yourself": 8970,
      "rob": 8971,
      "abnorm": 8972,
      "lungs": 8973,
      "fight": 8974,
      "reasons": 8975,
      "dish": 8976,
      "dial": 8977,
      "provider": 8978,
      "battle": 8979,
      "sed": 8980,
      "##osite": 8981,
      "##lar": 8982,
      "nature": 8983,
      "leading": 8984,
      "emerg": 8985,
      "die": 8986,
      "pages": 8987,
      "equipment": 8988,
      "france": 8989,
      "aw": 8990,
      "ton": 8991,
      "piece": 8992,
      "army": 8993,
      "england": 8994,
      "becomes": 8995,
      "core": 8996,
      "##amb": 8997,
      "sau": 8998,
      "actual": 8999,
      "que": 9000,
      "##asm": 9001,
      "cord": 9002,
      "##word": 9003,
      "expensive": 9004,
      "portion": 9005,
      "studies": 9006,
      "driver": 9007,
      "clo": 9008,
      "ancient": 9009,
      "devices": 9010,
      "boy": 9011,
      "legs": 9012,
      "##ulin": 9013,
      "##arter": 9014,
      "writing": 9015,
      "coverage": 9016,
      "morn": 9017,
      "wear": 9018,
      "sample": 9019,
      "channel": 9020,
      "proteins": 9021,
      "##ades": 9022,
      "##hood": 9023,
      "##vert": 9024,
      "atlant": 9025,
      "satur": 9026,
      "##ague": 9027,
      "lock": 9028,
      "gi": 9029,
      "restaur": 9030,
      "##uous": 9031,
      "irs": 9032,
      "factor": 9033,
      "farm": 9034,
      "gain": 9035,
      "ec": 9036,
      "respect": 9037,
      "nick": 9038,
      "locations": 9039,
      "mut": 9040,
      "lost": 9041,
      "##roph": 9042,
      "direction": 9043,
      "moving": 9044,
      "derived": 9045,
      "##acing": 9046,
      "recommend": 9047,
      "approach": 9048,
      "fine": 9049,
      "beautiful": 9050,
      "##osition": 9051,
      "excel": 9052,
      "potat": 9053,
      "##ston": 9054,
      "falls": 9055,
      "chap": 9056,
      "camer": 9057,
      "neur": 9058,
      "bleeding": 9059,
      "nurse": 9060,
      "organisms": 9061,
      "vision": 9062,
      "staff": 9063,
      "organs": 9064,
      "dang": 9065,
      "trig": 9066,
      "ft": 9067,
      "##wide": 9068,
      "tri": 9069,
      "cooked": 9070,
      "##ara": 9071,
      "##ls": 9072,
      "kingdom": 9073,
      "##amins": 9074,
      "mit": 9075,
      "slightly": 9076,
      "touch": 9077,
      "serve": 9078,
      "cryst": 9079,
      "##ey": 9080,
      "division": 9081,
      "##craft": 9082,
      "mostly": 9083,
      "##imm": 9084,
      "jun": 9085,
      "##state": 9086,
      "shoulder": 9087,
      "native": 9088,
      "headach": 9089,
      "angeles": 9090,
      "hormones": 9091,
      "roof": 9092,
      "master": 9093,
      "lose": 9094,
      "oz": 9095,
      "itch": 9096,
      "heavy": 9097,
      "vs": 9098,
      "recover": 9099,
      "##used": 9100,
      "mary": 9101,
      "du": 9102,
      "##inese": 9103,
      "users": 9104,
      "primarily": 9105,
      "independent": 9106,
      "agent": 9107,
      "morning": 9108,
      "describe": 9109,
      "applied": 9110,
      "vessels": 9111,
      "juice": 9112,
      "appropri": 9113,
      "guid": 9114,
      "2009": 9115,
      "mom": 9116,
      "actor": 9117,
      "diss": 9118,
      "target": 9119,
      "hu": 9120,
      "##arr": 9121,
      "concrete": 9122,
      "particip": 9123,
      "divided": 9124,
      "pharm": 9125,
      "tong": 9126,
      "perman": 9127,
      "##cing": 9128,
      "inn": 9129,
      "accur": 9130,
      "wave": 9131,
      "ord": 9132,
      "society": 9133,
      "compar": 9134,
      "atoms": 9135,
      "##ledge": 9136,
      "lack": 9137,
      "##ike": 9138,
      "unless": 9139,
      "images": 9140,
      "ath": 9141,
      "rose": 9142,
      "tissues": 9143,
      "item": 9144,
      "52": 9145,
      "vote": 9146,
      "else": 9147,
      "knee": 9148,
      "pd": 9149,
      "hawai": 9150,
      "gast": 9151,
      "smooth": 9152,
      "chance": 9153,
      "shall": 9154,
      "trial": 9155,
      "copper": 9156,
      "##ops": 9157,
      "vitamins": 9158,
      "chinese": 9159,
      "reference": 9160,
      "books": 9161,
      "tx": 9162,
      "##aska": 9163,
      "owner": 9164,
      "issue": 9165,
      "married": 9166,
      "believe": 9167,
      "accounts": 9168,
      "reser": 9169,
      "##ament": 9170,
      "##ij": 9171,
      "##back": 9172,
      "va": 9173,
      "waves": 9174,
      "##pre": 9175,
      "planning": 9176,
      "plans": 9177,
      "##itute": 9178,
      "occup": 9179,
      "##60": 9180,
      "bear": 9181,
      "appears": 9182,
      "louis": 9183,
      "##iles": 9184,
      "wedding": 9185,
      "germany": 9186,
      "snow": 9187,
      "##ste": 9188,
      "television": 9189,
      "orange": 9190,
      "kit": 9191,
      "43": 9192,
      "##amps": 9193,
      "towns": 9194,
      "jour": 9195,
      "administration": 9196,
      "statement": 9197,
      "applications": 9198,
      "burning": 9199,
      "2008": 9200,
      "ow": 9201,
      "##estic": 9202,
      "##burg": 9203,
      "border": 9204,
      "budget": 9205,
      "registered": 9206,
      "##omas": 9207,
      "##ham": 9208,
      "estimate": 9209,
      "wheel": 9210,
      "ray": 9211,
      "plug": 9212,
      "tools": 9213,
      "##fully": 9214,
      "##eration": 9215,
      "steel": 9216,
      "tips": 9217,
      "wife": 9218,
      "employer": 9219,
      "kids": 9220,
      "dent": 9221,
      "##olar": 9222,
      "unl": 9223,
      "police": 9224,
      "feature": 9225,
      "arg": 9226,
      "approved": 9227,
      "assign": 9228,
      "pig": 9229,
      "players": 9230,
      "schedule": 9231,
      "metabol": 9232,
      "graph": 9233,
      "construction": 9234,
      "debt": 9235,
      "label": 9236,
      "football": 9237,
      "44": 9238,
      "fer": 9239,
      "cards": 9240,
      "volcan": 9241,
      "dental": 9242,
      "datab": 9243,
      "skills": 9244,
      "##ipes": 9245,
      "##inated": 9246,
      "cough": 9247,
      "removed": 9248,
      "##pm": 9249,
      "abuse": 9250,
      "##ipping": 9251,
      "nc": 9252,
      "panel": 9253,
      "disp": 9254,
      "abnormal": 9255,
      "ready": 9256,
      "##irm": 9257,
      "everyone": 9258,
      "founded": 9259,
      "##aming": 9260,
      "deduct": 9261,
      "settings": 9262,
      "##ologist": 9263,
      "expected": 9264,
      "rice": 9265,
      "acids": 9266,
      "##enced": 9267,
      "##pir": 9268,
      "retirement": 9269,
      "tor": 9270,
      "shr": 9271,
      "shell": 9272,
      "billion": 9273,
      "franc": 9274,
      "whose": 9275,
      "processes": 9276,
      "ga": 9277,
      "originally": 9278,
      "friends": 9279,
      "planet": 9280,
      "##isions": 9281,
      "##iated": 9282,
      "drain": 9283,
      "rna": 9284,
      "mm": 9285,
      "##water": 9286,
      "sulf": 9287,
      "motion": 9288,
      "album": 9289,
      "##oke": 9290,
      "highly": 9291,
      "##rate": 9292,
      "certific": 9293,
      "##mission": 9294,
      "bon": 9295,
      "drinking": 9296,
      "stored": 9297,
      "harm": 9298,
      "electrons": 9299,
      "##ios": 9300,
      "equival": 9301,
      "marri": 9302,
      "##iny": 9303,
      "frank": 9304,
      "define": 9305,
      "chain": 9306,
      "prime": 9307,
      "methods": 9308,
      "##ansas": 9309,
      "extrem": 9310,
      "trying": 9311,
      "customers": 9312,
      "organic": 9313,
      "##rients": 9314,
      "columb": 9315,
      "powder": 9316,
      "sequ": 9317,
      "mad": 9318,
      "##ka": 9319,
      "corporation": 9320,
      "starts": 9321,
      "workers": 9322,
      "absorb": 9323,
      "##ava": 9324,
      "composed": 9325,
      "dele": 9326,
      "##odies": 9327,
      "fab": 9328,
      "affects": 9329,
      "switch": 9330,
      "##draw": 9331,
      "sac": 9332,
      "##rier": 9333,
      "went": 9334,
      "arthritis": 9335,
      "##ella": 9336,
      "fung": 9337,
      "##thesis": 9338,
      "##wise": 9339,
      "##iate": 9340,
      "edit": 9341,
      "##ping": 9342,
      "regist": 9343,
      "##mark": 9344,
      "dv": 9345,
      "##uits": 9346,
      "##active": 9347,
      "valid": 9348,
      "##hea": 9349,
      "latest": 9350,
      "prep": 9351,
      "turkey": 9352,
      "storage": 9353,
      "agency": 9354,
      "varies": 9355,
      "pun": 9356,
      "chic": 9357,
      "##uted": 9358,
      "plat": 9359,
      "trump": 9360,
      "nothing": 9361,
      "strateg": 9362,
      "pm": 9363,
      "bowl": 9364,
      "kitch": 9365,
      "veg": 9366,
      "radiation": 9367,
      "##see": 9368,
      "political": 9369,
      "followed": 9370,
      "##lier": 9371,
      "visa": 9372,
      "yeast": 9373,
      "pret": 9374,
      "garden": 9375,
      "tongue": 9376,
      "##sey": 9377,
      "seed": 9378,
      "knowledge": 9379,
      "##zen": 9380,
      "smell": 9381,
      "flour": 9382,
      "##bl": 9383,
      "convent": 9384,
      "##brev": 9385,
      "##ructions": 9386,
      "fif": 9387,
      "award": 9388,
      "withdraw": 9389,
      "ion": 9390,
      "sho": 9391,
      "##ket": 9392,
      "##like": 9393,
      "minor": 9394,
      "reports": 9395,
      "inner": 9396,
      "verb": 9397,
      "85": 9398,
      "tap": 9399,
      "looks": 9400,
      "convers": 9401,
      "lives": 9402,
      "cars": 9403,
      "alph": 9404,
      "abbrev": 9405,
      "tuition": 9406,
      "majority": 9407,
      "opening": 9408,
      "demand": 9409,
      "dress": 9410,
      "amendment": 9411,
      "46": 9412,
      "##ocy": 9413,
      "##achel": 9414,
      "covers": 9415,
      "angle": 9416,
      "ingredients": 9417,
      "valley": 9418,
      "foreign": 9419,
      "cere": 9420,
      "officer": 9421,
      "measured": 9422,
      "artery": 9423,
      "47": 9424,
      "hyp": 9425,
      "##aint": 9426,
      "##erate": 9427,
      "digital": 9428,
      "distribution": 9429,
      "properly": 9430,
      "reprodu": 9431,
      "overview": 9432,
      "chocol": 9433,
      "suffer": 9434,
      "pacific": 9435,
      "tag": 9436,
      "##asc": 9437,
      "recorded": 9438,
      "georgia": 9439,
      "95": 9440,
      "wait": 9441,
      "particularly": 9442,
      "cm": 9443,
      "##field": 9444,
      "answers": 9445,
      "cho": 9446,
      "##wor": 9447,
      "##oint": 9448,
      "compound": 9449,
      "electron": 9450,
      "hydrogen": 9451,
      "chromosomes": 9452,
      "anyone": 9453,
      "##otics": 9454,
      "sheet": 9455,
      "entry": 9456,
      "##isco": 9457,
      "pure": 9458,
      "acqu": 9459,
      "eval": 9460,
      "attract": 9461,
      "affected": 9462,
      "##enty": 9463,
      "flower": 9464,
      "##imal": 9465,
      "##80": 9466,
      "quart": 9467,
      "tables": 9468,
      "lowest": 9469,
      "michael": 9470,
      "peak": 9471,
      "ones": 9472,
      "##ses": 9473,
      "broken": 9474,
      "certified": 9475,
      "edge": 9476,
      "william": 9477,
      "eligible": 9478,
      "published": 9479,
      "##11": 9480,
      "cloud": 9481,
      "raw": 9482,
      "placed": 9483,
      "happens": 9484,
      "veter": 9485,
      "moist": 9486,
      "performed": 9487,
      "issued": 9488,
      "##lets": 9489,
      "votes": 9490,
      "600": 9491,
      "2007": 9492,
      "collection": 9493,
      "nutrients": 9494,
      "##ieved": 9495,
      "##cast": 9496,
      "column": 9497,
      "##cule": 9498,
      "##iology": 9499,
      "hab": 9500,
      "appropriate": 9501,
      "immune": 9502,
      "frame": 9503,
      "ranges": 9504,
      "crow": 9505,
      "suff": 9506,
      "stores": 9507,
      "gly": 9508,
      "aid": 9509,
      "replacement": 9510,
      "pine": 9511,
      "ful": 9512,
      "opport": 9513,
      "democr": 9514,
      "##ference": 9515,
      "picture": 9516,
      "database": 9517,
      "americans": 9518,
      "couple": 9519,
      "widely": 9520,
      "resident": 9521,
      "az": 9522,
      "opportun": 9523,
      "##ession": 9524,
      "alt": 9525,
      "coord": 9526,
      "49": 9527,
      "kitchen": 9528,
      "sides": 9529,
      "breed": 9530,
      "statistics": 9531,
      "sud": 9532,
      "installation": 9533,
      "calculator": 9534,
      "exactly": 9535,
      "##aughter": 9536,
      "##mm": 9537,
      "##athy": 9538,
      "feeling": 9539,
      "volt": 9540,
      "described": 9541,
      "changed": 9542,
      "existing": 9543,
      "chocolate": 9544,
      "warrant": 9545,
      "ensure": 9546,
      "diagnosis": 9547,
      "arteries": 9548,
      "sin": 9549,
      "shot": 9550,
      "##ami": 9551,
      "phr": 9552,
      "passed": 9553,
      "##30": 9554,
      "cort": 9555,
      "funds": 9556,
      "installed": 9557,
      "dollars": 9558,
      "calor": 9559,
      "nitrogen": 9560,
      "repe": 9561,
      "##iph": 9562,
      "quarter": 9563,
      "firm": 9564,
      "##igan": 9565,
      "equivalent": 9566,
      "waste": 9567,
      "##isl": 9568,
      "finger": 9569,
      "grill": 9570,
      "naturally": 9571,
      "##iest": 9572,
      "accomp": 9573,
      "islands": 9574,
      "rapid": 9575,
      "nucleus": 9576,
      "sauce": 9577,
      "revenue": 9578,
      "belong": 9579,
      "alone": 9580,
      "amp": 9581,
      "assistant": 9582,
      "##pan": 9583,
      "250": 9584,
      "leaf": 9585,
      "bonds": 9586,
      "##oting": 9587,
      "phase": 9588,
      "adop": 9589,
      "bladder": 9590,
      "dependent": 9591,
      "economic": 9592,
      "fixed": 9593,
      "##rote": 9594,
      "prescrib": 9595,
      "facebook": 9596,
      "colorado": 9597,
      "rise": 9598,
      "##selves": 9599,
      "dyn": 9600,
      "seal": 9601,
      "##uries": 9602,
      "##zz": 9603,
      "message": 9604,
      "molecule": 9605,
      "explor": 9606,
      "understanding": 9607,
      "wil": 9608,
      "bacterial": 9609,
      "sky": 9610,
      "seem": 9611,
      "earned": 9612,
      "rou": 9613,
      "served": 9614,
      "mont": 9615,
      "chief": 9616,
      "instructions": 9617,
      "##assium": 9618,
      "##atically": 9619,
      "dates": 9620,
      "##ternal": 9621,
      "african": 9622,
      "components": 9623,
      "mat": 9624,
      "ult": 9625,
      "lig": 9626,
      "usb": 9627,
      "filter": 9628,
      "oral": 9629,
      "##vis": 9630,
      "hiv": 9631,
      "deficiency": 9632,
      "produces": 9633,
      "chicago": 9634,
      "incor": 9635,
      "connection": 9636,
      "frequency": 9637,
      "supplement": 9638,
      "purposes": 9639,
      "evidence": 9640,
      "japanese": 9641,
      "ms": 9642,
      "citizens": 9643,
      "advert": 9644,
      "nav": 9645,
      "advant": 9646,
      "120": 9647,
      "champ": 9648,
      "potassium": 9649,
      "pad": 9650,
      "minerals": 9651,
      "disability": 9652,
      "push": 9653,
      "combined": 9654,
      "64": 9655,
      "##icial": 9656,
      "##ciation": 9657,
      "measures": 9658,
      "libr": 9659,
      "welcome": 9660,
      "##hib": 9661,
      "gum": 9662,
      "legisl": 9663,
      "##band": 9664,
      "setting": 9665,
      "favorite": 9666,
      "rab": 9667,
      "roy": 9668,
      "192": 9669,
      "frequently": 9670,
      "##osing": 9671,
      "situ": 9672,
      "spect": 9673,
      "oldest": 9674,
      "treated": 9675,
      "plastic": 9676,
      "connected": 9677,
      "jackson": 9678,
      "##°c": 9679,
      "spend": 9680,
      "##ucky": 9681,
      "vine": 9682,
      "dollar": 9683,
      "prin": 9684,
      "1000": 9685,
      "qualify": 9686,
      "coming": 9687,
      "licens": 9688,
      "cats": 9689,
      "##cers": 9690,
      "tear": 9691,
      "category": 9692,
      "executive": 9693,
      "league": 9694,
      "involves": 9695,
      "bachel": 9696,
      "rating": 9697,
      "blo": 9698,
      "recently": 9699,
      "investment": 9700,
      "##roy": 9701,
      "density": 9702,
      "complic": 9703,
      "determined": 9704,
      "nose": 9705,
      "vert": 9706,
      "##ady": 9707,
      "didn": 9708,
      "relatively": 9709,
      "acute": 9710,
      "poor": 9711,
      "immediately": 9712,
      "##apor": 9713,
      "generation": 9714,
      "sentence": 9715,
      "ml": 9716,
      "residents": 9717,
      "clinical": 9718,
      "##care": 9719,
      "##izona": 9720,
      "golf": 9721,
      "cru": 9722,
      "permanent": 9723,
      "remain": 9724,
      "##force": 9725,
      "foundation": 9726,
      "41": 9727,
      "expenses": 9728,
      "fully": 9729,
      "coach": 9730,
      "summary": 9731,
      "##ields": 9732,
      "##iers": 9733,
      "smart": 9734,
      "initial": 9735,
      "happen": 9736,
      "md": 9737,
      "hypo": 9738,
      "failure": 9739,
      "##loy": 9740,
      "pok": 9741,
      "arizona": 9742,
      "insulin": 9743,
      "premium": 9744,
      "default": 9745,
      "manufactur": 9746,
      "trop": 9747,
      "##vania": 9748,
      "payments": 9749,
      "##inois": 9750,
      "mainly": 9751,
      "pap": 9752,
      "territ": 9753,
      "transform": 9754,
      "specifically": 9755,
      "##ema": 9756,
      "stands": 9757,
      "tempor": 9758,
      "iv": 9759,
      "190": 9760,
      "pink": 9761,
      "186": 9762,
      "nause": 9763,
      "abdominal": 9764,
      "mand": 9765,
      "##perm": 9766,
      "hp": 9767,
      "##pped": 9768,
      "ages": 9769,
      "introduction": 9770,
      "italy": 9771,
      "characteristics": 9772,
      "ship": 9773,
      "crime": 9774,
      "excl": 9775,
      "hundr": 9776,
      "lemon": 9777,
      "breathing": 9778,
      "organiz": 9779,
      "profile": 9780,
      "aren": 9781,
      "illinois": 9782,
      "##ylvania": 9783,
      "cro": 9784,
      "irrit": 9785,
      "##ban": 9786,
      "mixture": 9787,
      "update": 9788,
      "threat": 9789,
      "ber": 9790,
      "##orial": 9791,
      "haz": 9792,
      "penns": 9793,
      "jew": 9794,
      "cabin": 9795,
      "represents": 9796,
      "##ech": 9797,
      "lap": 9798,
      "sick": 9799,
      "##ns": 9800,
      "external": 9801,
      "advanced": 9802,
      "54": 9803,
      "compare": 9804,
      "flowers": 9805,
      "substances": 9806,
      "launch": 9807,
      "bost": 9808,
      "##ias": 9809,
      "191": 9810,
      "criminal": 9811,
      "scientific": 9812,
      "fabric": 9813,
      "diarr": 9814,
      "##lection": 9815,
      "irish": 9816,
      "##edy": 9817,
      "periods": 9818,
      "confirm": 9819,
      "guar": 9820,
      "boston": 9821,
      "stro": 9822,
      "##iqu": 9823,
      "enzyme": 9824,
      "hope": 9825,
      "historical": 9826,
      "wat": 9827,
      "##rum": 9828,
      "director": 9829,
      "providing": 9830,
      "european": 9831,
      "pennsylvania": 9832,
      "dioxide": 9833,
      "race": 9834,
      "senate": 9835,
      "##alth": 9836,
      "profession": 9837,
      "##iat": 9838,
      "pork": 9839,
      "van": 9840,
      "hd": 9841,
      "capac": 9842,
      "nausea": 9843,
      "tun": 9844,
      "opposite": 9845,
      "##sequ": 9846,
      "aver": 9847,
      "outer": 9848,
      "reviews": 9849,
      "##iana": 9850,
      "actress": 9851,
      "fertil": 9852,
      "administr": 9853,
      "alle": 9854,
      "adding": 9855,
      "##cut": 9856,
      "##ilies": 9857,
      "examin": 9858,
      "72": 9859,
      "##right": 9860,
      "##ascular": 9861,
      "bron": 9862,
      "retail": 9863,
      "domin": 9864,
      "nine": 9865,
      "documents": 9866,
      "output": 9867,
      "cerv": 9868,
      "italian": 9869,
      "appearance": 9870,
      "goal": 9871,
      "prescription": 9872,
      "compr": 9873,
      "spirit": 9874,
      "spinal": 9875,
      "presence": 9876,
      "hus": 9877,
      "##ico": 9878,
      "told": 9879,
      "leader": 9880,
      "hop": 9881,
      "##aker": 9882,
      "differences": 9883,
      "ends": 9884,
      "michigan": 9885,
      "hourly": 9886,
      "forward": 9887,
      "increasing": 9888,
      "doctors": 9889,
      "attempt": 9890,
      "bachelor": 9891,
      "owned": 9892,
      "monitor": 9893,
      "##entially": 9894,
      "stool": 9895,
      "bey": 9896,
      "wrong": 9897,
      "calorie": 9898,
      "train": 9899,
      "ounce": 9900,
      "indiana": 9901,
      "##ky": 9902,
      "##igation": 9903,
      "virt": 9904,
      "pretty": 9905,
      "thomas": 9906,
      "meal": 9907,
      "bind": 9908,
      "##ypt": 9909,
      "linked": 9910,
      "mountains": 9911,
      "onto": 9912,
      "background": 9913,
      "56": 9914,
      "##bc": 9915,
      "allowed": 9916,
      "themselves": 9917,
      "guarant": 9918,
      "marriage": 9919,
      "##och": 9920,
      "cot": 9921,
      "mold": 9922,
      "##aving": 9923,
      "din": 9924,
      "mention": 9925,
      "##unt": 9926,
      "asia": 9927,
      "honey": 9928,
      "##lies": 9929,
      "nas": 9930,
      "alex": 9931,
      "moves": 9932,
      "59": 9933,
      "pdf": 9934,
      "##pat": 9935,
      "dan": 9936,
      "nfl": 9937,
      "stret": 9938,
      "agreement": 9939,
      "unlike": 9940,
      "recipe": 9941,
      "stars": 9942,
      "cos": 9943,
      "##ew": 9944,
      "lact": 9945,
      "dys": 9946,
      "remains": 9947,
      "loans": 9948,
      "##ria": 9949,
      "profit": 9950,
      "ank": 9951,
      "twice": 9952,
      "structures": 9953,
      "desk": 9954,
      "##axy": 9955,
      "distinct": 9956,
      "nerves": 9957,
      "finish": 9958,
      "assets": 9959,
      "certificate": 9960,
      "wet": 9961,
      "updated": 9962,
      "##ners": 9963,
      "##70": 9964,
      "cas": 9965,
      "excell": 9966,
      "establish": 9967,
      "##charge": 9968,
      "diarrhea": 9969,
      "nom": 9970,
      "cod": 9971,
      "decid": 9972,
      "##down": 9973,
      "dip": 9974,
      "62": 9975,
      "carbohydrates": 9976,
      "roots": 9977,
      "##heit": 9978,
      "180": 9979,
      "comfort": 9980,
      "##ca": 9981,
      "harv": 9982,
      "rand": 9983,
      "walls": 9984,
      "indicate": 9985,
      "ford": 9986,
      "standards": 9987,
      "##ette": 9988,
      "chall": 9989,
      "engineering": 9990,
      "kilomet": 9991,
      "employment": 9992,
      "##ceed": 9993,
      "domestic": 9994,
      "bil": 9995,
      "##lying": 9996,
      "wine": 9997,
      "classic": 9998,
      "ster": 9999,
      "ideal": 10000,
      "measurement": 10001,
      "returns": 10002,
      "neu": 10003,
      "reve": 10004,
      "dream": 10005,
      "fah": 10006,
      "prostate": 10007,
      "charact": 10008,
      "pupp": 10009,
      "charl": 10010,
      "anemia": 10011,
      "commission": 10012,
      "progress": 10013,
      "gm": 10014,
      "asked": 10015,
      "intestine": 10016,
      "##istry": 10017,
      "extremely": 10018,
      "trim": 10019,
      "characters": 10020,
      "##sect": 10021,
      "singer": 10022,
      "scores": 10023,
      "mph": 10024,
      "physician": 10025,
      "concentration": 10026,
      "peace": 10027,
      "##rew": 10028,
      "charges": 10029,
      "reflect": 10030,
      "hill": 10031,
      "##amine": 10032,
      "easier": 10033,
      "##uses": 10034,
      "##renheit": 10035,
      "biggest": 10036,
      "package": 10037,
      "outl": 10038,
      "attention": 10039,
      "lung": 10040,
      "goods": 10041,
      "router": 10042,
      "savings": 10043,
      "fats": 10044,
      "kore": 10045,
      "corporate": 10046,
      "neigh": 10047,
      "sudden": 10048,
      "baking": 10049,
      "coron": 10050,
      "chapter": 10051,
      "ticket": 10052,
      "##her": 10053,
      "hotels": 10054,
      "plays": 10055,
      "anth": 10056,
      "fahrenheit": 10057,
      "dissol": 10058,
      "desert": 10059,
      "occas": 10060,
      "route": 10061,
      "sperm": 10062,
      "chur": 10063,
      "fa": 10064,
      "##opl": 10065,
      "accounting": 10066,
      "##ingu": 10067,
      "reactions": 10068,
      "medicare": 10069,
      "certification": 10070,
      "##jun": 10071,
      "cree": 10072,
      "##itar": 10073,
      "##onyms": 10074,
      "##usive": 10075,
      "##neys": 10076,
      "forces": 10077,
      "daughter": 10078,
      "emot": 10079,
      "attached": 10080,
      "families": 10081,
      "atmosphere": 10082,
      "links": 10083,
      "giving": 10084,
      "beer": 10085,
      "passport": 10086,
      "string": 10087,
      "sams": 10088,
      "powerful": 10089,
      "earnings": 10090,
      "boat": 10091,
      "tip": 10092,
      "longest": 10093,
      "limits": 10094,
      "precip": 10095,
      "seems": 10096,
      "##house": 10097,
      "##ycl": 10098,
      "##oglob": 10099,
      "appoint": 10100,
      "##vin": 10101,
      "##rel": 10102,
      "tube": 10103,
      "##pes": 10104,
      "mainten": 10105,
      "corner": 10106,
      "wish": 10107,
      "worked": 10108,
      "particles": 10109,
      "voc": 10110,
      "fract": 10111,
      "roman": 10112,
      "##stone": 10113,
      "alaska": 10114,
      "triang": 10115,
      "sant": 10116,
      "robert": 10117,
      "relig": 10118,
      "mission": 10119,
      "##nel": 10120,
      "salmon": 10121,
      "earlier": 10122,
      "treatments": 10123,
      "##fall": 10124,
      "runs": 10125,
      "poison": 10126,
      "maintenance": 10127,
      "wireless": 10128,
      "scott": 10129,
      "becoming": 10130,
      "##lands": 10131,
      "refrigerator": 10132,
      "tile": 10133,
      "component": 10134,
      "beyond": 10135,
      "##zing": 10136,
      "economy": 10137,
      "##terior": 10138,
      "##lements": 10139,
      "ros": 10140,
      "inher": 10141,
      "##ml": 10142,
      "fruits": 10143,
      "critical": 10144,
      "translation": 10145,
      "babies": 10146,
      "##uana": 10147,
      "task": 10148,
      "toward": 10149,
      "##uble": 10150,
      "nail": 10151,
      "duty": 10152,
      "##ulated": 10153,
      "regions": 10154,
      "vegas": 10155,
      "sexual": 10156,
      "##imp": 10157,
      "assum": 10158,
      "basket": 10159,
      "charged": 10160,
      "resulting": 10161,
      "##essee": 10162,
      "mur": 10163,
      "ru": 10164,
      "53": 10165,
      "faster": 10166,
      "smok": 10167,
      "characterized": 10168,
      "absol": 10169,
      "vaccine": 10170,
      "ho": 10171,
      "hind": 10172,
      "icon": 10173,
      "secondary": 10174,
      "brows": 10175,
      "detailed": 10176,
      "genes": 10177,
      "##eed": 10178,
      "galaxy": 10179,
      "kent": 10180,
      "##prise": 10181,
      "tail": 10182,
      "rocks": 10183,
      "compens": 10184,
      "brake": 10185,
      "signed": 10186,
      "parking": 10187,
      "thousands": 10188,
      "fatty": 10189,
      "candid": 10190,
      "pepper": 10191,
      "calculated": 10192,
      "##onym": 10193,
      "drops": 10194,
      "mode": 10195,
      "saw": 10196,
      "dangerous": 10197,
      "decision": 10198,
      "##agr": 10199,
      "bran": 10200,
      "pieces": 10201,
      "rash": 10202,
      "consumer": 10203,
      "directions": 10204,
      "thor": 10205,
      "##ata": 10206,
      "expand": 10207,
      "relative": 10208,
      "##rof": 10209,
      "arab": 10210,
      "frozen": 10211,
      "mol": 10212,
      "reduced": 10213,
      "samsung": 10214,
      "processing": 10215,
      "consult": 10216,
      "cler": 10217,
      "martin": 10218,
      "##rh": 10219,
      "##amic": 10220,
      "##kn": 10221,
      "linc": 10222,
      "alternative": 10223,
      "scan": 10224,
      "marketing": 10225,
      "##gl": 10226,
      "rod": 10227,
      "delivery": 10228,
      "household": 10229,
      "split": 10230,
      "##oln": 10231,
      "emergency": 10232,
      "village": 10233,
      "paul": 10234,
      "##itan": 10235,
      "allergic": 10236,
      "survey": 10237,
      "##anks": 10238,
      "ventric": 10239,
      "config": 10240,
      "swim": 10241,
      "51": 10242,
      "ire": 10243,
      "acts": 10244,
      "formation": 10245,
      "seconds": 10246,
      "phen": 10247,
      "gel": 10248,
      "fourth": 10249,
      "alumin": 10250,
      "join": 10251,
      "yard": 10252,
      "##eness": 10253,
      "tender": 10254,
      "urinary": 10255,
      "instance": 10256,
      "##ijuana": 10257,
      "##orter": 10258,
      "##town": 10259,
      "arts": 10260,
      "temp": 10261,
      "episode": 10262,
      "hern": 10263,
      "##adian": 10264,
      "follows": 10265,
      "bridge": 10266,
      "tank": 10267,
      "##nal": 10268,
      "ash": 10269,
      "obser": 10270,
      "completed": 10271,
      "compress": 10272,
      "intake": 10273,
      "flo": 10274,
      "ultr": 10275,
      "spray": 10276,
      "closed": 10277,
      "cubic": 10278,
      "beat": 10279,
      "##ographic": 10280,
      "achieve": 10281,
      "tennessee": 10282,
      "kinds": 10283,
[...]
