[PAD]
[UNK]
[CLS]
[SEP]
[MASK]
!
#
$
%
&
'
(
)
*
+
,
-
.
/
0
1
2
3
4
5
6
7
8
9
:
;
<
=
>
?
@
[
\
]
^
_
`
a
b
c
d
e
f
g
h
i
j
k
l
m
n
o
p
q
r
s
t
u
v
w
x
y
z
{
|
}
~
¡
¢
£
¤
¥
¦
§
¨
©
ª
«
¬
®
¯
°
±
²
³
´
µ
¶
·
¸
¹
º
»
¼
½
¾
¿
×
ß
æ
ð
÷
ø
þ
đ
ħ
ı
ł
ŋ
œ
ŧ
ſ
ƃ
ƈ
ƒ
ƭ
ƹ
ǀ
ǁ
ǂ
ǃ
ǝ
ȝ
ɐ
ɑ
ɒ
ɓ
ɔ
ɕ
ɖ
ɘ
ə
ɚ
ɛ
ɜ
ɝ
ɟ
ɠ
ɡ
ɣ
ɤ
ɥ
ɦ
ɧ
ɨ
ɩ
ɪ
ɫ
ɬ
ɭ
ɯ
ɱ
ɲ
ɳ
ɴ
ɵ
ɷ
ɹ
ɻ
ɽ
ɾ
ɿ
ʀ
ʁ
ʂ
ʃ
ʇ
ʈ
ʉ
ʊ
ʋ
ʌ
ʎ
ʏ
ʑ
ʒ
ʔ
ʕ
ʜ
ʝ
ʤ
ʪ
ʫ
ʰ
ʱ
ʲ
ʳ
ʷ
ʹ
ʺ
ʻ
ʼ
ʽ
ʾ
ʿ
ˀ
ˁ
˃
˄
˅
ˆ
ˇ
ˈ
ˉ
ˊ
ˌ
ː
ˑ
˘
˙
˚
˛
˜
˝
˟
ˠ
ˢ
ˣ
ˤ
˥
˦
˧
˨
˩
ˮ
˻
˼
΄
α
β
γ
δ
ε
ζ
η
θ
ι
κ
λ
μ
ν
ξ
ο
π
ρ
ς
σ
τ
υ
φ
χ
ψ
ω
ϐ
ϑ
ϕ
ϝ
ϟ
ϩ
ϰ
ϵ
а
б
в
г
д
е
ж
з
и
к
л
м
н
о
п
р
с
т
у
ф
х
ц
ч
ш
щ
ъ
ы
ь
э
ю
я
ђ
є
ѕ
і
ј
љ
њ
ћ
ѣ
ѱ
ґ
қ
ҩ
ү
ҽ
ӏ
ӕ
ә
ө
ԁ
ԍ
ԩ
ա
բ
գ
դ
ե
է
ժ
ի
լ
խ
ծ
կ
հ
ձ
ղ
մ
յ
ն
շ
ո
պ
ռ
ս
վ
տ
ր
ց
ւ
փ
ք
ֆ
և
־
א
ב
ג
ד
ה
ו
ז
ח
ט
י
ך
כ
ל
ם
מ
ן
נ
ס
ע
ף
פ
ץ
צ
ק
ר
ש
ת
װ
ױ
ײ
׳
״
،
ء
ا
ب
ة
ت
ث
ج
ح
خ
د
ذ
ر
ز
س
ش
ص
ض
ط
ظ
ع
غ
ـ
ف
ق
ك
ل
م
ن
ه
و
ى
ي
٠
٢
٤
٥
٬
٭
ٱ
ٹ
پ
چ
ڈ
ڑ
ژ
ک
ڪ
ڬ
گ
ڵ
ں
ڼ
ھ
ہ
ۆ
ۇ
ی
ێ
ې
ے
۔
ە
۞
ۥ
ܐ
ܓ
ܕ
ܗ
ܘ
ܝ
ܠ
ܡ
ܢ
ܣ
ܪ
ܬ
ހ
ވ
މ
ދ
ލ
ः
अ
आ
इ
ई
उ
ऊ
ऋ
ए
ऐ
ऑ
औ
क
ख
ग
घ
ङ
च
छ
ज
झ
ञ
ट
ठ
ड
ढ
ण
त
थ
द
ध
न
प
फ
ब
भ
म
य
र
ल
व
श
ष
स
ह
ा
ि
ी
ॉ
ो
ौ
ॐ
।
॥
ং
অ
আ
ই
উ
ও
ক
খ
গ
জ
ট
ঠ
ড
ত
থ
দ
ধ
ন
প
ফ
ব
ভ
ম
য
র
ল
঵
শ
ষ
স
হ
া
ি
ী
ে
ৰ
ৱ
৳
ਅ
ਆ
ਕ
ਖ
ਜ
ਠ
ਡ
ਤ
ਥ
ਧ
ਨ
ਮ
ਯ
ਰ
ਲ
ਵ
ਸ
ਾ
ਿ
ੀ
੝
અ
આ
ક
ગ
જ
ઠ
ડ
ત
થ
ધ
ન
મ
ય
ર
લ
વ
શ
ષ
સ
ા
િ
ી
ો
ଏ
କ
ଟ
ତ
ମ
ର
ଲ
ଷ
ସ
ହ
ା
େ
அ
ஆ
உ
ஒ
க
ங
ச
ஜ
ட
ண
த
ந
ன
ப
ம
ய
ர
ற
ல
ள
ழ
வ
ஷ
ஸ
ா
ி
ு
ூ
ெ
ே
ை
ௗ
అ
ఆ
ఉ
క
గ
జ
ట
ఠ
త
థ
ద
ధ
న
ప
మ
య
ర
ల
వ
శ
ష
స
ు
ಂ
ಅ
ಆ
ಕ
ಗ
ಜ
ಠ
ಡ
ತ
ಥ
ಧ
ನ
ಪ
ಬ
ಮ
ಯ
ರ
ಳ
ವ
ಶ
ಷ
ಸ
ಾ
ು
ೂ
ೕ
ം
അ
ആ
എ
ഓ
ക
ച
ജ
ഠ
ണ
ത
ഥ
ധ
ന
പ
മ
യ
ര
റ
ല
ള
വ
ശ
ഷ
സ
ാ
ി
ീ
െ
േ
൐
൜
ൡ
൥
൧
൩
൮
൯
൳
൴
൵
අ
ඇ
ඊ
ක
ග
ට
ත
ද
න
ප
බ
ම
ඹ
ය
ර
ල
ව
ෂ
ස
හ
ළ
ා
ැ
ෙ
ก
ข
ค
ง
จ
ช
ซ
ฐ
ณ
ด
ต
ถ
ท
ธ
น
บ
ป
ผ
ฝ
พ
ฟ
ภ
ม
ย
ร
ฤ
ล
ว
ศ
ษ
ส
ห
อ
ฮ
ะ
า
ำ
฿
เ
แ
โ
ใ
ไ
๏
๑
๒
ກ
ຈ
ທ
ນ
າ
ໃ
་
།
༼
༽
ག
ང
ཇ
ཐ
པ
བ
མ
ལ
ས
က
င
ည
ဋ
တ
န
ပ
ဗ
ဘ
မ
ရ
လ
ဝ
သ
ဟ
အ
ဣ
ဧ
ါ
ာ
ေ
း
ျ
ြ
ა
ბ
გ
დ
ე
ვ
ზ
თ
ი
კ
ლ
მ
ნ
ო
პ
რ
ს
ტ
უ
ქ
ღ
ც
ძ
ჭ
ხ
ᄀ
ᄁ
ᄂ
ᄃ
ᄄ
ᄅ
ᄆ
ᄇ
ᄈ
ᄉ
ᄊ
ᄋ
ᄌ
ᄍ
ᄎ
ᄏ
ᄐ
ᄑ
ᄒ
ᄽ
ᅡ
ᅢ
ᅣ
ᅥ
ᅦ
ᅧ
ᅨ
ᅩ
ᅪ
ᅬ
ᅭ
ᅮ
ᅯ
ᅱ
ᅲ
ᅳ
ᅴ
ᅵ
ᆨ
ᆩ
ᆫ
ᆯ
ᆶ
ᆷ
ᆸ
ᆹ
ᆺ
ᆻ
ᆼ
ᆾ
ᇀ
ᇻ
ᇾ
ሃ
ለ
ሉ
ሊ
ላ
ል
ሐ
መ
ማ
ም
ሞ
ረ
ሪ
ራ
ሬ
ር
ሰ
ሲ
ስ
ሻ
ቕ
በ
ባ
ብ
ታ
ት
ች
ነ
ና
ን
ኛ
አ
ኢ
ኣ
ኤ
እ
ክ
ዊ
ዋ
ው
ዎ
ዓ
ዘ
ዛ
ዝ
የ
ያ
ይ
ዮ
ደ
ዲ
ዳ
ዴ
ድ
ጀ
ጅ
ገ
ጋ
ግ
ጣ
ጥ
ጵ
ፊ
ፋ
ፌ
ፍ
ፐ
።
ᏸ
ᏹ
ᏼ
ᐃ
ᐅ
ᐊ
ᑐ
ᑕ
ᑦ
ᑲ
ᒃ
ᒥ
ᒪ
ᓄ
ᓇ
ᓗ
ᕐ
ᖁ
ᖃ
ᖅ
ᖕ
ᗅ
ᗷ
ᗺ
ᙳ
ᚫ
ᛟ
ក
គ
ឃ
ង
ជ
ត
ទ
ធ
ន
ប
ព
ម
យ
រ
ល
វ
ស
ហ
អ
ា
េ
ោ
ៈ
៛
ᬩ
ᬮ
ᴇ
ᵉ
ᵊ
ᵑ
ᵒ
ᵗ
ᵝ
ᵻ
ᵿ
‐
‑
‒
–
—
―
‖
‗
‘
’
‚
‛
“
”
„
‟
†
‡
•
‣
․
‥
…
‧
‰
‱
′
″
‴
‸
‹
›
※
‼
‽
‿
⁁
⁂
⁄
⁊
⁎
⁓
⁕
⁖
⁗
⁰
ⁱ
⁴
⁵
⁶
⁷
⁸
⁹
⁺
⁻
ⁿ
₀
₁
₂
₃
₄
₅
₆
₇
₈
₠
₡
₢
₣
₤
₥
₦
₨
₩
₪
₫
€
₮
₱
₴
₵
₹
₽
⃝
⃣
ℂ
℃
℉
ℏ
ℓ
℔
ℕ
№
℗
℘
ℙ
ℚ
ℝ
℞
℠
℡
™
ℤ
℥
℧
ℭ
ℵ
ⅈ
⅍
⅐
⅑
⅒
⅓
⅔
⅕
⅙
⅛
⅜
⅝
⅞
⅟
ⅴ
ⅹ
←
↑
→
↓
↔
↕
↗
↘
↙
↢
↣
↥
↦
↨
↩
↪
↫
↬
↳
↵
↹
↺
⇄
⇆
⇇
⇉
⇋
⇌
⇐
⇑
⇒
⇓
⇔
⇤
⇥
⇧
⇨
⇪
⇭
∀
∂
∃
∅
∆
∇
∈
∊
∋
∏
∑
−
∕
∗
∘
∙
√
∛
∝
∞
∟
∠
∥
∧
∨
∩
∪
∫
∬
∴
∼
≅
≆
≈
≝
≡
≤
≥
≦
≧
≪
≫
⊂
⊃
⊆
⊇
⊕
⊖
⊗
⊘
⊙
⊛
⊝
⊞
⊥
⊨
⊲
⊸
⋀
⋁
⋅
⋆
⋮
⋯
⌂
⌃
⌊
⌋
⌕
⌘
⌚
⌞
⌥
⌦
⌬
⎙
⎛
⎜
⎝
⎞
⎟
⎠
⎡
⎢
⎣
⎤
⎥
⎦
⎧
⎨
⎩
⎯
⎷
⏎
⏏
⏣
⏰
␡
␤
⑆
⑇
⑈
⑉
①
②
③
⑤
ⓒ
ⓘ
ⓡ
ⓤ
─
│
═
║
╔
╗
╚
╝
╠
╣
╥
╦
╩
▀
▄
█
▌
░
▒
▓
▘
■
□
▪
▫
▬
▲
△
▴
▶
▷
▸
►
▼
▾
◀
◄
◅
◆
◇
◈
◉
◊
○
◌
●
◕
◗
◘
◙
◡
◢
◦
◯
◾
☀
☁
☂
☃
☄
★
☆
☉
☎
☐
☑
☔
☕
☛
☝
☞
☟
☠
☢
☣
☪
☮
☯
☰
☺
☻
☼
☾
☿
♀
♂
♃
♄
♅
♆
♈
♉
♊
♋
♌
♍
♎
♏
♐
♑
♒
♓
♕
♖
♗
♙
♛
♜
♟
♠
♡
♢
♣
♥
♦
♩
♪
♫
♬
♭
♮
♯
♱
♻
♿
⚊
⚑
⚒
⚓
⚕
⚖
⚙
⚛
⚠
⚡
⚫
⚬
⛄
⛏
⛔
⛺
⛽
✂
✅
✉
✊
✌
✍
✏
✑
✒
✓
✔
✕
✗
✘
✝
✞
✦
✧
✨
✩
✪
✫
✬
✮
✯
✰
✱
✶
✷
✹
❀
❁
❄
❌
❍
❏
❐
❑
❒
❖
❗
❘
❝
❤
❥
❮
❯
❶
❷
❸
❹
❺
❻
❼
❽
❾
➊
➋
➌
➔
➚
➜
➝
➞
➠
➡
➢
➣
➤
➥
➧
➨
➪
➳
➵
➺
⟨
⟩
⟶
⟹
⟿
⠀
⤢
⧸
⨪
⩽
⩾
⫹
⫺
⬅
⬆
⬇
⭐
ⲁ
ⲃ
ⲏ
ⲓ
ⲕ
ⲛ
ⲣ
ⲧ
ⲫ
ⲱ
ⴰ
ⴱ
ⴳ
ⴷ
ⴼ
ⴽ
ⵇ
ⵉ
ⵍ
ⵎ
ⵏ
ⵓ
ⵔ
ⵕ
ⵖ
ⵙ
ⵜ
ⵟ
⸱
⽇
、
。
々
〈
〉
《
》
「
」
『
』
【
】
〒
〔
〕
〜
〰
あ
い
う
ぇ
え
お
か
き
く
け
こ
さ
し
す
せ
そ
た
ち
っ
つ
て
と
な
に
ぬ
ね
の
は
ひ
ふ
へ
ほ
ま
み
む
め
も
ゃ
や
ゅ
ゆ
ょ
よ
ら
り
る
れ
ろ
わ
ゑ
を
ん
ァ
ア
ィ
イ
ウ
ェ
エ
ォ
オ
カ
キ
ク
ケ
コ
サ
シ
ス
セ
ソ
タ
チ
ッ
ツ
テ
ト
ナ
ニ
ヌ
ネ
ノ
ハ
ヒ
フ
ヘ
ホ
マ
ミ
ム
メ
モ
ャ
ヤ
ュ
ユ
ョ
ヨ
ラ
リ
ル
レ
ロ
ワ
ン
ヵ
ヶ
・
ー
ヽ
㄀
ㄱ
ㄴ
ㄹ
ㅂ
ㅅ
ㅋ
ㅎ
ㅏ
ㅡ
ㅤ
㊍
㎡
㐀
㗂
㜀
㞗
䌧
䤀
一
丁
七
万
三
上
下
不
与
世
丘
业
东
丝
両
严
丨
个
中
丶
丸
丹
为
主
丼
乃
久
么
义
之
乏
乐
乗
九
也
书
乱
乾
亀
亂
了
争
事
二
于
云
五
井
亘
亚
亜
亞
亡
交
亥
产
亩
京
亭
亮
亳
人
什
仁
仂
今
介
仏
仔
他
付
仙
代
令
以
仪
们
仮
件
任
份
伀
企
伊
伎
会
伝
伟
传
伦
伯
伴
伽
佈
位
低
佐
体
何
余
佛
作
你
佬
佳
使
侍
供
侯
便
係
俊
俐
保
俠
信
修
俳
倉
個
倍
候
倡
倫
倭
倾
偃
假
偏
做
停
健
偶
傅
傘
備
傣
储
傲
傳
像
僕
儀
儒
優
元
兄
兆
先
光
克
児
兒
兔
党
入
內
全
八
公
六
兰
共
关
兴
兵
具
冀
内
円
再
写
冚
军
农
冠
冨
冫
冬
冰
冷
准
凉
凛
凯
凱
出
刀
分
切
列
刘
则
创
初
判
利
别
刮
到
制
券
刺
則
前
剣
割
劇
劉
力
功
加
动
努
勇
勉
動
務
勧
勲
匂
包
匈
化
北
匪
匹
区
医
匿
十
千
升
半
卍
华
协
卐
卓
单
南
単
博
卢
卫
卯
印
历
厕
厚
原
厩
去
县
参
又
及
友
双
发
叔
取
口
古
句
召
可
台
史
右
叶
号
司
吃
合
吉
同
名
后
向
吗
君
吨
吳
吴
吹
呂
告
员
周
呪
味
呼
命
和
咲
咸
品
哈
响
哎
哥
哪
哭
哲
唐
唱
商
問
啟
善
喜
單
喰
嘉
噌
器
噸
嚴
囍
四
回
因
团
団
园
围
固
国
图
圆
國
圏
園
圓
圖
團
土
圧
在
地
圳
场
址
坏
坐
块
坝
坡
坪
垂
型
垣
城
埔
埠
執
基
堂
堅
堕
堤
報
場
塊
塔
塚
增
墟
墨
墳
壁
壊
壞
壤
士
壮
声
壱
壽
変
夏
夕
外
多
夜
夢
大
天
太
夫
央
头
夷
夸
奈
套
奠
奥
奧
女
奴
奶
好
如
妇
妖
妮
妹
妻
姉
始
姓
姚
姫
姬
威
娘
娛
娯
婆
婚
婦
嬴
子
孔
字
存
孙
孝
孟
季
孤
学
孩
孫
學
宁
宅
宇
守
安
宋
完
宏
宗
官
宙
定
宜
宝
実
客
室
宫
宮
害
家
宾
富
寒
寛
寝
寧
寫
寶
寺
寿
封
将
將
尊
尋
對
小
少
尔
尙
尩
就
尻
尾
局
屁
屄
居
屈
屋
屌
展
属
層
屮
山
屲
岁
岐
岛
岡
岩
岭
岱
岳
岸
峪
峰
島
崎
崔
崖
崩
崽
嶋
嶽
川
州
工
左
巧
巨
巫
差
巳
巴
巻
币
市
布
帆
师
希
帕
帝
带
師
帶
常
帽
幌
幕
幣
干
平
年
并
幸
幹
幻
幽
幾
广
広
庆
序
店
府
度
座
庫
庭
康
廉
廖
廣
廳
延
廷
建
开
弁
式
弓
弘
弟
张
弥
張
強
弾
彌
彎
归
当
形
彦
彩
彰
影
役
彼
征
待
律
後
徐
徒
従
得
御
復
微
徳
德
徽
心
必
忌
忍
志
忠
快
怕
思
怡
性
怪
怯
恋
恩
恵
悟
悦
悬
情
惠
惧
惨
想
愀
愉
意
愚
愛
感
慈
態
慕
慢
慧
慶
憲
懸
懼
戀
戈
戊
戌
戎
成
我
戒
战
戦
戯
戰
戴
戸
房
所
手
扑
扬
扭
扯
扶
承
技
把
抑
投
抖
抗
折
抜
报
抹
抽
担
拉
拏
拓
招
拳
挀
持
指
振
捕
损
掃
授
掛
接
控
推
提
揚
搀
摂
摩
摺
撃
撈
撚
播
撮
撲
擂
擎
擬
攀
攝
支
改
攻
放
政
故
效
敏
教
散
敦
整
敵
文
斉
斋
斎
斐
斗
料
斜
斤
斬
断
斯
新
方
於
施
旁
旋
旌
族
旗
日
旦
旧
时
旻
昂
昌
明
易
星
映
春
昭
是
昼
時
晃
晉
晗
普
景
晴
晶
智
暁
暈
暗
暦
暹
曆
曜
曲
更
曾
最
會
月
有
服
朔
朗
望
朝
期
木
未
末
本
札
术
朱
朴
朽
杉
李
村
杘
杜
杞
束
条
来
杭
東
松
板
极
构
林
枚
果
枝
枢
枣
枯
枸
柏
柒
柔
柚
柱
柳
柴
栀
栄
标
树
栓
栗
校
株
根
格
栽
桂
桃
框
案
桐
桑
桜
档
桥
梁
梅
梢
梨
械
棋
棒
森
椀
椎
椒
椰
椿
楊
楓
業
楮
極
楼
楽
榉
榮
構
様
槟
槻
樂
樓
標
権
横
樹
橋
機
橫
檚
櫃
櫸
櫻
欅
權
次
欣
欲
歌
歐
止
正
武
歩
歲
死
殊
殤
段
殷
殺
殻
母
毒
比
毗
毛
毫
氀
氏
民
气
気
氟
氣
水
永
汇
汉
汝
江
汪
汶
決
汽
沈
沖
沙
沛
沪
河
沸
治
況
泉
法
波
泰
洀
洁
洋
洗
洞
津
洪
洲
活
派
流
浄
浜
浦
浩
浪
浮
海
消
涙
润
液
涼
深
淵
渀
清
渡
温
港
游
湖
湘
湯
湾
湿
満
源
準
溝
滑
滨
滩
滬
滿
漀
漢
漫
漿
潍
潘
潟
澄
激
濃
濤
瀀
瀬
灣
火
灯
灵
災
灾
炉
炎
炮
炸
点
為
烈
烏
烟
热
無
焦
然
焼
煌
煎
照
煩
煬
煮
熊
熙
熱
熾
燃
燈
燒
燕
爀
爆
爐
爭
爰
爱
父
爽
爾
牆
片
版
牌
牛
牡
物
特
犬
犭
状
狄
狖
狗
狛
狩
独
狮
狸
狼
猀
猛
猜
猫
猴
猿
獄
獅
獢
獣
玄
率
玉
王
玛
玮
玲
珀
珍
珠
珤
班
現
琀
球
理
琉
琛
琴
瑞
瑟
瑠
瑪
璧
瓜
瓶
甀
甄
生
産
用
甫
田
由
甲
申
电
町
画
界
畑
留
畠
略
番
異
畳
疾
病
症
痛
痞
痧
痴
瘀
発
發
白
百
的
皆
皇
皮
皿
盆
益
監
盧
目
直
相
省
眉
看
県
真
眠
眼
着
睇
督
瞳
矢
知
短
石
矿
码
砂
研
破
硝
硬
碧
碼
碾
磁
磅
磨
礀
示
礼
社
祉
祖
祝
神
祥
票
祸
祿
禁
禅
福
禧
禪
禮
秀
私
秋
科
秒
秦
称
移
稀
程
種
稲
稼
穂
穆
積
穎
空
穿
突
窟
窮
窰
立
站
竜
章
端
競
竹
竺
笋
笑
笙
第
等
筒
策
筧
筷
简
箏
算
箭
箱
箴
箸
節
篇
築
篠
簧
籃
籠
米
类
粉
粤
粵
粽
精
糖
糞
糟
糯
糸
系
紀
紂
約
紅
紇
紋
納
紙
級
素
索
紫
細
紺
終
結
絡
絢
給
統
絲
絵
經
継
続
綱
綾
緋
緑
編
練
縄
縛
縣
縮
總
繁
織
繼
纏
纖
红
纤
约
级
纽
线
绍
经
结
给
统
继
缩
缺
网
罗
羅
美
群
義
羯
羽
翁
翊
習
翔
翠
翡
翻
老
者
耆
耳
联
聖
聞
聡
聯
聶
職
肉
肖
肝
肠
股
肥
育
背
胡
胶
能
脚
脫
脱
脳
脸
脾
腊
腐
腰
腸
腹
腿
膠
臘
自
至
臺
興
舊
舍
舞
航
般
船
艦
良
色
艸
艺
艾
节
芋
芙
芝
芥
花
芳
芷
芸
苏
苔
若
苦
英
苺
茂
范
茨
茶
茸
茹
草
荒
荘
药
荷
莉
莊
莫
莲
莹
莽
菇
菊
菖
菜
華
萌
萠
营
萩
落
葉
葛
董
葬
葵
蒂
蒙
蒲
蓄
蓉
蓮
蔘
蔡
蔦
蔵
蕊
蕭
薄
薇
薔
薩
薪
藍
藝
藤
藥
蘇
蘋
蘑
蘭
虎
虏
虚
號
虫
虬
虹
蚁
蛇
蛋
蛛
蜀
蜂
蜍
蜗
蜘
蝦
蝶
螭
螺
蟹
蟾
血
行
衍
術
街
衛
衣
表
衫
袍
被
裁
装
裏
裕
補
裝
製
西
要
覇
見
親
観
觀
观
视
角
解
言
計
訊
記
訝
許
訳
詞
試
詩
話
誌
誕
語
誠
說
説
読
誰
誼
調
談
論
諶
諸
諻
謎
謙
謝
譚
警
護
變
计
议
记
许
设
证
诊
词
诗
诚
话
语
请
谈
谊
谌
谜
谢
谭
谷
豆
豊
豌
象
豪
貓
貝
貞
財
貢
貨
貫
貴
資
賊
賓
賞
賢
賽
贛
贞
财
贵
赋
赛
赤
赫
走
起
超
越
足
跃
路
踊
身
車
軍
軟
転
軸
軽
輔
輝
輩
輪
轎
车
轻
辛
辜
農
边
辺
达
运
返
进
迦
追
逆
逐
途
通
速
造
連
進
遇
遊
運
過
道
達
遗
遥
適
遺
還
邊
邑
那
邦
邪
邮
邱
郁
郎
部
都
鄢
鄭
鄰
酉
配
酒
酢
酱
醫
里
重
野
量
金
釗
釜
針
鈥
鈴
鉄
鉢
銀
銅
銑
銘
鋒
錐
錬
鍋
鎌
鎖
鏟
鏡
鐘
鐵
鑑
鑫
针
钟
钱
钻
铃
铭
银
锥
镇
長
长
門
閆
開
間
関
閥
閩
閪
閻
闘
门
闫
间
阎
阜
阪
阮
防
阳
阴
阿
陀
际
陆
陈
限
陕
院
除
陳
陵
陸
陽
隆
隈
隊
隋
階
際
隠
隱
难
雄
雅
集
雞
雨
雪
雯
雲
零
雷
電
需
震
霊
霞
霧
露
霸
靈
青
靖
非
面
革
鞏
鞑
鞠
韓
韩
音
響
順
預
領
頭
頹
頼
顏
顔
類
顧
页
须
顾
预
颜
風
飛
食
飯
飽
飾
餃
養
餐
餘
館
饑
饥
饭
饺
饼
首
香
馬
駄
駕
駿
騋
騎
験
騨
驛
驢
马
驱
骨
體
高
髙
鬼
魂
魏
魔
魚
魯
鮮
鯉
鯤
鯨
鯱
鰻
鱷
鱼
鲛
鲤
鲲
鲶
鲽
鳄
鳗
鳥
鳩
鳳
鳴
鴉
鴿
鵬
鶯
鷄
鷹
鸟
鸡
鸽
鹏
鹵
鹹
鹿
麗
麵
麹
麺
麻
麼
黃
黄
黒
點
鼠
鼻
齐
齡
齿
龍
龔
龙
ꜜ
ꜣ
ꜥ
ꞌ
ꦗ
ꦮ
ꭰ
ꭲ
ꭳ
ꭶ
ꭸ
ꭹ
ꭿ
ꮀ
ꮃ
ꮄ
ꮅ
ꮉ
ꮎ
ꮒ
ꮕ
ꮙ
ꮜ
ꮝ
ꮞ
ꮟ
ꮤ
ꮦ
ꮧ
ꮳ
ꮷ
ꮻ
ꮼ
ꮿ
ﬀ
ﬁ
ﬂ
ﬃ
ﬄ
ﮐ
ﯽ
﴾
﴿
ﷺ
﷼
ﺍ
ﺐ
ﺑ
ﺒ
ﺔ
ﺗ
ﺢ
ﺣ
ﺭ
ﺮ
ﺳ
ﻊ
ﻟ
ﻠ
ﻤ
ﻭ
ﻲ
ﻴ
！
％
（
）
＊
＋
，
－
．
０
１
９
：
；
＝
＞
？
｀
ａ
ｂ
ｅ
ｇ
ｉ
ｋ
ｎ
ｏ
ｒ
ｓ
ｔ
ｕ
ｘ
ｚ
｜
～
･
ｮ
ｲ
ﾀ
ﾄ
ﾉ
ﾎ
ﾒ
ﾓ
ﾙ
ﾜ
ﾠ
￠
￢
￥
￮
𐀁
𐀄
𐀓
𐀖
𐀜
𐀞
𐀟
𐀣
𐀨
𐀩
𐀫
𐀯
𐁊
𐎠
𐎧
𐎰
𐎷
𐎹
𐎼
𐏁
𐤃
𐤇
𐤒
𐤓
𐤔
𐤕
𐩨
𐩪
𐩱
𐬀
𐬌
𐬚
𐬨
𐬭
𒀀
𒂆
𒂍
𒂵
𒄑
𒆪
𒈦
𒈩
𒉈
𒊏
𒊹
𒋾
𓇳
𓈖
𝑀
𝑁
𝑇
𝑋
𝑌
𝑔
𝑝
𝑞
𝑡
𝑦
𝛿
𝜇
𝟙
🅱
🅲
🅴
🅸
🆁
🆂
🆄
🆕
🇦
🇧
🇨
🇬
🇭
🇮
🇳
🇴
🇸
🇹
🇺
🌀
🌆
🌈
🌊
🌍
🌎
🌞
🌟
🌭
🌱
🌴
🌵
🌷
🌸
🌹
🌺
🌻
🍀
🍁
🍃
🍆
🍇
🍉
🍋
🍌
🍑
🍓
🍔
🍕
🍦
🍪
🍫
🍬
🍭
🍮
🍳
🍹
🍺
🍻
🍽
🎁
🎂
🎄
🎅
🎈
🎉
🎊
🎓
🎟
🎤
🎥
🎧
🎨
🎬
🎯
🎵
🎶
🏀
🏃
🏆
🏈
🏓
🏙
🏻
🏼
🏽
🏾
🏿
🐉
🐊
🐐
🐘
🐚
🐢
🐦
🐬
🐱
🐵
🐶
🐸
🐻
🐿
👀
👁
👄
👆
👇
👈
👉
👊
👌
👍
👎
👏
👑
👓
👗
👙
👣
👤
👥
👨
👩
👵
👶
👻
👽
👾
💃
💅
💆
💋
💌
💍
💎
💐
💓
💔
💕
💖
💗
💘
💙
💚
💛
💜
💞
💡
💥
💦
💨
💩
💪
💫
💬
💭
💯
💰
💸
💹
📊
📋
📍
📙
📚
📝
📞
📟
📩
📱
📲
📷
📸
📺
📽
🔊
🔍
🔎
🔒
🔞
🔥
🔧
🔴
🔵
🔸
🔼
🔽
🖕
🖳
🗡
🗯
😀
😁
😂
😃
😄
😇
😈
😉
😊
😋
😌
😍
😎
😑
😒
😘
😛
😜
😡
😢
😤
😥
😩
😫
😬
😭
😮
😱
😳
😴
😵
😸
😺
😻
🙀
🙁
🙂
🙃
🙅
🙈
🙊
🙋
🙌
🙏
🚀
🚑
🚗
🚧
🚨
🚩
🚫
🚭
🚯
🚱
🚳
🚴
🚷
🚸
🚹
🚺
🚻
🚼
🚾
🛍
🤒
🤔
🤗
🤤
🤷
🥃
🥈
🥉
🦁
🦋
🧡
𡳞
𨳒
𨶙
##o
##i
##s
##e
##®
##c
##2
##3
##0
##r
##t
##h
##y
##4
##m
##g
##z
##u
##n
##w
##d
##a
##k
##6
##9
##1
##b
##l
##5
##8
##p
##f
##ﬁ
##7
##v
##ニ
##ッ
##ク
##ア
##ト
##ヘ
##ン
##チ
##ャ
##ー
##ᅡ
##ᆷ
##ᄉ
##ᅥ
##ᆼ
##ɪ
##ᵻ
##ː
##°
##x
##ˈ
##ɦ
##ɔ
##q
##ʊ
##ʒ
##ʼ
##ο
##ν
##τ
##ι
##α
##κ
##η
##ɑ
##ə
##−
##ε
##υ
##ρ
##™
##λ
##π
##σ
##ς
##ɣ
##ɾ
##j
##у
##н
##т
##ы
##æ
##ʃ
##ա
##ր
##ի
##մ
##ı
##л
##а
##д
##е
##р
##■
##ŋ
##↔
##º
##©
##ل
##ق
##ر
##ش
##ي
##½
##´
##¤
##ᅦ
##ᄅ
##ᅵ
##ᆨ
##ᄋ
##ک
##ھ
##ا
##ی
##ˌ
##🐊
##ɛ
##♪
##→
##θ
##ロ
##±
##テ
##ス
##с
##х
##ʌ
##ו
##ל
##ק
##י
##ן
##ث
##ب
##μ
##℃
##п
##γ
##˚
##⁻
##€
##ʲ
##レ
##の
##タ
##メ
##¬
##●
##و
##ة
##र
##ी
##क
##ष
##ा
##ج
##ɒ
##ɲ
##𐎰
##𐎼
##ʻ
##ɡ
##ɨ
##√
##خ
##ص
##ม
##ล
##м
##¹
##ב
##ר
##ת
##ɚ
##χ
##ن
##▲
##×
##イ
##カ
##ح
##ى
##♯
##േ
##ാ
##ന
##ീ
##د
##س
##ɐ
##キ
##フ
##ル
##ے
##🐸
##☕
##ᅯ
##ᆫ
##ᄈ
##ᅮ
##ᆯ
##о
##и
##ѣ
##ъ
##к
##マ
##ュ
##ケ
##と
##ˤ
##¢
##ᅩ
##ᄍ
##ð
##צ
##פ
##ה
##⋅
##δ
##📩
##ח
##ש
##ᄂ
##ᄌ
##ʁ
##া
##ক
##দ
##স
##ь
##ह
##य
##त
##в
##ㅅ
##♡
##❏
##ع
##ه
##г
##ˑ
##ʳ
##ɜ
##ʔ
##♠
##℉
##ﬂ
##ラ
##コ
##リ
##シ
##モ
##इ
##ट
##б
##˜
##⁰
##ホ
##ミ
##さ
##ম
##ৰ
##ß
##ゃ
##ふ
##²
##▼
##⁺
##უ
##რ
##ი
##✓
##¨
##β
##ょ
##う
##は
##⁄
##ร
##ะ
##ห
##า
##ก
##ษ
##ต
##ย
##ไ
##ท
##φ
##³
##þ
##ん
##し
##ゅ
##ד
##ך
##ʷ
##ᄐ
##ˆ
##ꜣ
##श
##म
##ł
##م
##ك
##ف
##♭
##נ
##ت
##थ
##ि
##ɫ
##व
##न
##ω
##ᄑ
##ᅳ
##ण
##ᄃ
##ᅢ
##ч
##ड
##प
##て
##ⵓ
##ⴱ
##ⴽ
##ⴰ
##ⵍ
##ɕ
##ʰ
##ե
##յ
##ո
##ն
##դ
##す
##る
##ξ
##ᄒ
##ᆸ
##ʎ
##ԁ
##ღ
##ʑ
##œ
##з
##મ
##લ
##𐤃
##𐤔
##𐤕
##⎜
##∇
##ʝ
##ɖ
##ರ
##ೕ
##ಷ
##ಠ
##ಾ
##റ
##ണ
##ക
##ള
##ം
##چ
##ර
##ා
##ס
##ض
##¦
##і
##ট
##ে
##ড
##ি
##য
##ʹ
##ே
##ா
##ட
##ி
##ж
##₃
##ो
##я
##ォ
##ø
##○
##ヤ
##ヒ
##ע
##מ
##א
##ɵ
##⅜
##😭
##ᄆ
##ħ
##☄
##ल
##ग
##│
##◊
##れ
##£
##ய
##ு
##ஷ
##¯
##ѕ
##জ
##খ
##ৱ
##ﬀ
##ด
##द
##🙂
##ɝ
##た
##µ
##ధ
##య
##∘
##ʉ
##ᵿ
##ʿ
##な
##か
##セ
##ハ
##হ
##ন
##ब
##≤
##ʏ
##℠
##स
##ɹ
##հ
##ᅪ
##₂
##ᅧ
##ᄇ
##¼
##ɠ
##ꮟ
##ꮙ
##ꮿ
##ろ
##ᅴ
##よ
##っ
##ख
##ɳ
##ـ
##へ
##く
##ヵ
##↓
##ध
##ґ
##ウ
##★
##♥
##˙
##⇓
##♮
##ᵊ
##గ
##ద
##ވ
##ހ
##ц
##ڑ
##░
##▀
##ᄀ
##♦
##ィ
##ง
##อ
##あ
##⇑
##✨
##ೂ
##ನ
##ם
##ナ
##い
##ま
##ɬ
##տ
##շ
##ム
##ט
##み
##ᅬ
##☝
##👉
##👇
##👾
##ワ
##ﬃ
##ネ
##ꮝ
##ꭶ
##ʺ
##ط
##ሰ
##ጥ
##ⵕ
##ⵟ
##つ
##÷
##¾
##⁵
##ᄎ
##ℓ
##☾
##ψ
##વ
##િ
##ત
##ા
##∀
##๑
##غ
##ᵗ
##⅞
##ˀ
##¥
##น
##แ
##め
##エ
##ェ
##ソ
##ᅭ
##❗
##𐀞
##𐀫
##ज
##∈
##ℚ
##ョ
##₁
##ף
##🏼
##り
##わ
##ш
##に
##ち
##उ
##˨
##☼
##ढ
##བ
##љ
##▬
##✪
##₅
##ድ
##ረ
##ግ
##👍
##💃
##ј
##⅛
##ʾ
##ァ
##⇔
##छ
##ʋ
##ג
##₆
##த
##ன
##≅
##♫
##ਲ
##ਾ
##￠
##ツ
##ɿ
##ɥ
##ʂ
##ײ
##ʕ
##˝
##◦
##ર
##ી
##ည
##က
##လ
##ာ
##˧
##˩
##こ
##∏
##ϕ
##⁶
##₈
##ര
##ശ
##ζ
##ֆ
##অ
##ျ
##ပ
##ء
##ﻴ
##ﮐ
##ﺮ
##ﺗ
##☀
##भ
##∆
##オ
##ལ
##đ
##ว
##ʈ
##เ
##ℝ
##શ
##ક
##⇌
##ɟ
##ர
##💓
##🙀
##ம
##ப
##ல
##க
##ள
##𐀖
##𐀜
##ɽ
##প
##ল
##お
##ら
##ฮ
##ซ
##ˇ
##𐀯
##𐀩
##𐀄
##𐤓
##ہ
##ذ
##ˠ
##¸
##⁹
##ױ
##כ
##❀
##∞
##ز
##ባ
##ይ
##ை
##ɘ
##ધ
##ય
##サ
##မ
##န
##け
##⅔
##█
##▄
##ெ
##ね
##✒
##ז
##ও
##😡
##ⲛ
##ⲧ
##ⲱ
##ⲓ
##կ
##լ
##գ
##ส
##⊥
##ʱ
##そ
##∂
##ა
##ქ
##თ
##ვ
##ე
##ლ
##ო
##ª
##🚀
##ठ
##ፐ
##ብ
##ሊ
##ክ
##═
##╦
##╗
##╔
##ბ
##ს
##ʤ
##∼
##ಡ
##∗
##ས
##➤
##ᅲ
##ぇ
##ɯ
##☺
##😂
##ᄁ
##☆
##ŧ
##ታ
##ង
##គ
##រ
##₄
##∙
##も
##き
##🍪
##🍮
##🍫
##🍬
##🍭
##ป
##₵
##ひ
##≈
##ষ
##র
##ම
##ක
##ත
##ꜜ
##🙈
##پ
##ڈ
##ந
##ಂ
##ಗ
##ಳ
##ು
##ᄏ
##ञ
##च
##ำ
##ۥ
##↑
##ः
##ල
##ෙ
##گ
##వ
##త
##ᆹ
##ʀ
##⃝
##ช
##ほ
##ᬮ
##ศ
##⃣
##ｏ
##ｒ
##ｕ
##ｔ
##𐩨
##𐩱
##യ
##ौ
##ী
##ు
##శ
##ವ
##ತ
##ค
##ץ
##∋
##℧
##ſ
##ӕ
##ደ
##ት
##ᆺ
##せ
##ф
##🔥
##ષ
##ઠ
##ስ
##ђ
##⁴
##🇦
##─
##є
##ƒ
##ɴ
##ழ
##˘
##ຈ
##ˉ
##అ
##న
##ற
##ნ
##ტ
##โ
##พ
##ธ
##⋯
##𒂆
##𒈦
##🌻
##ძ
##କ
##ଷ
##😍
##►
##え
##ᅣ
##ᴇ
##ई
##🔴
##🔵
##🏈
##⁸
##ჭ
##ና
##𝑇
##❤
##₀
##ﬄ
##ノ
##ܘ
##ܢ
##ܓ
##ܠ
##ܝ
##ꮒ
##ᏼ
##ꮻ
##ю
##ស
##ន
##វ
##ជ
##ា
##ល
##ធ
##ម
##ᅨ
##ꮎ
##ꭲ
##ᏹ
##บ
##จ
##⊆
##फ
##ச
##క
##ష
##▒
##←
##ٹ
##ヨ
##њ
##ณ
##ԍ
##⛔
##ꮳ
##ⁱ
##ॉ
##வ
##ʇ
##ﾀ
##ﾙ
##ȝ
##ြ
##း
##щ
##જ
##⁷
##ฐ
##ゆ
##や
##መ
##ራ
##ব
##ծ
##ւ
##ք
##ᓄ
##ᙳ
##ᐊ
##ᖅ
##ો
##ન
##▪
##₫
##ᖃ
##ᓗ
##ᐃ
##ᑦ
##๒
##📱
##ꮼ
##ꭿ
##ꮧ
##ǁ
##🇸
##ঠ
##🍋
##🍓
##🍉
##💦
##ധ
##ถ
##☎
##ග
##🤗
##⎞
##⎟
##⎝
##⎠
##ত
##ˊ
##ማ
##🍳
##ା
##ମ
##ର
##ን
##ዳ
##ধ
##қ
##ﻤ
##ﺳ
##ി
##മ
##ഥ
##⊇
##ս
##և
##ข
##ᄊ
##を
##ܐ
##🇳
##ڬ
##ਵ
##ਨ
##˛
##င
##െ
##ച
##∠
##➨
##🏾
##හ
##න
##ව
##आ
##ꮄ
##ꮜ
##ꮕ
##✫
##✩
##☮
##☪
##⅓
##ត
##ព
##ទ
##ਿ
##ಶ
##👣
##⚖
##ᓇ
##ᑕ
##ਅ
##⇒
##⊝
##ฟ
##ϝ
##♛
##ນ
##ກ
##າ
##ທ
##╩
##╝
##╚
##ਥ
##დ
##ట
##ᇾ
##ᇻ
##ቕ
##ፋ
##⋁
##⋀
##ప
##শ
##থ
##😒
##₇
##⑆
##ឃ
##💆
##🏿
##🏻
##👌
##𝑋
##ܕ
##მ
##⛏
##🍑
##ਰ
##ਸ
##💰
##🇧
##￢
##ﾓ
##∩
##ぬ
##👎
##🐬
##🌊
##✍
##🍕
##ហ
##អ
##ក
##ല
##ⁿ
##₴
##⊖
##😩
##😘
##ǝ
##ۇ
##℥
##ᵒ
##🎨
##▾
##ظ
##ጀ
##💜
##≡
##យ
##េ
##❷
##ោ
##ⵇ
##🦁
##አ
##ው
##ᆻ
##ହ
##ସ
##ɭ
##ɓ
##ⲁ
##ⲣ
##ഷ
##ﺑ
##ﻲ
##🆄
##🅱
##🆂
##🅲
##🆁
##🅸
##🅴
##∝
##🏽
##ር
##ኛ
##э
##👻
##🇭
##🇹
##ꮃ
##ꮀ
##ꮉ
##₮
##ㅋ
##🐐
##პ
##⛺
##ﺭ
##🎥
##🏃
##💙
##😮
##😤
##ಯ
##ⴷ
##ⵔ
##ܪ
##ܡ
##ዮ
##ጵ
##ያ
##ங
##↨
##∟
##ᅱ
##▸
##ں
##✮
##ﺍ
##ﻟ
##ﺣ
##ﺔ
##ኢ
##ց
##խ
##ލ
##ਤ
##ˢ
##ᵉ
##⚡
##☉
##ඹ
##ැ
##💋
##ਯ
##ੀ
##▓
##ү
##ө
##ձ
##≥
##👄
##💎
##ల
##ਖ
##む
##ｅ
##ｎ
##ａ
##ｉ
##ｓ
##ਡ
##ང
##∕
##🥉
##ਕ
##ꭸ
##ћ
##ூ
##⭐
##✔
##ස
##ය
##ಕ
##በ
##ە
##ڵ
##અ
##େ
##ତ
##ਮ
##♃
##␤
##ղ
##ጋ
##ሲ
##∪
##ළ
##💕
##😈
##😬
##🙅
##ռ
##🎤
##ᏸ
##ꮅ
##☻
##ꭹ
##∫
##⊕
##ێ
##˥
##ಮ
##ಥ
##ㅏ
##ㄴ
##ㄱ
##ㅡ
##ㄹ
##ⵎ
##ⵖ
##ⵉ
##அ
##🌸
##ﾜ
##ｲ
##ﾄ
##𐀨
##ண
##♟
##വ
##ത
##ᆾ
##ⵙ
##ɤ
##♣
##ﻠ
##ﺒ
##ﺢ
##ᕐ
##ᑐ
##ᒥ
##ᖕ
##ᒪ
##ᒃ
##ɧ
##♂
##👀
##∨
##⎯
##📸
##𝑝
##𝑞
##థ
##ɻ
##🌀
##ௗ
##మ
##🇺
##𐬭
##𐬚
##𐬌
##𐬨
##ሃ
##է
##ժ
##ប
##❻
##❹
##❼
##❽
##❾
##❸
##ɩ
##घ
##ਧ
##ᗺ
##ᗷ
##ᗅ
##ᇀ
##△
##💅
##ⵏ
##ⴼ
##ഠ
##ሞ
##ዊ
##⫺
##ƃ
##ප
##ϑ
##ә
##ڼ
##ෂ
##˦
##≦
##ˣ
##😁
##𒋾
##𒀀
##𒂍
##𒊹
##𒊏
##⅝
##ܬ
##ⲃ
##◗
##🐘
##😱
##🎓
##ユ
##ಧ
##ለ
##ዎ
##ヌ
##╣
##║
##ӏ
##ፍ
##ሉ
##😃
##😄
##😀
##😻
##😸
##😺
##👑
##👗
##💛
##💚
##💗
##💖
##💞
##💘
##💌
##💍
##👤
##👥
##💬
##💭
##ሬ
##◄
##👈
##♀
##അ
##ಅ
##ⲫ
##ผ
##ℵ
##𐁊
##ਠ
##ጅ
##ዝ
##ች
##╠
##እ
##ዛ
##⎛
##ⴳ
##ং
##ङ
##◆
##ኣ
##😢
##𒉈
##𒂵
##𒈩
##😎
##🍺
##🍻
##ဋ
##ေ
##０
##９
##😊
##∧
##╥
##ಸ
##ಪ
##঵
##ሻ
##✏
##ㅤ
##ই
##ზ
##ዴ
##ላ
##ᆶ
##◙
##↕
##੝
##👽
##ට
##ۆ
##ʜ
##ژ
##ϩ
##ⲏ
##ใ
##উ
##ভ
##ƹ
##ԩ
##ៈ
##΄
##ડ
##ଟ
##થ
##ｘ
##❖
##ዋ
##ɱ
##ҽ
##ƈ
##📞
##📟
##🎟
##ါ
##💥
##պ
##ꦮ
##ⵜ
##ˁ
##｜
##ག
##ꞌ
##ᵝ
##٥
##ဘ
##သ
##ې
##ర
##ఠ
##👊
##✊
##❁
##٠
##ᆩ
##🚴
##ც
##ხ
##👙
##ฝ
##✶
##𐏁
##𐎹
##𐎠
##ရ
##တ
th
##er
the
##in
##on
##es
##at
##or
##en
##an
##ou
an
##al
##ed
##ar
in
of
##it
##ing
to
##ic
and
##re
##st
##ion
##om
is
##le
##is
##as
##ent
##il
##el
##ct
##et
you
##ro
for
##th
##ol
on
st
##ur
re
##ow
##am
##id
or
##ve
##ch
wh
##ly
be
##ay
##ig
##ation
##ce
##ut
##ot
##se
##ver
it
as
are
##ir
##im
##ith
##od
al
##ul
##ad
that
con
##ge
pro
with
ch
##um
##est
de
fr
##ess
##ers
com
##oun
##us
your
se
can
##ate
##ain
##em
##ter
##ab
##ill
ex
##if
##igh
##ist
at
sh
##ak
ne
##op
by
su
from
##os
##ac
##oc
##ies
##ment
ha
##ost
he
##ere
un
##pe
pr
##and
##ant
us
tr
##un
##all
##ity
##art
this
en
##ive
##iv
##ore
##age
##pp
le
##act
##ast
pl
##ine
##ort
not
we
##ell
##ld
##ect
##ap
##ome
##00
##ally
##ight
ab
have
##ood
##qu
was
do
##ip
##ure
##our
##ag
##ud
##ther
##ib
wor
##ard
ad
##mp
##ich
##end
if
me
##ated
cl
per
##ust
comp
##ary
ac
##ount
##ia
##ial
ar
##out
will
##ound
all
##per
##ans
inc
##ice
##ear
cont
##one
##ame
one
bl
sy
sp
##iz
##ition
##ide
##ber
##ach
dis
##gh
am
which
##oo
but
car
##ical
gr
##ong
##so
has
##ie
res
##orm
##der
##ake
##fer
more
##ase
man
dr
##ough
##ack
fl
##og
##ction
when
may
also
20
##ff
int
how
##au
##ind
##ous
year
##av
##ance
up
tim
##du
##ater
##ould
fe
##able
most
##ue
br
so
col
##ass
they
ph
##ree
##ick
other
##ens
##ail
##ire
##pt
##ates
##ath
##ke
li
te
inf
##ile
##ish
ser
##own
there
##ace
comm
app
out
about
part
##ence
19
##ks
pre
sc
ty
co
new
##ult
than
pe
##erm
mo
kn
tw
time
some
bo
cr
qu
##ions
acc
day
used
##ite
use
##ord
##les
##ause
fir
spe
num
ind
form
##ents
201
##ub
##ax
mar
##ep
rep
##ose
##we
med
##lud
##ely
str
over
its
##ign
##ations
##reat
rec
count
bet
any
##gr
##vel
first
##ook
includ
cal
their
sal
get
##ang
what
high
##ry
def
##amp
##eth
go
off
##te
no
af
who
gen
bec
act
inter
two
mon
##are
##ors
##ian
##ory
dif
##aw
loc
di
##int
call
into
##ond
##oll
##lect
##row
imp
##verage
add
need
cost
ca
produ
##ular
dep
ag
##cess
##ild
min
ear
number
ro
##ings
water
name
##ph
ev
##ons
##lo
peop
##ert
##orn
people
jo
10
##uc
these
sm
average
like
##lic
blood
##ade
many
hel
only
##ual
after
##urn
##anc
ass
##ually
serv
cons
bas
des
differ
##stem
work
his
exp
##ween
long
##ific
between
cell
##ery
##ric
state
spec
thr
##ody
##enc
system
my
##its
##ange
##iver
reg
##ft
##ffect
such
trans
##ited
sec
years
##ower
##ys
par
po
##iss
##ied
##eral
##ten
##eric
##ix
under
##ock
ins
prov
##ium
sur
sub
heal
rel
##ating
common
##land
body
pres
see
##ays
##ec
make
through
##old
##ments
called
mus
bel
##ug
help
##ink
pers
rem
cent
char
inst
should
just
typ
##uring
then
##tom
caus
lar
sk
##ress
defin
fun
been
food
hour
tax
ever
##wn
our
bre
pop
americ
air
her
health
test
##olog
each
bu
##als
them
##ows
requ
states
##cc
does
##ts
term
val
ap
##cr
##ible
##ious
found
##atur
county
mean
pain
ve
##fore
##bs
##ature
000
tem
sim
200
##gan
sch
var
##ins
##oss
eng
##ene
ke
world
##ational
##io
##ject
month
##ather
##ily
red
where
##ne
18
person
mu
cur
pay
##inal
sa
lo
symp
##ty
dec
known
inform
different
well
det
##erg
type
dist
mil
##ton
supp
##ities
stud
##ices
##ient
because
att
symptom
city
nor
##ict
foll
find
set
##ms
inv
during
home
id
would
##ise
##ra
ret
best
back
war
were
take
right
list
pol
##ble
##ting
av
##ru
examp
information
treat
occ
##iew
##ative
12
##ank
start
##ics
##lish
gu
while
##ility
process
im
much
sl
level
area
usually
emp
every
met
before
##ode
down
sign
mem
##ize
very
##rit
united
##ines
lif
##rol
end
elect
effect
op
pat
##ams
##ss
est
15
cause
##oup
##ful
often
cre
same
made
##up
##outh
##ull
##ants
##aking
##ale
##ution
##tle
##ool
symptoms
care
wee
follow
small
##cent
##ron
##akes
##ern
##ains
em
child
dise
el
way
##ases
ext
##any
both
main
days
sol
##day
hy
good
fam
temper
##ulation
##cle
cond
##ork
dire
don
three
##ri
##ning
definition
old
##ider
##ically
fil
##ced
progr
##ages
cor
she
ob
using
sw
##ved
##ever
##ye
had
know
play
bus
##els
##acter
##co
##air
##ories
free
##rop
som
ref
##velop
mod
##ness
organ
here
own
fact
around
##ds
cour
stand
even
want
##xt
gre
ma
pur
vis
include
develop
leg
depend
heart
##iness
grow
amount
wind
plan
must
example
comple
##gest
top
condition
cle
import
hours
equ
curr
##iet
##cept
contr
medic
law
look
##ash
##ized
gl
american
less
hum
occur
##ces
however
age
low
cells
##ove
##ency
cert
result
##ral
##ides
now
##other
##ars
too
product
##tal
meaning
##ute
cap
fat
proper
sever
##ets
##na
##gen
place
dat
orig
account
life
##ident
incre
based
##ives
side
##ivers
types
intern
including
class
##eng
card
##ouse
last
30
##port
press
##ason
school
lit
##form
emplo
infect
##ving
##ior
##ital
##ether
##cul
##dr
pass
bene
##aph
exper
north
##sw
below
point
##way
rate
read
##ology
##iving
service
chec
second
##ven
skin
##ator
##ures
deg
disease
##iod
##elf
mark
color
group
located
##ted
##pect
100
open
##ves
company
ant
##ince
##ah
fo
period
price
##ren
direct
const
mill
##ues
##hip
##res
benef
bro
net
means
within
head
##ience
##cer
ed
##ward
great
art
norm
function
##ivid
resp
##he
##bers
causes
##ism
temperature
soc
##ergy
business
click
##line
ur
hist
hand
being
another
south
oil
##iel
important
##utes
##ids
answ
report
fin
##ury
four
run
pub
percent
control
##uct
##vent
##ones
light
prote
check
ele
25
gener
lim
ann
lead
##ists
sun
##pl
sug
sing
code
conn
squ
##br
prof
show
##ames
salary
current
proble
##ense
##cl
wom
pot
11
cred
##ier
##ina
record
##ark
weight
##ially
meas
total
16
consider
##atch
men
non
appro
##til
prot
energy
weather
lear
post
17
those
vir
medical
ent
bab
##ired
cy
following
es
##ional
##az
##ont
prim
data
calories
connect
##oci
##ane
##read
rest
vol
avail
eas
50
white
del
##ger
tech
rece
power
opt
sour
##aining
associ
##gs
##ified
##red
cook
keep
##ately
population
could
##gin
##ats
few
hot
size
since
design
14
full
family
order
program
gover
##led
##agn
##ym
maj
##ll
partic
##get
conf
real
ste
ll
bar
near
change
##ave
simp
available
refer
##ches
move
range
ge
syn
##bo
national
large
##gn
disc
let
without
govern
answer
##par
##amin
rad
phone
cover
ir
colle
step
again
major
accord
ox
minutes
##ner
har
qual
anim
phys
doct
general
##view
earth
##ross
##ased
specific
until
appe
lower
standard
lab
word
aut
##iety
foot
natur
port
poss
univers
credit
##enn
cust
pos
techn
english
commun
dev
chem
miles
oper
stat
house
contin
gas
##ee
##rees
##less
chr
fed
13
##ength
according
turn
west
land
protein
##imum
require
chang
pressure
stre
short
##omes
##osed
bir
##ipt
special
ner
support
insur
##oney
##etim
week
baby
##ney
##ental
adv
##erc
file
muscle
infl
descr
treatment
line
affect
##ump
though
bi
plant
ris
bank
black
drug
months
##tern
##ify
rele
pa
##icle
perform
born
comput
custom
##arch
##ield
applic
still
##por
hard
##yl
##alk
##atter
##etic
mic
che
##osis
foods
eg
sum
##action
addition
##ogr
view
spr
##man
center
several
vit
##ither
##ization
feet
far
##une
##iven
times
mid
services
president
ju
determ
##eter
##ision
##ients
##amm
offic
enter
meth
build
dig
##thing
##ctions
flu
comb
caused
lang
individ
big
value
due
return
phot
benefits
least
pregn
##ries
cop
40
insurance
activ
24
wr
expl
##ling
live
writ
##ule
fib
##uth
ang
##ination
##ox
##ways
public
hal
human
fre
##itis
income
normal
##duc
individual
children
##hy
learn
ep
certain
quest
history
sometim
##ability
imm
ple
langu
green
surf
put
job
199
mater
conver
##oid
##uck
effects
might
install
mot
above
##eds
select
once
either
office
sn
page
cancer
east
costs
university
cir
soft
##ounds
become
sometimes
origin
women
tiss
left
little
next
##con
##ots
local
##ived
##ik
doctor
largest
##mit
##ential
character
nut
popular
season
##let
park
natural
weeks
##que
##atic
educ
##omm
##uss
social
early
lat
##inc
mass
protect
government
think
ident
allow
federal
##ration
##tain
calcul
##iation
contain
brain
case
related
million
trad
material
##ancy
market
country
mult
##ley
provide
address
wash
##ended
##itive
bill
##ips
along
dem
mount
did
##ined
fall
saf
bacter
##ware
##mb
sure
single
##ograph
diet
##order
iss
##hn
square
windows
try
et
york
##ush
exc
higher
##iction
resear
levels
##atures
computer
research
money
struct
##aries
sit
##ilar
sugar
come
##uro
table
eat
pan
##ipp
employe
##son
given
tend
give
eye
win
secur
conditions
##itch
products
infection
base
town
##work
date
contact
repres
##ently
project
hair
subst
trav
##imate
micro
miss
beh
cut
##oose
access
dam
##ores
##ables
la
summ
chemical
interest
##thers
conc
##though
island
ver
21
similar
##ison
five
earn
experience
won
2015
hold
star
engine
repl
making
ide
oxy
method
##ister
feel
##ences
present
pract
always
mix
##ob
brow
dry
manage
##ething
##bon
adm
better
source
invol
court
##ote
burn
fac
half
##ape
today
##ida
arr
fast
##aves
calif
lay
profess
rock
purp
lic
surface
bal
typically
##ume
##50
offer
##ification
##urs
john
buy
generally
kind
bot
auth
although
acid
##ared
##ails
##thern
happ
possible
##ese
degree
property
##ann
series
language
contains
something
##ps
six
##wh
##ural
contract
##pec
##rodu
ill
heat
wall
say
online
max
mole
ps
abs
60
##ively
super
key
king
dog
##elling
search
##dom
considered
californ
doc
said
horm
risk
depending
loss
thir
required
problems
##ok
location
##ances
california
vide
##aper
##esh
00
parts
##roid
comes
vers
makes
begin
##ably
##ucle
degrees
things
tex
fish
sens
study
anal
break
having
security
##mber
provid
##me
##aces
##pper
music
##att
song
rout
tog
chick
##atory
##ember
measure
##po
later
ess
lot
##ends
plants
##ony
##ana
22
college
him
flow
scre
central
tit
past
whether
##ester
##amed
lik
indic
##aim
arm
why
gold
##stand
america
##ino
able
##lex
prevent
oxygen
germ
##ateg
employ
book
pack
500
##ada
clear
quick
hem
increase
##cles
describ
fem
flor
distance
birth
together
##ument
##ges
prob
hun
##ured
inj
##li
##dle
##xic
198
ul
##ington
liver
depart
particular
##osph
apply
##fact
purch
expect
unit
fire
##ille
dna
living
##ball
div
##ills
map
sle
difference
##ime
##uit
##ai
sales
includes
espec
changes
hol
cat
##yn
adult
especially
length
clean
##umb
away
occurs
##vir
members
cold
corn
approx
provides
box
##ief
invest
river
##ma
electr
##odes
suc
cann
recomm
sea
##ler
indust
##ract
create
game
airport
commonly
species
nucle
object
##erv
texas
others
works
surg
##oph
##fl
cup
sex
travel
education
##ems
##ici
vitamin
rich
lun
drink
ask
personal
words
sil
##aft
tissue
##ex
prom
terms
stop
manag
associated
night
development
appear
##hol
deb
death
against
opp
remove
##avor
bond
needs
complete
diff
##be
blue
position
apr
going
enough
uses
reach
##imately
quality
vari
jan
face
atom
##iption
##rib
review
actually
##oice
##ensive
visit
regular
takes
2010
euro
hyd
ther
##osp
pregnancy
author
areas
veh
##ret
##aken
ra
joint
##pr
management
##ama
aug
##acy
##ires
cases
2016
international
196
please
##ival
annual
simple
mal
##yst
dom
tur
remo
various
results
link
##phone
numbers
carbon
physical
course
kid
students
##eding
never
wa
admin
2014
film
frequ
really
represent
##und
##aste
##rogen
er
web
patients
##ville
fig
##ands
chicken
197
text
ter
23
problem
##icult
site
##ench
##omy
note
##ooks
##side
growth
polic
coun
claim
worth
cult
rat
alm
##ged
forms
field
je
milk
##ension
easy
video
whe
##sh
calc
mov
vac
youn
assist
share
##itution
tool
inside
florida
understand
grad
fri
separ
team
space
network
ly
##idge
gree
geor
whole
tv
##ask
bit
##aily
aust
tell
longer
respons
ce
likely
daily
third
##oy
manu
liqu
##ised
28
##ression
##ula
taking
##oses
inches
##ych
cit
multip
bacteria
##ission
vary
seat
financ
meat
##cular
##lor
community
##anch
variety
##val
##ieve
ground
consum
ey
##ck
##viron
##yle
basic
webs
etc
environ
salt
primary
##ention
##lished
room
dou
manufact
urine
##aut
brit
iron
tre
redu
mail
impro
choose
diagn
##gress
##ude
sleep
upd
approximately
##oma
application
washington
muscles
swe
hosp
done
europe
among
strong
ded
log
original
disorder
sent
device
##ored
sen
doesn
##lob
san
bow
cam
contrib
minimum
ht
##oes
##oor
legal
oh
##ilt
paid
produced
##ead
systems
drive
shows
2017
department
beach
##mon
clos
mel
fiber
90
grams
bone
april
shar
healthy
screen
econ
board
##yroid
names
##apy
store
26
working
camp
pet
##cohol
##over
80
chrom
produce
fill
news
charge
production
factors
block
gall
##rect
##ope
getting
love
afric
oct
hor
front
stock
someone
tradition
psych
civ
27
july
##ique
arter
highest
warm
##aff
##rict
looking
alcohol
canada
bad
cannot
##ef
speed
defined
##east
transfer
gar
##uary
priv
section
symb
almost
collect
##uel
##vious
receive
animals
electric
gir
across
tele
der
##sc
batter
##ters
lake
##edi
software
mouth
pie
question
force
nerve
##ender
bur
success
neg
ways
created
##use
##af
environment
2013
requirements
35
determine
damage
##ding
region
veget
labor
mess
##where
surgery
pu
##aced
middle
creat
##ained
mich
meet
website
structure
##iting
indian
official
symbol
march
party
##room
wood
##ring
teach
45
jack
##ement
32
breath
model
enc
mor
##ogn
helps
loan
noun
rates
##orts
sod
sav
reason
##omp
mexic
depends
cool
##ption
exerc
role
corpor
##ole
cast
##ellow
##by
autom
financial
rain
##lin
aud
event
##omet
virus
##ules
inh
##ties
soil
estab
capital
close
##top
##ronic
customer
january
august
##vers
##istics
aff
wid
sept
##ending
inflamm
##thes
sou
circ
##go
necess
##idence
walk
##otes
building
simply
stom
movement
maximum
named
##ulf
stay
estim
taken
wal
adj
tub
drop
##ysis
##abet
##hydr
replace
proced
cycle
##ius
records
lin
civil
sat
deep
##epend
teeth
prem
says
throughout
girl
written
training
ago
wide
exist
paper
administ
rib
70
mort
doll
brown
##uation
glass
##fort
road
kill
magn
outside
infections
eff
document
article
independ
lib
##astic
fur
cities
arch
additional
rights
medicine
##wards
equal
##ze
introdu
oce
fluid
stomach
31
spread
license
severe
dark
##ilities
##aster
pow
36
pen
##tr
fit
coll
##ruction
watch
animal
fresh
science
active
gland
prices
##usion
action
height
##iff
limit
serious
vehicle
programs
fee
needed
29
century
points
subject
vi
policy
mob
ii
##load
##iger
liquid
entire
internet
forec
tree
summer
guide
den
got
mach
##self
examples
tar
professional
displ
seen
tests
member
##otic
##arily
prop
taxes
##ta
diction
salaries
instead
mac
##wood
probably
antib
mag
##bur
injury
span
##ipe
##avy
upper
wed
june
compan
##aur
ital
print
austral
categ
##ued
thing
##itude
grand
countries
##20
sell
rang
difficult
##augh
cub
prescr
bul
employees
ten
allows
##den
jap
mg
##ming
deal
ble
km
refers
##ensus
attack
altern
75
##ological
##key
sand
true
##bre
referred
female
itself
yellow
japan
zip
signific
##light
phil
ach
directly
resour
org
##ster
flight
##ators
##ife
feb
accept
reduce
estate
##ift
pict
dece
thick
solution
rot
##inary
mineral
##ocks
##itical
male
dest
drugs
signs
prec
init
purpose
bat
divid
listed
diseases
##duct
nurs
##ried
cross
##cover
##itary
upon
appl
designed
became
##fect
jud
eating
congress
safe
influ
french
##ising
avoid
options
beaut
cash
nutr
amaz
email
##ises
##asing
bottom
organization
2012
slow
dictionary
calcium
##itor
pred
except
alb
stress
chromos
version
copy
ball
mi
bud
title
##icles
##isc
offers
added
currently
##ought
dut
effective
volume
late
##utions
essential
kil
carry
option
ut
mer
motor
register
##ault
patient
census
plus
ban
young
christ
##to
react
scient
membr
##ready
pron
fro
##izon
distrib
clin
built
greek
hyper
content
fix
already
pal
released
hormone
exact
bed
##aring
eyes
student
transport
anc
relations
rev
eggs
path
histor
foc
htt
sold
apple
deliver
samp
##oud
##orders
metal
fort
##mph
##for
regard
larger
compon
##enses
194
prior
internal
coast
industry
##izes
##tic
##gage
rom
cab
tom
##ooth
talk
##reg
carol
ip
300
cand
temperatures
##asons
##ening
assess
##ado
ocean
ok
china
complex
##gle
hospital
plate
medication
movie
features
##oming
companies
useful
dogs
tour
save
##chan
sched
##lant
constitution
ingr
##aps
##oles
##lement
sound
virgin
activity
fol
transl
score
wire
photos
##ians
gluc
september
##ublic
##bor
mexico
tick
##emon
therefore
union
##ov
brand
practice
exec
correct
##uff
pounds
eth
release
ice
median
driving
self
payment
former
reduc
republic
ol
roll
significant
draw
december
chart
##ram
##ober
##ae
host
zone
behav
suggest
##olution
fair
sem
formed
employee
diabet
october
digest
los
##zym
broad
fing
##erous
##sel
leave
##ibility
story
vent
element
usa
track
##iter
mind
regul
liter
rather
sources
boil
attach
pick
nation
##book
forecast
radio
focus
##ili
breast
consist
nar
layer
##adder
pul
vess
positive
purchase
woman
roast
absor
supply
street
##ites
ingred
oun
discover
round
northern
thyroid
princ
latin
therapy
extre
prepar
coff
##empt
##izz
previous
files
bring
##verse
easily
fail
jobs
reaction
sale
improve
wel
pair
decre
flag
provided
running
fees
double
district
battery
concent
##put
##arm
mobile
figure
##ero
son
resid
moon
tea
spring
##ards
obs
##ott
started
express
manager
33
enzym
##ba
died
balance
##char
questions
##emia
diabetes
recogn
##ota
ww
surr
pin
extra
subs
gives
egg
properties
mechan
sus
mother
silver
modern
detect
beg
climate
##isms
serving
##app
disney
image
winter
requires
idea
complet
shop
units
technology
angel
##ership
india
hit
matter
sodium
sett
chann
coup
notice
functions
military
medications
##rant
necessary
##itation
##ician
multiple
##soft
materials
##12
syndr
traditional
##ros
bath
elements
feed
perfect
style
chol
mountain
##ream
dead
gard
steps
carolina
##ocr
2000
western
ratio
##10
private
ast
ben
user
##west
excess
british
monthly
chlor
trip
secret
root
colon
performance
tall
##ocol
thro
gal
limited
nit
##uk
ov
door
discuss
inflammation
laws
##omic
button
older
##ritis
##iciency
stim
coffee
##change
paint
##ering
microsoft
southern
##sa
ability
normally
career
strength
bound
##uate
compet
increased
2011
trust
cream
seeds
fuel
depos
ven
server
bay
syndrome
##ests
wild
##ruct
##ety
leaves
kidney
tu
communic
disorders
final
willi
##ouch
glob
##aged
goes
format
starting
##ica
abdom
exercise
inte
##ography
##anced
iphone
sweet
##str
came
carbo
##cules
##ruary
ham
codes
schools
floor
included
typical
800
relationship
february
via
eight
favor
##cy
speak
cooking
rank
diam
cart
haw
thin
citiz
##unch
nutrition
37
##onse
god
potential
##rete
smaller
insert
testing
values
##istic
arth
isn
##iac
48
homes
colors
mortgage
glucose
famous
details
medium
nerv
195
##ny
hon
seven
##oster
trees
player
http
inch
association
pool
commerc
took
download
adults
##can
oven
response
fut
193
benefit
stick
neck
##40
##ightly
##ging
rh
developed
##ining
theory
further
nursing
formula
lou
beef
father
pump
virginia
intest
fever
rub
fund
epis
repair
counter
butter
carbohydr
brok
conduct
russ
scr
shown
swelling
##nes
greater
bag
ax
respir
unique
400
www
ring
send
ny
princip
atm
cd
enj
invent
growing
elig
##gar
window
##rupt
responsible
ens
behind
consists
stone
yet
99
pattern
covered
65
recommended
individuals
fruit
##time
ohio
##of
vag
spanish
goo
items
solar
thus
stage
display
##ung
band
vict
resist
exam
##pa
##esterol
##olf
anywhere
ira
games
friend
##ened
##ffer
molecules
pregnant
anything
routing
cholesterol
nervous
stra
concept
parents
uk
##nam
status
immedi
analysis
chest
##omb
basis
allerg
quickly
station
##bit
shape
pull
nove
tum
auto
combination
negative
rene
continue
sense
november
nearly
german
yes
##ror
cable
rare
##iday
groups
led
chronic
##set
obtain
impact
mr
##ania
gets
fly
cheese
mile
compared
began
hall
##oon
rap
hom
quite
begins
membrane
##da
##atively
##oof
##hold
throat
penn
execut
##tes
##vision
recent
dim
held
procedure
mc
reported
australia
##aging
weak
thought
mis
sports
substance
##edia
hen
choice
fert
las
##come
taste
calculate
##la
##izing
gene
refr
safety
vacc
##ture
load
##icient
humans
surv
##erson
anx
dav
tract
trade
hip
##ael
##head
james
hydro
branch
##cel
dose
##bert
acad
wage
sq
##uments
hous
played
pc
wik
od
rules
poly
photo
culture
enjoy
flex
##ha
agre
flat
retire
learning
commercial
letter
##mitted
##°f
poll
lymph
africa
percentage
memory
prefer
os
##ipment
neut
exchange
beans
overall
places
activities
##ales
spot
##ago
remember
valve
depression
quant
solid
lu
hotel
##ground
##umn
renew
vill
separate
adjust
beginning
rule
scale
unc
emb
##gia
wonder
##ensity
ren
lines
stimul
index
behavior
##ford
genetic
##ils
cele
machine
##inate
identify
amazon
pound
soon
write
tra
causing
media
estimated
spl
club
integr
##ounced
150
detail
crim
anti
amend
future
concern
spir
##ished
adap
mental
received
##vey
constant
surround
description
dur
weigh
apart
##ga
established
39
academ
##oxide
reading
rid
convert
global
pac
stor
pit
google
hands
minute
##igr
lip
bread
commit
##0s
george
horse
##osphere
##iful
doing
experi
cav
request
##atives
38
55
variable
34
menu
currency
containing
rent
math
grass
##roll
resources
operating
##iment
grant
##ropri
thous
##lines
therm
##ald
illness
voice
refriger
##zer
##ivity
coc
##rial
issues
carbs
electrical
##abol
nur
##board
facts
42
##eign
##ogen
reven
tenn
maintain
recept
everything
match
##umin
mild
gro
lond
trail
bor
fel
command
rough
jer
celebr
amounts
london
hur
involved
antibi
##agon
flavor
tooth
anxiety
elev
##norm
bones
tow
eastern
completely
straight
##osure
events
py
parent
##encies
shap
##inct
vegetables
il
grade
viol
phosph
mart
tab
carp
increases
protection
inject
yourself
rob
abnorm
lungs
fight
reasons
dish
dial
provider
battle
sed
##osite
##lar
nature
leading
emerg
die
pages
equipment
france
aw
ton
piece
army
england
becomes
core
##amb
sau
actual
que
##asm
cord
##word
expensive
portion
studies
driver
clo
ancient
devices
boy
legs
##ulin
##arter
writing
coverage
morn
wear
sample
channel
proteins
##ades
##hood
##vert
atlant
satur
##ague
lock
gi
restaur
##uous
irs
factor
farm
gain
ec
respect
nick
locations
mut
lost
##roph
direction
moving
derived
##acing
recommend
approach
fine
beautiful
##osition
excel
potat
##ston
falls
chap
camer
neur
bleeding
nurse
organisms
vision
staff
organs
dang
trig
ft
##wide
tri
cooked
##ara
##ls
kingdom
##amins
mit
slightly
touch
serve
cryst
##ey
division
##craft
mostly
##imm
jun
##state
shoulder
native
headach
angeles
hormones
roof
master
lose
oz
itch
heavy
vs
recover
##used
mary
du
##inese
users
primarily
independent
agent
morning
describe
applied
vessels
juice
appropri
guid
2009
mom
actor
diss
target
hu
##arr
concrete
particip
divided
pharm
tong
perman
##cing
inn
accur
wave
ord
society
compar
atoms
##ledge
lack
##ike
unless
images
ath
rose
tissues
item
52
vote
else
knee
pd
hawai
gast
smooth
chance
shall
trial
copper
##ops
vitamins
chinese
reference
books
tx
##aska
owner
issue
married
believe
accounts
reser
##ament
##ij
##back
va
waves
##pre
planning
plans
##itute
occup
##60
bear
appears
louis
##iles
wedding
germany
snow
##ste
television
orange
kit
43
##amps
towns
jour
administration
statement
applications
burning
2008
ow
##estic
##burg
border
budget
registered
##omas
##ham
estimate
wheel
ray
plug
tools
##fully
##eration
steel
tips
wife
employer
kids
dent
##olar
unl
police
feature
arg
approved
assign
pig
players
schedule
metabol
graph
construction
debt
label
football
44
fer
cards
volcan
dental
datab
skills
##ipes
##inated
cough
removed
##pm
abuse
##ipping
nc
panel
disp
abnormal
ready
##irm
everyone
founded
##aming
deduct
settings
##ologist
expected
rice
acids
##enced
##pir
retirement
tor
shr
shell
billion
franc
whose
processes
ga
originally
friends
planet
##isions
##iated
drain
rna
mm
##water
sulf
motion
album
##oke
highly
##rate
certific
##mission
bon
drinking
stored
harm
electrons
##ios
equival
marri
##iny
frank
define
chain
prime
methods
##ansas
extrem
trying
customers
organic
##rients
columb
powder
sequ
mad
##ka
corporation
starts
workers
absorb
##ava
composed
dele
##odies
fab
affects
switch
##draw
sac
##rier
went
arthritis
##ella
fung
##thesis
##wise
##iate
edit
##ping
regist
##mark
dv
##uits
##active
valid
##hea
latest
prep
turkey
storage
agency
varies
pun
chic
##uted
plat
trump
nothing
strateg
pm
bowl
kitch
veg
radiation
##see
political
followed
##lier
visa
yeast
pret
garden
tongue
##sey
seed
knowledge
##zen
smell
flour
##bl
convent
##brev
##ructions
fif
award
withdraw
ion
sho
##ket
##like
minor
reports
inner
verb
85
tap
looks
convers
lives
cars
alph
abbrev
tuition
majority
opening
demand
dress
amendment
46
##ocy
##achel
covers
angle
ingredients
valley
foreign
cere
officer
measured
artery
47
hyp
##aint
##erate
digital
distribution
properly
reprodu
overview
chocol
suffer
pacific
tag
##asc
recorded
georgia
95
wait
particularly
cm
##field
answers
cho
##wor
##oint
compound
electron
hydrogen
chromosomes
anyone
##otics
sheet
entry
##isco
pure
acqu
eval
attract
affected
##enty
flower
##imal
##80
quart
tables
lowest
michael
peak
ones
##ses
broken
certified
edge
william
eligible
published
##11
cloud
raw
placed
happens
veter
moist
performed
issued
##lets
votes
600
2007
collection
nutrients
##ieved
##cast
column
##cule
##iology
hab
appropriate
immune
frame
ranges
crow
suff
stores
gly
aid
replacement
pine
ful
opport
democr
##ference
picture
database
americans
couple
widely
resident
az
opportun
##ession
alt
coord
49
kitchen
sides
breed
statistics
sud
installation
calculator
exactly
##aughter
##mm
##athy
feeling
volt
described
changed
existing
chocolate
warrant
ensure
diagnosis
arteries
sin
shot
##ami
phr
passed
##30
cort
funds
installed
dollars
calor
nitrogen
repe
##iph
quarter
firm
##igan
equivalent
waste
##isl
finger
grill
naturally
##iest
accomp
islands
rapid
nucleus
sauce
revenue
belong
alone
amp
assistant
##pan
250
leaf
bonds
##oting
phase
adop
bladder
dependent
economic
fixed
##rote
prescrib
facebook
colorado
rise
##selves
dyn
seal
##uries
##zz
message
molecule
explor
understanding
wil
bacterial
sky
seem
earned
rou
served
mont
chief
instructions
##assium
##atically
dates
##ternal
african
components
mat
ult
lig
usb
filter
oral
##vis
hiv
deficiency
produces
chicago
incor
connection
frequency
supplement
purposes
evidence
japanese
ms
citizens
advert
nav
advant
120
champ
potassium
pad
minerals
disability
push
combined
64
##icial
##ciation
measures
libr
welcome
##hib
gum
legisl
##band
setting
favorite
rab
roy
192
frequently
##osing
situ
spect
oldest
treated
plastic
connected
jackson
##°c
spend
##ucky
vine
dollar
prin
1000
qualify
coming
licens
cats
##cers
tear
category
executive
league
involves
bachel
rating
blo
recently
investment
##roy
density
complic
determined
nose
vert
##ady
didn
relatively
acute
poor
immediately
##apor
generation
sentence
ml
residents
clinical
##care
##izona
golf
cru
permanent
remain
##force
foundation
41
expenses
fully
coach
summary
##ields
##iers
smart
initial
happen
md
hypo
failure
##loy
pok
arizona
insulin
premium
default
manufactur
trop
##vania
payments
##inois
mainly
pap
territ
transform
specifically
##ema
stands
tempor
iv
190
pink
186
nause
abdominal
mand
##perm
hp
##pped
ages
introduction
italy
characteristics
ship
crime
excl
hundr
lemon
breathing
organiz
profile
aren
illinois
##ylvania
cro
irrit
##ban
mixture
update
threat
ber
##orial
haz
penns
jew
cabin
represents
##ech
lap
sick
##ns
external
advanced
54
compare
flowers
substances
launch
bost
##ias
191
criminal
scientific
fabric
diarr
##lection
irish
##edy
periods
confirm
guar
boston
stro
##iqu
enzyme
hope
historical
wat
##rum
director
providing
european
pennsylvania
dioxide
race
senate
##alth
profession
##iat
pork
van
hd
capac
nausea
tun
opposite
##sequ
aver
outer
reviews
##iana
actress
fertil
administr
alle
adding
##cut
##ilies
examin
72
##right
##ascular
bron
retail
domin
nine
documents
output
cerv
italian
appearance
goal
prescription
compr
spirit
spinal
presence
hus
##ico
told
leader
hop
##aker
differences
ends
michigan
hourly
forward
increasing
doctors
attempt
bachelor
owned
monitor
##entially
stool
bey
wrong
calorie
train
ounce
indiana
##ky
##igation
virt
pretty
thomas
meal
bind
##ypt
linked
mountains
onto
background
56
##bc
allowed
themselves
guarant
marriage
##och
cot
mold
##aving
din
mention
##unt
asia
honey
##lies
nas
alex
moves
59
pdf
##pat
dan
nfl
stret
agreement
unlike
recipe
stars
cos
##ew
lact
dys
remains
loans
##ria
profit
ank
twice
structures
desk
##axy
distinct
nerves
finish
assets
certificate
wet
updated
##ners
##70
cas
excell
establish
##charge
diarrhea
nom
cod
decid
##down
dip
62
carbohydrates
roots
##heit
180
comfort
##ca
harv
rand
walls
indicate
ford
standards
##ette
chall
engineering
kilomet
employment
##ceed
domestic
bil
##lying
wine
classic
ster
ideal
measurement
returns
neu
reve
dream
fah
prostate
charact
pupp
charl
anemia
commission
progress
gm
asked
intestine
##istry
extremely
trim
characters
##sect
singer
scores
mph
physician
concentration
peace
##rew
charges
reflect
hill
##amine
easier
##uses
##renheit
biggest
package
outl
attention
lung
goods
router
savings
fats
kore
corporate
neigh
sudden
baking
coron
chapter
ticket
##her
hotels
plays
anth
fahrenheit
dissol
desert
occas
route
sperm
chur
fa
##opl
accounting
##ingu
reactions
medicare
certification
##jun
cree
##itar
##onyms
##usive
##neys
forces
daughter
emot
attached
families
atmosphere
links
giving
beer
passport
string
sams
powerful
earnings
boat
tip
longest
limits
precip
seems
##house
##ycl
##oglob
appoint
##vin
##rel
tube
##pes
mainten
corner
wish
worked
particles
voc
fract
roman
##stone
alaska
triang
sant
robert
relig
mission
##nel
salmon
earlier
treatments
##fall
runs
poison
maintenance
wireless
scott
becoming
##lands
refrigerator
tile
component
beyond
##zing
economy
##terior
##lements
ros
inher
##ml
fruits
critical
translation
babies
##uana
task
toward
##uble
nail
duty
##ulated
regions
vegas
sexual
##imp
assum
basket
charged
resulting
##essee
mur
ru
53
faster
smok
characterized
absol
vaccine
ho
hind
icon
secondary
brows
detailed
genes
##eed
galaxy
kent
##prise
tail
rocks
compens
brake
signed
parking
thousands
fatty
candid
pepper
calculated
##onym
drops
mode
saw
dangerous
decision
##agr
bran
pieces
rash
consumer
directions
thor
##ata
expand
relative
##rof
arab
frozen
mol
reduced
samsung
processing
consult
cler
martin
##rh
##amic
##kn
linc
alternative
scan
marketing
##gl
rod
delivery
household
split
##oln
emergency
village
paul
##itan
allergic
survey
##anks
ventric
config
swim
51
ire
acts
formation
seconds
phen
gel
fourth
alumin
join
yard
##eness
tender
urinary
instance
##ijuana
##orter
##town
arts
temp
episode
hern
##adian
follows
bridge
tank
##nal
ash
obser
completed
compress
intake
flo
ultr
spray
closed
cubic
beat
##ographic
achieve
tennessee
kinds
signal
teacher
glands
potatoes
##iced
##ality
creating
painful
kidneys
##cal
jersey
##unk
seek
##fish
dedu
introduced
##oe
lincoln
thread
2006
operations
david
girls
wheat
bright
##ocket
##iring
announced
jeff
digestive
bure
nic
##cript
##illa
stones
intr
##ned
classified
##agen
wisc
uns
influence
supre
roughly
accident
bull
##thetic
exposure
2018
##onsin
paying
##ometer
refund
vinegar
baseball
flash
speech
wrote
narrow
oak
electricity
marijuana
wisconsin
##kal
compounds
developing
definitions
manufacturing
capacity
88
cel
camera
eag
marine
shaped
##oglobin
vel
removal
uter
depth
aer
revolution
cham
diamond
gran
eb
ze
bac
189
2005
walking
##grad
hawaii
languages
##icians
sizes
crust
bell
rect
vom
successful
##itect
dance
##ered
accurate
associate
explain
##ophy
veins
cath
password
ome
mixed
decrease
##nd
brush
##ext
sam
partner
filing
supplements
offered
architect
vaginal
letters
layers
##anes
01
foss
cer
chromosome
und
info
voltage
relax
##ipation
##berry
playing
sore
##ibly
bird
joints
ib
spok
acre
extended
facility
antibiotics
##ux
spin
ot
##acent
##onia
deposit
lived
categories
assessment
##ena
viral
##inations
communication
acet
##ested
neuro
golden
hear
transmission
##ola
##ifies
blu
olive
ireland
church
##asty
cotton
##aa
##ropol
aspect
ts
digit
airlines
thinking
independence
##oted
ou
compl
brief
authority
##irect
thanks
extract
synonyms
ark
pictures
pel
##born
surge
zero
sunday
78
desp
gross
tiny
visible
powers
messages
ske
hou
contribute
row
flood
##aine
muc
##oper
nuclear
bowel
grav
grown
biology
pulmon
##reh
##ett
##box
##aneous
academic
crop
##ander
otherwise
claims
conv
gray
permit
viet
secure
movies
changing
bug
heard
adh
coat
android
housing
##ouri
opened
incorpor
67
77
jump
supreme
plane
stretch
panc
57
86
width
##taining
paris
oreg
stroke
polym
surrounding
oregon
trib
buying
58
missouri
vehicles
nba
prescribed
ct
##rium
respond
gram
weakness
63
sci
##igue
electronic
courses
vice
elim
afford
catch
duct
mine
sher
elected
whereas
insect
##onic
resistance
situation
conven
classes
cow
ss
selection
killed
describes
dies
shut
bureau
aort
selling
context
filled
dro
##ipped
heav
decide
lots
models
mini
##ounce
66
pear
##lywood
chemicals
articles
flights
excellent
posted
##za
election
industrial
rar
clim
##inks
vin
##ieties
attend
##ris
##oli
moved
furn
ram
drivers
mood
##resp
spons
respiratory
##olic
##eless
extr
visual
aqu
library
pref
##aked
gallon
folder
util
rail
##rics
asse
finally
sort
resort
cocon
earthqu
settle
##off
charles
bio
automatically
alab
##weight
herb
##iliar
seg
crack
bathroom
banks
oxid
pill
calend
viruses
suit
northwest
coconut
##pping
dos
serves
soy
##haps
trou
merc
enh
61
toxic
##va
extension
holiday
continuous
aluminum
02
jail
mamm
kept
container
winds
##cin
pulmonary
ounces
brick
helpful
healthcare
subscr
generic
salad
identification
llc
selected
southwest
francisco
graduate
lean
eventually
##ffe
mir
matt
operation
royal
submit
perhaps
canadian
alabama
monday
habit
vomiting
dol
richard
ign
arms
sets
houston
##esium
registration
68
glo
phrase
700
fle
contrast
tal
circuit
##gers
producing
gases
alkal
attorn
fields
objects
ure
intell
amino
daylight
ideas
enzymes
trigger
brought
discharge
74
humid
##abilities
##actions
southeast
counties
fear
terr
tumor
diameter
tight
##etts
procedures
indicates
forest
compreh
sust
institution
##eline
huge
##nic
shel
telephone
error
recovery
friday
fold
guitar
nap
therap
kilometers
##inity
precipitation
87
##ropolitan
##aled
boys
toll
##illed
dc
rig
bodies
usage
mechanical
jr
coronary
showing
##issions
senior
russia
##icing
79
gun
fibers
tropical
notes
ba
esp
##achus
periph
polar
soap
kentucky
intended
reserve
pros
caffe
##fe
novel
paral
##ura
tons
shipping
interf
##respond
calls
movements
glyc
##lah
reb
bol
guard
infected
prepared
##asma
##enders
shing
philos
clerk
correspond
steak
discovered
birds
technical
agr
prepare
storm
sites
shower
scot
controlled
##irt
exempt
explorer
76
pil
raised
##emp
owners
toile
implement
sor
neighbor
husband
##owa
purchased
axis
restaurant
plates
cups
persons
catal
circum
##airy
holds
mun
beauty
organism
cad
respiration
##aid
##works
defect
lights
leak
ribs
resource
analy
gh
instr
businesses
sar
cavity
sport
atomic
advice
meters
##poon
oklah
##achusetts
worldwide
##bow
turned
psychology
oste
despite
magnesium
birthday
institute
familiar
java
oklahoma
enforce
massachusetts
straw
agents
township
campus
si
##gal
conversion
towards
lee
comments
##emat
fatigue
82
finding
shares
canal
collected
metals
dairy
traff
headache
steam
recognized
lie
grain
withdrawal
84
cleaning
seattle
buff
advent
regardless
##rid
2003
melan
freezer
lease
stream
drinks
healing
##elines
meeting
predict
mast
closing
teams
henry
iowa
calendar
##omfort
##icip
involve
##vant
om
constipation
tire
##ervation
pokemon
##rolog
luc
raise
client
filed
71
ecl
anat
plural
69
liability
intellig
sty
egypt
peripheral
statist
replaced
wanted
iii
fan
drag
##inine
wikip
soluble
cellular
2004
obvious
compensation
prince
hemoglobin
platform
electro
##ologists
happy
teen
alert
assemb
ket
##stream
stuff
##arian
conference
mentioned
##kee
agencies
kg
##eme
garage
##agram
distingu
directed
freed
triangle
fet
minnes
188
enlar
publish
justice
pizz
teas
expert
wikipedia
imag
facilities
browser
98
numerous
navy
environmental
brother
##mer
dvd
jur
literature
oils
##rd
dimens
capt
tomat
hi
minnesota
08
excessive
aim
jul
territory
##oth
creek
##oria
advance
sql
outd
proof
##iform
##de
remote
##oul
##oty
na
wi
transaction
defense
92
decl
input
theme
honor
gift
plasma
expression
sid
solutions
##cod
scientists
pour
courts
regarding
fest
mt
bile
discount
adapt
carries
outlook
spain
circle
##bles
##mic
checks
episodes
crab
##iques
accepted
inhib
ingredient
atlantic
susp
##met
hay
##oen
relief
rac
rivers
basically
empire
continental
##abil
dall
ic
gulf
##yer
penal
advantage
##ita
gender
remaining
laptop
##uing
stem
metropolitan
lists
bm
bankrupt
burned
dub
gave
fifth
##employ
centers
controls
hole
songs
terminal
appar
mars
deductible
muse
biological
specified
73
formal
assigned
mist
##uts
##adium
draft
headqu
previously
jose
##mas
counsel
quantity
350
lies
instant
##hen
##outs
swed
numb
assistance
fal
caffeine
##berries
scar
greatest
forum
##place
seats
leadership
herpes
recipes
##ollen
wrist
slowly
saturday
vegetable
##izer
scal
demon
johnson
tape
bc
leads
convention
organizations
hearing
dil
hatch
sequence
##ped
shift
rental
ell
##dy
averages
dw
05
##enth
judge
iod
confidence
carpet
tickets
cheap
efficient
shingles
basketball
handle
believed
converter
ankle
dallas
##uled
##arks
hydr
jaw
hills
##ulate
comprehensive
itching
immun
traffic
toilet
smith
##ococ
unemploy
##igo
maybe
springs
traum
sir
sores
sensation
borrow
manual
##icated
educational
##iable
underlying
miami
greatly
swollen
boiling
trading
acting
##ucks
numer
updates
interview
divide
attrib
teachers
tn
edition
injuries
wound
##cil
##pal
clause
holding
gear
stir
spent
keeping
array
##cus
carbohydrate
fu
sap
saving
agricult
moderate
toy
techniques
cc
interesting
shared
standing
nails
##obic
moment
clock
frequent
audio
esc
##atin
sensory
##tub
wars
jones
hepat
colour
museum
##osc
##osa
cin
torn
diver
97
injection
prefix
athlet
sounds
experienced
guidelines
exists
estimates
marks
interested
strain
##aver
cels
statistical
delic
sharp
aircraft
surgical
pairs
occasion
##hyth
conjun
columbia
treaty
manufacturer
concentr
boot
##unately
##berg
stages
##enger
alpha
journal
##oz
entertain
pizza
fans
celsius
duration
licensed
##ilton
##bing
technique
##mia
lew
bankruptcy
topic
##onin
##asts
forming
investig
policies
83
tro
breeds
cardiac
export
##inson
maps
##men
temporary
phoen
grains
rarely
##writ
printer
chemistry
attorney
lining
professionals
meanings
contributions
tendon
waters
simpl
tatt
##oids
rear
drill
lob
comparison
##wich
04
treating
obl
videos
plenty
tried
republican
popul
truck
molecular
roth
treas
##under
obama
restrict
speaking
surn
##more
tower
91
##asses
practition
reached
franklin
principal
##yroidism
thumb
##uls
queen
aspir
hypoth
inflammatory
deck
greece
ovulation
##bra
cardio
81
##rooms
reverse
warranty
desktop
connective
prison
extreme
pronun
damaged
##osterone
employers
polit
planets
##ancing
##istan
females
ped
nucleot
bic
nice
spectrum
attacks
##uten
clay
britain
atlanta
##gu
187
construct
lup
engineer
sharing
turns
transportation
nodes
carrier
puppy
northeast
worse
vacation
circul
tells
parks
##strual
delete
ultras
##oline
jewel
centre
ulcer
vital
##iva
bought
listing
giant
ranked
officially
leaving
consumption
fda
hazard
committe
destroy
sensitive
opin
colleges
wants
taxable
spine
2001
##ighter
delta
lips
##tles
160
gastro
applying
nuts
conflic
kansas
combine
illust
horizon
econom
clinic
varieties
eliz
actions
tues
##point
kenn
##airs
mcc
03
flav
##urt
cris
##abeth
appra
throw
composition
breaks
skele
scen
##itals
hid
##aud
garlic
cruise
##aught
185
nearby
carro
cum
bush
dizz
popularity
migr
younger
##grade
stadium
bottle
managed
dod
##kin
classification
kar
strip
hell
arrow
receiving
universal
89
fash
receptor
hang
bears
experts
neutral
alter
96
creates
deed
entity
identity
grows
hunting
tox
artist
cereb
myth
membership
les
secretary
christmas
phoenix
branches
thurs
proport
##yan
##orrh
opportunity
contraction
curve
santa
ions
900
cultural
lux
goals
##fast
hurric
regional
destination
hat
##ien
##ontin
au
06
supplies
rome
dutch
louisiana
quot
views
##auc
essay
mush
requirement
occurring
multi
ron
##encing
identified
tuesday
##bean
blind
invented
prol
acres
barb
trailer
photosyn
freedom
tut
##ya
males
fastest
restaurants
obst
##kins
photograph
applies
##lord
hero
font
##rom
enterprise
jefferson
ultrasound
fridge
patent
##ario
perm
boundary
snake
synthetic
marg
mening
governor
gone
contribution
headaches
meant
yards
##ora
brands
radi
uterus
accel
gallons
receives
explore
odor
rs
downtown
harry
champions
orth
fashion
blocks
lesson
##iled
##body
##bits
dietary
diagnosed
superior
##ying
lbs
squash
cogn
arkansas
##osen
dram
dosage
subt
##anna
177
sediment
bass
osc
vapor
significantly
tread
contents
##flix
##itely
australian
semi
strategy
andrew
unkn
absolute
equity
tablet
batteries
plain
vein
russian
elizabeth
citizen
metabolism
thursday
chi
elevation
council
07
nations
ech
shoes
bases
bacon
passes
beta
sel
cervical
peter
reaches
thigh
lith
declar
netflix
##fun
##rick
eld
##urb
tay
##aign
annually
ebay
houses
parties
exposed
mant
fishing
yog
da
##ibilities
##alo
reduction
overl
interior
##inating
spoken
obtained
adject
awards
boost
cyst
closely
pays
##my
encour
satis
2002
contag
abdomen
sister
seasons
anes
##worm
93
wednes
bun
highway
effort
lb
unemployment
allowing
donald
medicines
verte
menstrual
pint
amb
dre
worker
possibly
##kes
##rison
##oral
fingers
soup
providers
vietnam
pronunciation
metric
encycl
pole
personality
steve
09
prohib
calling
figures
##rus
##itter
##eters
blog
weekly
encyclop
accum
random
##elly
peas
veloc
sugars
##iling
##aments
holl
adopted
##abled
94
sd
prev
unknown
##rix
offering
##equ
audit
1st
variables
deduction
lakes
difficulty
advis
technician
himself
##emption
genet
stamp
polymer
cramps
sole
linear
tradem
##well
##ador
##orph
reducing
numbness
##elled
palm
christian
autoimm
arrange
cp
##night
decided
##ayer
strand
##ala
antibiotic
sized
##isph
producer
hence
fault
inventory
##ees
laboratory
joined
colored
cooper
testosterone
crystal
contagious
vessel
##neum
jury
tort
##ua
mes
wis
credits
projects
derm
##etime
protocol
turning
alg
copyright
##elle
nj
thank
pale
flows
wednesday
vul
##com
circulation
##ded
usual
meter
measuring
lupus
sink
deer
comment
cancel
vib
millions
saying
talking
##orus
tas
##isters
bru
bulb
lasts
hr
apps
historic
dust
bob
##ini
exe
designated
computers
##inton
lime
ancest
constit
178
pneum
equation
lum
pipe
campaign
enforcement
asset
qualified
##atever
dried
vertical
##yg
autoimmune
hepatitis
implant
unlock
cutting
orient
##lied
surname
helping
buck
##aque
bigger
hardware
iodine
chlorine
fox
blend
landlord
bip
appeared
##stall
ni
replic
magnetic
thermometer
shock
none
spark
contained
regularly
yield
patterns
consequ
epid
pills
prevention
184
closer
belt
amazing
ting
unf
cattle
frost
moisture
interp
partial
eyel
##ilit
allergy
decisions
whatever
clar
tension
bars
transition
pharmacy
##iders
closest
pronounced
tumors
##plant
mri
agree
academy
b12
specialist
carb
mn
dehydr
representatives
apprais
gap
leuk
paras
##opause
entertainment
roles
##don
##aryn
flexible
breakdown
caps
##ano
gem
##dale
seiz
neuron
pepp
earthquake
##road
cu
williams
unus
modified
decor
continues
mississ
hemisph
acron
##hips
velocity
##rous
stack
topics
dizziness
aware
##bi
nov
soda
##oa
administrative
##vascular
marked
sep
collagen
##reen
meals
##adel
charter
fairly
transmitted
preparation
processed
divor
mercury
bang
##function
consisting
##ache
clot
reality
##ifying
##lete
finance
##ayed
duties
##wing
onions
##22
versions
sad
writer
spots
presented
carried
virtual
swit
ride
anterior
##atal
checking
removing
pitch
orbit
theat
##awn
reporting
##vy
neurons
##eck
##etry
np
carib
##akers
gpa
gradu
intelligence
hors
##pective
enroll
functional
coal
ranch
##lers
explains
nutritional
##ipse
kin
deals
cake
ios
workout
shrimp
aden
harbor
joe
##otherapy
walt
highlight
surpr
##pro
183
omega
fi
prompt
friendly
ig
kr
disk
ahead
fewer
vect
legend
encyclopedia
imper
confused
anton
manner
positions
##ippi
##iture
##icular
exception
transf
##agraph
urban
uniform
##burn
##topl
factory
##onymous
humidity
tang
fred
committee
instit
challeng
spouse
ken
crit
ak
##omin
##ii
140
##crim
innov
photosynthesis
keeps
jim
##igration
shopping
hemorrh
magaz
##rosion
##unes
##sm
demonstr
occurred
communities
desired
##esity
##15
hundreds
indu
cruc
administer
lyrics
programming
resolution
criter
complications
##cs
specialized
trick
accred
##codone
##asis
epith
hypert
configur
statute
elevated
reader
suggests
loose
paragraph
obesity
protected
maryland
gam
##ocytes
nasal
##yon
dentist
korea
supports
nickn
neurop
breaking
banking
fossil
nin
winning
regulations
truth
incub
residential
##aland
genus
oly
lift
resistant
pleas
##onda
era
thousand
haven
purs
analyst
mississippi
##arters
recip
##erior
sensor
municip
bake
##arts
spending
ky
drama
kh
breakfast
##itative
purple
juris
gather
##orous
tested
1999
facial
##ulum
possess
chop
importance
absorbed
110
mathemat
rhe
thes
exercises
magic
##bt
tan
cran
dedicated
jewelry
taylor
posts
seller
##ims
##ouds
lactose
confed
latitude
trouble
pod
##olis
ethnic
consume
##uity
##opic
coins
##ek
##enza
discomfort
satisf
consumers
explan
originated
##py
jup
wages
##idents
19th
funeral
officers
eagle
opens
origins
##ication
ranging
immediate
films
texture
hundred
abund
##phia
paralle
tattoo
flying
examination
rum
##oh
signals
lamb
abbreviation
studio
pollution
##fri
practices
isol
unfort
sulfur
emotional
pigment
saturated
surfaces
psychiat
tablets
arrest
panels
bes
feeding
headquarters
freeze
researchers
cig
unable
jupiter
##veland
twenty
smallest
irreg
rays
eclipse
anatomy
wiki
lewis
##estone
clearly
aids
##mg
bipolar
belief
chair
##aham
nh
soul
montana
##adelphia
routine
##24
ended
gate
resem
capable
irregular
representative
situated
evol
olymp
renewal
##estyle
clouds
lord
crash
wrap
##sp
##ista
##olars
offices
entit
risks
rubber
starch
automatic
##ennial
empty
converted
##ateral
gov
##toplasm
felt
circumst
subsid
deposits
swimming
venus
##rence
stain
classical
hollywood
##umes
newest
sections
assembly
ced
nev
##haust
slic
philadelphia
##untary
ker
gramm
gon
##inger
desc
##99
##bal
indicated
receptors
theor
##ctive
phosphate
intel
false
stiff
presidential
tough
##esis
nickel
##bir
hey
hurricane
principles
zealand
canyon
expressed
allergies
cytoplasm
##phal
homeown
tru
massage
undergrad
medicaid
relieve
determining
diagram
##bridge
##omagn
develops
snakes
orch
ammon
bench
125
pharmac
journey
convenient
##wall
formerly
ana
elbow
crystals
carrots
exhaust
heel
discrim
##ogram
impair
musical
ligament
encl
20th
therapist
buffalo
##owing
zinc
atp
adjective
belly
##reciation
##going
heating
pond
stan
##ched
##tu
proposed
exclusive
usd
orders
choices
err
slang
guy
rainfall
stable
alkaline
quotes
##eur
mp
extend
sandwich
##icted
metro
tb
epithel
acne
hybr
caribbean
horn
rhyth
weekend
rated
shorter
##aho
clothing
domain
##acle
iq
acquired
cents
festival
weap
finished
suspect
multiply
fame
morph
advertis
2nd
##ker
##rent
warning
aspirin
ont
screw
##cious
respectively
##poons
neighborhood
beats
##igen
cheaper
nest
candy
radius
unin
harmful
organized
nearest
adren
##inn
stated
dinner
hospitals
owe
diesel
entered
##mond
tubes
survive
rein
separated
occasionally
defend
hernia
##anged
preferred
euk
decades
carn
castle
notary
vocal
fasc
preser
covering
##leen
missing
insects
kick
painting
opportunities
##linder
bible
phones
cylinder
subscrib
fax
stories
##teen
essentially
##itors
##loid
##anda
ventricle
equals
aspects
##erto
dot
cleveland
doses
reform
cardiovascular
logo
butt
declaration
hemisphere
130
##omal
##anus
columbus
helped
performing
affordable
exhib
1990
mexican
entirely
eukary
characteristic
dak
rheum
enable
interface
franch
##rine
libert
buildings
jurisd
##liance
ski
promote
supported
sect
electromagn
##rons
##oxy
##organ
herbs
constitutional
transplant
menopause
titles
wings
toler
reproduction
situations
##chem
clinton
aorta
contractor
influenza
##coming
compat
transactions
idaho
##liest
landsc
dement
dense
definitely
necessarily
priority
##ifications
fiction
operate
##brew
craft
determines
##bladder
outdoor
pier
1996
##opy
manufactured
discl
represented
getty
estrogen
##oir
knowing
grey
scholars
anch
##inent
infer
cure
worry
opinion
ille
braz
bomb
remed
wells
cyt
##what
tot
ipad
accompan
passing
listen
##rec
dissolved
styles
criteria
vacu
fried
facing
rabbit
bb
parallel
gallbladder
1998
indirect
statements
pension
experiences
##ellular
anne
##gent
thunder
hc
wealth
flush
bever
putting
bloom
templ
##rose
tingling
mall
##25
elastic
dominant
##cd
exceed
mantle
##inates
1950
veterans
reserv
involving
whom
childhood
discussion
forests
##heet
##itud
##friend
postal
ink
misd
experiment
##obe
tennis
listings
saint
clients
contracts
##atured
teaching
boundaries
cs
tes
ordered
sitting
democratic
conflict
settlement
nether
##13
employed
##mel
ears
ridge
taxp
keyboard
##iveness
rural
##onto
authent
pyth
node
##dd
##otype
##mart
choosing
membranes
judicial
religious
##pass
slice
potentially
poisoning
infr
brothers
indeed
expense
unfortunately
potato
rings
##dp
179
smoke
structural
evapor
resol
lifetime
scotland
session
calculation
dementia
coin
hook
lens
crew
philipp
considering
certainly
potter
somewhat
##iverse
bands
tet
exemption
victoria
wisdom
dar
hives
##nership
##roe
interm
skeletal
interpret
##opher
fence
##mill
##apolis
extent
captain
zones
##iary
aged
protons
##aware
assume
shark
worst
duck
partnership
dakota
gut
pak
##net
transit
hub
sight
##abor
concerned
recur
responsibility
##gy
creatinine
comfortable
hebrew
salts
mb
html
eu
##the
ownership
°c
brook
##agus
responsibilities
fm
°f
##osomes
wax
cognitive
sheriff
resting
holes
greens
wake
##utch
symbols
##ycle
##ruption
circumstances
chosen
##asive
transcr
volcano
##fa
reef
contacts
sufficient
contamin
##reas
marsh
returned
muscular
volcanic
foil
cartil
elder
cycl
dm
directory
youtub
learned
physicians
upgrade
puerto
vagina
diagnost
magazine
lt
##iations
stronger
##list
knows
jam
1997
##aurus
titan
banana
bump
sustain
connects
##avel
rapidly
evolution
insp
lice
reh
alternate
advertising
vector
visitors
synthesis
continued
gasoline
supporting
trauma
nationwide
lifestyle
ran
##burgh
##life
recre
wilson
wasn
incorporated
##14
quartz
waiting
##ococcus
promot
##ansion
carrying
practical
ceo
eligibility
fitness
pearl
##press
microw
universe
wondering
umb
supposed
unusual
youtube
recording
tasks
##sec
lenses
wool
shapes
lender
hispan
##bour
scene
chloride
coating
browse
limitations
quote
paypal
##amy
##ona
drum
refin
sunlight
dealer
chamber
sinus
dysfunction
##uitary
shake
fungi
roose
##illes
quad
##velt
puber
arc
copies
locate
interaction
niger
twitter
instrument
##xy
valu
phosphorus
grew
pituitary
lev
smoking
tric
brings
felony
mushrooms
slide
eaten
bleach
evaluation
metabolic
hypertension
mechanism
##ochond
##ji
coral
distinguish
roosevelt
mature
electromagnetic
sleeping
ultimate
ending
adopt
guarantee
param
affecting
thorough
configuration
absorption
delivered
##card
##izard
relating
##engers
stations
seeing
explos
bite
digestion
arrive
rd
uber
streaming
noted
subsequ
digits
itchy
tutorial
markets
leaders
tracking
geography
meg
bugs
utility
##hel
larg
thickness
jon
submitted
province
brocc
delicious
##oring
reduces
oat
industries
plaque
buyer
monarch
everyday
fant
negot
privacy
##iosis
incl
dynasty
##ivation
asking
improvement
answered
astron
embry
carefully
cuts
observed
artific
puberty
pricing
doors
competitive
3rd
apples
##valent
substant
##stein
largely
toronto
crown
##onge
relationships
harvard
survival
effectively
meningitis
practitioner
maine
dreams
compass
static
cbs
##ifier
##anny
tunnel
trademark
lets
shakes
engage
advoc
1994
whit
rabbits
infant
socket
cave
divertic
yearly
##test
creation
nevada
aven
##000
##athers
##icut
machines
lam
watt
hers
recon
anesthes
chip
##chester
airline
##ometric
##isa
fraud
acidic
undergraduate
broccoli
canc
##iors
##gi
competition
##fol
bub
##urance
##imize
marginal
##ari
lady
premier
##iop
tob
entering
chef
correctly
gym
moles
por
specialty
literally
gang
overtime
remedies
termin
generated
congen
initially
creative
##ologies
drawn
rack
##16
blank
massive
channels
somewhere
alphabet
phenom
##apse
operates
orland
cabinet
ranks
baked
cn
hide
generate
diego
severity
founder
tendons
horses
satell
matrix
transfers
horizontal
peel
bills
##atile
##ighth
tesla
1995
soldiers
wearing
inqu
diagnose
fighting
efficiency
pi
adventure
mas
##bone
##flow
##zerland
pean
swall
displayed
meets
junction
segment
exclud
tone
entr
editor
speakers
evening
icel
frag
managers
##ediat
fluids
belongs
onset
adds
##yms
switzerland
merge
binding
vast
trained
##ommod
iceland
oxidation
newsp
ferment
altitude
featured
hybrid
ef
decreased
memorial
netherlands
outlet
panama
##ulu
orlando
jes
accommod
hemat
looked
visc
rog
sulfate
secre
breeding
traveling
pronoun
conventional
tends
450
ease
discip
wit
debit
##hi
monroe
sevent
##heat
fluor
broadcast
youth
variation
penalty
##rin
fell
relevant
lawn
angles
sov
bees
cul
morgan
decay
dynamic
joseph
pakistan
pocket
dehydration
gest
periodic
tears
emph
##ifer
madison
##iox
##aphyl
extensive
acry
ost
tast
releases
tenant
##odel
instruction
directors
jord
##bar
persist
integrated
nonp
##hr
dragon
lateral
vascular
gent
professor
congenital
benz
pediat
inspe
sponsored
pup
alexander
ships
compact
truly
gout
##shine
reliable
posterior
spiritual
lag
zo
applicable
trem
recognize
bluet
neurolog
suitable
twin
setup
##fr
operated
mammals
soviet
surgeon
nash
bike
abbreviated
daniel
##anor
adapter
##car
scope
sentences
unp
illegal
snack
mutation
repeated
neither
##greg
##ati
measurements
##onal
happened
##otte
intense
syd
screening
comic
sunshine
toyota
neuropathy
##bed
##arth
identical
exit
manif
walmart
dialog
connecticut
divorce
centuries
minecraft
merch
ulcers
magma
bluetooth
##icide
1981
affili
networks
feels
costa
attractions
##enter
irritation
enters
pulse
##ystem
lex
wheels
pas
myst
manufacturers
weighs
signature
rising
rooms
korean
jav
twe
adjacent
probability
adams
wonderful
strug
brazil
ryan
divers
regulate
bin
##igrams
freezing
resume
mitochond
shore
solvent
clicking
twist
ger
consumed
institutions
theft
bonus
##19
fid
whale
##dam
##hire
##yme
replacing
behavioral
longitude
falling
##ception
easiest
mint
tags
honda
750
pt
patrick
religion
vet
##amental
##ifts
asian
##23
##ja
gau
header
opposed
actors
franchise
narc
printed
1993
shooting
wolf
##wa
braces
redness
alloy
chips
adequ
##omer
rises
explanation
mouse
travels
candidate
luck
fatal
filling
diagnostic
guest
cartilage
##aco
referring
systemic
microsc
gig
##rup
packaging
vo
guests
##riers
misdeme
princess
pneumonia
##elles
guess
shad
rin
fungus
appointment
luxury
##cp
rul
uninstall
##using
##athic
appet
hidden
hood
hawaiian
milligrams
gradually
nutrient
##rane
accompanied
discrimination
##aby
metall
confirmed
functioning
360
unw
defects
mucus
overweight
cloth
cedar
cows
cuff
strict
##hs
avenue
detected
pets
suffering
ontario
##uting
warri
##ocrine
##essive
ld
diverse
fundamental
onion
1980
##ila
denver
dup
foster
vene
incred
partners
injured
jet
serial
lightning
addresses
objective
##imeter
##duction
##standing
chat
buil
fuels
itunes
protects
utah
thaw
sne
antibodies
##pox
##18
defic
asth
revealed
placent
serum
align
dl
philosophy
wayne
compression
drawing
acrylic
scler
##rim
learners
sits
plot
bloodstream
continent
##beat
abc
cancers
corresponding
entitled
sciences
gor
powered
errors
worn
##17
##zzle
toxins
broth
spreads
craw
polish
wy
delaware
inhab
herit
experim
intermedi
reset
##iking
sydney
nd
ta
glasses
repeat
shelf
transferred
##ican
decreases
##flower
hindi
genital
maintaining
platelets
##osal
##bell
##enge
whenever
loved
valuable
inherited
enhance
tel
laser
scratch
spleen
installing
successfully
launched
remodel
coastal
discovery
owns
sixth
dough
##ima
basement
equil
nurses
fork
advantages
##acchar
bronch
jordan
extends
analog
marrow
moral
cooling
roses
corp
ups
brew
cambridge
heads
teaspoon
algae
rheumat
##jo
mitosis
philippines
designs
gravity
variations
architecture
##ioxid
spaces
interact
stabil
absence
substitute
artificial
whey
hemp
communications
murder
extens
##asia
asthma
concl
regulation
defines
microwave
##apple
cerebral
sail
degen
abra
gloss
feat
evalu
dimensions
##ridge
##meal
antioxid
vot
wavel
approval
democracy
##win
fraction
tamp
lump
##osh
##agan
snap
hunt
esoph
principle
lan
##eper
vista
gluten
connecting
crops
benign
apartment
cock
passage
##ranean
charlotte
##food
##opes
contem
cass
activate
threatening
retr
saturn
pancreas
dermat
skill
beneficial
genre
pest
appeal
##bage
##aven
paste
serot
##idal
##ads
biome
##writer
johnny
rn
stools
operator
framework
dual
erupt
suggested
dishes
scheduled
matters
ore
deaths
hurt
municipal
earliest
sexually
thoughts
##ibular
exterior
diffusion
dipl
illustr
cervix
defe
immigration
##tim
##aca
killer
granted
departments
lumb
##mi
violence
dun
chances
ordinary
bent
atrium
allen
newborn
walker
bloating
##appe
artists
safely
broker
##ener
symm
arabic
placenta
dell
intensity
announce
reproductive
vinyl
175
barrier
a1
##uster
personnel
comedy
appraisal
checked
shortcut
silic
portions
##itivity
shots
scalp
bags
pasta
https
focused
complement
##holders
wing
stew
pept
##trans
adrenal
wires
##esy
meiosis
adjusted
4th
decimal
literary
packages
rhythm
tires
schiz
prevents
pilot
##33
candidates
wavelength
##bury
documentation
challenge
##ubin
evil
##thal
harrison
##gets
clark
##ront
orb
abundant
hispanic
ja
verizon
cider
bid
composite
crush
##ogenic
keys
mileage
enrollment
##pture
marble
loop
##wash
forget
yogurt
abraham
gdp
thromb
infants
restore
aneur
depreciation
bean
observ
confusion
losing
geographic
penins
template
traditionally
adverse
pitts
protective
##areness
assisted
tig
##mar
170
##ki
##ray
residence
corps
hits
inspir
serotonin
mediter
aneurys
concepts
reveal
vertigo
1991
zoo
percentile
##asy
primer
cellul
stays
relation
lind
faith
##45
forever
##rost
adobe
bronze
prominent
committed
awareness
##atus
wors
facilit
charts
##anth
contractions
candida
fracture
imperial
##irubin
conducted
cigar
labels
##rofen
vanc
##hop
meats
plum
insight
variant
lunar
nickname
complain
asc
planned
ligaments
cla
processor
legally
mediterranean
varic
ethan
101
drainage
peer
physics
##nut
liberty
strep
colonies
descript
explained
expectancy
skip
authorized
psychological
##shire
benefici
distributed
sector
gently
leon
dolph
burns
jar
todd
instruct
detox
elvis
airports
chrome
purchasing
sr
##azz
hypothyroidism
surrounded
##ourse
anesthesia
enlarged
##len
retina
tam
##mes
forth
lasting
nam
limestone
satellite
##lim
tonight
5th
rotation
leukemia
beneath
homeowners
sprint
##icul
lub
tie
preced
rocky
clutch
float
##cher
##acco
deriv
hamm
aging
receiver
##ocation
caes
chemotherapy
harvest
pyram
tourist
rinse
heritage
##ori
cleans
##inea
racing
##lock
depress
utc
lyn
sig
##rey
anonymous
##ruit
portable
administered
aside
mike
trace
hazardous
queens
##heim
1992
sag
##leum
1989
ri
salv
agriculture
expansion
concerns
appointed
kennedy
dop
##xx
##asp
acronym
##inction
##secut
script
hs
tect
toe
allowance
antibody
bern
##tains
impul
overnight
echo
sunny
agreed
troy
strike
dropped
speaker
rewards
rush
forecl
advertisement
decline
admission
circular
visiting
discussed
bulbs
lod
howard
ultimately
##pton
corre
managing
shelter
1920
cooker
applicants
postings
numerology
expir
##ricts
consistent
##gment
##enon
spider
pineapple
inherit
ibup
inspired
lid
beet
ghost
margin
sib
##ceeds
speeds
strands
exclus
globe
tobacco
aba
singular
davis
accredited
reply
##erald
handling
xbox
##cm
congest
##unte
pronounce
##90
valves
sunset
bearing
sph
401
kindle
lawyer
achieved
elementary
##gb
brack
cob
##32
##ione
brakes
cuc
rico
crest
references
steroid
modem
gardens
diab
lifes
reasonable
gamet
vod
syrup
showed
sheets
alerts
ibuprofen
audience
hamilton
dirt
feelings
aggress
terror
oblig
cleaner
radioactive
intent
brad
soccer
decade
volunte
ment
forced
driveway
duke
whales
complicated
##rog
abst
javas
bing
sterling
honest
osm
intellect
fulf
warming
acceptance
sheep
clearance
bend
##aria
inspection
vacuum
treasury
asp
gastric
tired
strings
impress
oxide
hunter
evaluate
stephen
erosion
incident
##attan
purchases
bilirubin
peninsula
fusion
boiled
passenger
chris
imposs
displays
willing
focuses
seeking
heter
mask
studied
greenhouse
cube
engines
infectious
hire
##antic
compatible
aar
welf
connections
javascript
scottish
unt
pipes
##nect
patch
combat
lane
till
hindu
##illin
rust
##ku
##ibrium
reserved
welfare
adam
lunch
urination
shortness
anderson
balanced
##iance
fav
conce
amph
stamps
publication
slee
##oodle
holder
fertilization
oscar
nich
continuing
blocked
assessor
turtles
claimed
audi
bulk
stops
senator
##eller
tomatoes
restrictions
##fc
impl
cosm
pist
##ela
shallow
cher
##iaz
preventing
watermel
nebr
vas
##ommon
verm
edges
jeep
stern
legislation
##md
##etary
habitat
suffix
##mal
deoxy
ratings
##ouver
carot
##estinal
##licit
ribbon
##lyn
biography
##oms
halfway
##iasis
wra
zod
constantly
guaranteed
##icy
##ea
kat
intestines
integration
universities
intestinal
##ounter
stimulus
##ctic
##oping
offset
1500
wales
boss
champion
nebraska
##weather
aftern
cycles
congressional
legislative
##intestinal
verify
cape
##ytic
sear
auton
upcoming
liters
awarded
newly
austin
##paid
rheumatoid
lumbar
uv
ward
ants
reflex
misc
monster
cortis
##roit
fungal
##omers
twel
careful
deficit
ein
##era
sweden
eliminate
patri
tomato
impossible
##ements
gmt
cumul
##oler
investors
officials
##mont
220
fargo
rolling
chloropl
pace
blisters
swift
gastrointestinal
failed
pic
dramatic
twelve
grants
driven
watching
swedish
quit
filters
tablespoon
besides
polyps
backup
blues
fought
turtle
zodiac
victory
chickenpox
oatmeal
technically
##stood
specify
trend
encounter
argument
missed
wouldn
lighter
indoor
encomp
passive
nile
beaches
syll
overhead
18th
organelles
tin
##sl
##try
myel
efforts
##apes
atmosph
offenders
navig
##abs
basics
##print
brian
edema
nix
earning
dating
semester
thermal
kel
##apped
molar
ves
caught
mos
##sement
pads
declared
nashville
##emony
countertop
##nity
scul
balloon
pittsburgh
transmit
appetite
chambers
contempor
ery
##raction
##47
##stock
conscious
partition
misdemeanor
##vic
intoler
indicator
seizures
colony
erect
##king
brass
inquir
vancouver
dimensional
hud
##oors
##inkle
##66
##rolled
carbonate
reaching
theater
1800
crick
equilibrium
mutual
ave
1964
sponge
monitoring
sending
shade
imaging
combust
elderly
phases
developer
##itudes
proton
suddenly
rotator
##erce
aerobic
turb
desire
wildlife
luther
politics
subtract
contro
##ophren
airpl
violation
electroly
motorcy
featuring
##ipts
urea
eyelid
proven
availability
adoles
scout
##ubs
maintained
##rag
versus
dubai
doubt
sciatic
comcast
##28
1960
temple
compliance
payable
afternoon
nike
aquar
debut
aortic
grind
nucleotide
marvel
bedroom
tornado
reservoir
dh
carl
heartbeat
boards
bringing
##rise
petro
vest
gums
sharks
##opathy
blow
existence
schizophren
enlarge
lav
alive
uncommon
vend
##pers
##sterdam
pediatric
stopped
grades
solve
ceremony
1970
initi
polymerase
partially
strat
##bsp
intermediate
basal
##iant
chero
disappe
cultures
selective
pulled
nu
ureth
npi
prize
geograph
##ophen
240
##athetic
peoples
experiencing
bail
interc
gained
recycl
kitt
tampa
##ares
flame
adequate
piv
blade
anthrop
nv
soak
basil
flavors
1945
##35
treadmill
##olid
amsterdam
furniture
pip
collabor
##rows
underground
##fo
perp
entrance
rick
sells
athletes
transcription
concert
controvers
ka
##idays
squir
dividing
oyst
##imeters
losses
neurotrans
uranus
knight
prove
delay
harder
liv
1986
shoot
landscape
cisco
##ayers
magnitude
expend
perspective
cous
permits
pp
##imited
needle
punish
##65
applicant
lobster
intervent
retain
plains
cabinets
jurisdiction
lion
weed
cement
##osin
##ricted
edward
##obia
completion
circulatory
revolutionary
vegan
165
grove
danger
latter
endang
improved
poul
insured
progressive
quantities
traits
##bel
##initis
##isation
animation
##21
proceed
portug
##min
watermelon
jama
investments
slight
##isy
casual
##sex
chains
granite
##isition
grape
saved
##hist
##rophy
obviously
placement
absolut
pleasant
##di
proud
charlie
kir
courtesy
recommends
oceans
perfectly
whis
quiz
##rael
guidance
developmental
ruby
tm
##ento
fits
nucleotides
implants
redirect
wholes
quiet
lug
suite
escape
rows
revers
fry
eukaryotic
##olor
1968
##chlor
##nis
laur
surprising
prey
##worth
sickness
strategies
governments
1969
##azy
assuming
diabetic
gab
heated
enables
endocrine
scientist
tuber
championship
##parent
dancing
breathe
##eston
preparing
##ito
automated
almond
slo
rhode
organizational
hpv
schizophrenia
##attles
killing
nixon
grace
versa
communicate
jenn
caesar
trimester
##27
categor
technologies
agricultural
detroit
genome
punct
mesh
fries
noticed
hormonal
##factory
##lings
nucleic
anthony
kim
##elson
##hu
genetically
eryth
strawberries
penc
aggreg
liberal
celebrate
puts
adhd
3d
neurotransmit
enem
iran
liquor
neutrons
##umbs
rim
scroll
deleg
##timore
perennial
surprise
fertile
quotation
viewed
samples
##rosis
phrases
occupational
examine
entities
trek
injections
bod
bib
burs
##een
printing
shed
morphine
sweat
atmospheric
##ading
##alf
seafood
navigation
inm
furnace
proportion
borders
kevin
hob
contemporary
secretion
malign
passengers
surviv
##eland
ongoing
forg
renal
##ambig
##arf
mystery
deviation
graduation
cliff
##ieves
israel
##ello
baltimore
unlimited
intellectual
varying
denmark
clothes
leather
yester
volcanoes
##bro
saliva
packed
gentle
washing
boxes
exceptions
nm
epic
cloudy
beard
legacy
bitter
##eries
##urred
##ez
##arin
##aminophen
ldl
ia
disabled
expiration
tiger
swiss
kittens
bmw
pv
##issance
replication
##uto
cherokee
skilled
anchor
knew
mixing
theatre
##ieving
fict
parli
rt
subd
districts
yesterday
##away
clearing
lipids
acetaminophen
##anas
receipt
325
influenced
tsun
mathematics
ted
visits
sociology
accessories
judgment
obese
nonprof
##ikes
lighting
hart
##ologic
sampling
virtually
consent
##ni
resc
additionally
cultiv
dad
fauc
##ifl
formul
photography
imagine
##xus
dir
servers
condens
145
inflation
##44
outstanding
monoxide
laud
preheat
associates
deductions
lifespan
participate
populous
ladder
##rell
conqu
decomp
dining
securities
##break
vodka
accomplish
citizenship
exclusively
retired
controller
jesus
equator
strept
bark
##icillin
cereal
demograph
dor
ginger
##alam
##acic
pancreat
disturb
ah
consuming
strawberry
instruments
alp
annivers
opio
flags
##cemia
##una
indication
noise
antagon
matur
hcg
##erated
populations
gy
##sters
parliament
tigers
diets
voluntary
planting
malt
charging
1972
##uda
commerce
minister
skull
engineers
1960s
##uent
squee
tablespoons
particle
licensing
soph
dividends
fetus
##atherine
compressed
trends
##eping
defendant
##etr
roasting
dal
dict
lava
mason
##iere
tiles
##avery
##oys
illnesses
talent
15th
gb
uncle
flax
neon
interactions
legislature
##die
reject
heath
durable
cramp
crucial
dean
signing
glycogen
marath
concentrated
poultry
calf
105
ampl
append
checker
publishing
##eman
realize
dealing
semen
prox
heater
rigid
defer
conserv
##ometry
tib
##ci
##lycer
edible
##illary
reput
offense
heights
automob
rica
inr
##rels
diverticul
niac
sensitivity
evolved
cytos
offs
puzzle
interactive
continents
encourage
disambig
ng
objectives
##mouth
bee
##usions
resorts
##67
spiders
##erman
caul
##icks
joy
##ailand
subsequent
jaund
1984
##rob
niacin
##loin
designer
radar
##osystem
coldest
disambiguation
##imen
feedback
motors
debate
vulner
manh
lying
deserts
implantation
thailand
synonym
##anned
##anges
theories
consideration
wooden
anaer
abstract
premature
pumps
incomp
##neath
laid
homem
chile
blast
juven
1982
gauge
ing
acceptable
merg
##med
underneath
destroyed
assault
##iding
mrs
##eton
strains
starring
##rs
avoc
ls
##nia
neph
combines
spinach
translations
##boro
pollen
chase
calculations
groin
pars
attended
collective
investigation
separately
affairs
mitochondria
shades
holidays
sacram
##iti
gib
ordin
andy
##peare
squad
integrity
hello
lucky
##han
annuity
kings
lp
##eres
lever
##aws
funding
tallest
##fit
##anine
ceiling
scand
shouldn
capture
ronald
ko
liquids
jaundice
hog
len
usda
cinnam
constructed
iraq
hugh
##aturated
hilton
couldn
representation
puppies
apprec
twitch
addiction
optional
seasonal
dye
##leans
stap
timing
cucum
##asion
anniversary
nad
inspect
fedex
shoe
rectang
methyl
worksheet
##ager
holy
emper
cannab
prolong
##cery
cartoon
witness
ammonia
arranged
absolutely
mud
rely
##ceeding
earns
ie
##che
shield
1988
overd
solute
##rich
beds
ku
##bu
interval
minus
binds
belg
reagan
orleans
daytime
pn
gay
##ocard
bolt
shakespeare
conjunct
painted
memor
elite
separation
rolls
joining
bios
buyers
brid
raising
columns
co2
ere
physically
workplace
frog
spelling
slate
1965
railroad
readers
##iolet
differs
115
sucrose
troops
xp
##stones
representing
gt
clots
nass
rip
drives
endangered
demographics
dj
rena
peanut
##kary
combustion
ye
##otive
guys
sweating
carpal
##usp
regarded
##how
##berts
liabilities
understood
strongly
lucas
folate
ecosystem
siding
deeper
chromium
beverages
topical
hospice
covalent
biom
shops
adhes
recessive
pals
##rian
suffered
aneurysm
clue
harvey
totally
sunrise
##agara
farmers
##inder
aches
wren
brace
listening
irr
upload
correl
arrangement
oxycodone
kong
feathers
16th
1974
manufacture
salem
wellness
ionic
metres
shir
distinctive
notable
moons
mining
1985
cinnamon
preview
guil
viewing
interests
grocery
subscription
rational
##36
envelop
mutations
smear
brady
##holder
conclusion
infin
controlling
vanilla
environments
papers
consolid
autism
gains
cem
##front
##otroph
unex
winner
licenses
baham
lad
maker
ingest
studios
effectiveness
mlb
##ken
retin
senators
##comes
stuck
presentation
login
sedimentary
##hal
coordinate
1975
##lan
tied
##itz
hottest
christopher
##rist
maya
##nings
comprised
pivot
buffer
##ilation
neural
margar
##26
##itable
enabled
firms
consequences
cpt
rotate
incorrect
jac
accuracy
ping
warf
nat
niagara
portland
synthes
lauder
exped
cooler
favour
renaissance
1977
wast
everywhere
pelvic
arrived
petroleum
sacramento
fha
##iro
knock
1987
slices
tanks
prokary
spices
knees
##idae
ate
hered
distinguished
hunger
inferior
endomet
##otrop
spo
panic
hydrox
##vet
differently
##inum
seas
pains
assass
newspaper
##yal
indians
alf
mete
performs
crossword
triple
qualifying
thoroughly
embryo
kiss
watery
acquisition
##iano
espress
##arynx
manhattan
admitted
nept
inserted
##edge
1971
petition
weapons
melt
crisis
possession
hack
borough
prone
cookies
dash
std
webster
nelson
##itches
##reeze
foam
titanic
batch
1961
##iscal
veteran
nt
careers
similarly
disaster
##ously
module
accessible
##amel
homemade
seating
shaft
rug
##amese
coordinates
hollow
##green
bald
ribosomes
alternatives
substrate
steaks
##anted
recall
crystall
genetics
defrost
payroll
animated
chewing
riding
graduated
cranial
cortisol
osteop
stimulates
mirror
melanoma
espresso
tides
1973
stiffness
##while
administrator
hamp
stems
websites
financing
recommendations
expanded
epithelial
stev
seventh
dyst
clip
parad
saus
anaerobic
poker
supplied
nonprofit
##lington
##ogy
esophagus
##atar
##oto
nicot
conjunction
##pread
odd
##patient
sleeve
ethics
identifying
selecting
optimal
drying
1967
wides
##lux
remained
minimal
complaint
lor
restricted
calculating
subjects
reactive
tweet
eur
chee
detection
confident
##gie
basin
commitment
lesser
tournam
spas
mayo
dodge
##odont
richmond
##feeding
##heimer
fictional
progest
1983
overse
syst
dwarf
##ieval
nights
placing
##utic
dimin
onc
##aki
inflamed
##enic
curric
slavery
activation
##rot
approaches
reproduce
17th
chev
confirmation
vic
indones
remedy
catholic
suspension
toes
exciting
improving
songwriter
junior
thoracic
neptune
conservation
##ictions
dont
trait
dressing
mayor
recognition
dishwash
##storm
admissions
plywood
cabbage
monument
poet
shortly
nigeria
oceanic
trusted
aka
flesh
monkey
pencil
##power
plumb
##phones
lil
xan
conditioning
sunflower
damages
dove
1979
selen
ale
##bled
debr
burst
pathway
cortana
melanin
toast
carriers
arrested
armed
thesaurus
##rox
regulatory
oriented
rv
yan
##amous
thym
buried
convenience
metallic
aur
medal
1970s
alcoholic
##ructive
mins
attending
billy
requiring
hyperth
zyg
##ho
##aptic
marathon
lauderdale
redd
victim
kitten
pent
##zed
parkinson
adapted
crimes
olympic
##neous
rocket
predomin
fruct
thirty
renewable
juvenile
phenomenon
fulfill
trunk
##ishing
optim
chew
gloves
critic
han
reim
imbal
embed
lac
stability
revol
venom
dougl
electoral
passion
possibility
knife
14th
romantic
##fly
##iceps
##ername
leafy
lubric
##88
faq
ks
presents
breastfeeding
nominated
fleet
authorities
noble
taxed
fibrous
nouns
##bes
##urg
bites
trustee
wise
##apt
harris
cpa
##apping
rosa
venez
jazz
##ivia
myself
aviation
antonio
pyramid
##ogly
1963
fertilizer
bahamas
landing
ruled
jane
precise
kate
amber
deploy
135
wyoming
palsy
shirt
##onucle
carcin
provisions
##iar
temperate
ratios
symmetry
oph
suscept
montg
searching
cuba
umbil
campbell
attractive
##aya
metam
365
responses
bmi
completing
singing
portra
##psy
herbal
boyfriend
strategic
teens
manifest
naval
##etical
searches
defining
forecasts
readily
ports
ay
suicide
supervis
voting
chin
peppers
dism
fiscal
stall
##idepress
trials
upset
neutroph
widespread
sab
##bling
meteor
##aded
challenges
10th
igneous
proph
##ivitis
hose
broke
converting
labeled
inheritance
athletic
neurological
tops
pulling
patches
reviewed
habits
fetal
##37
##64
##emic
##esc
##pring
pools
loud
miller
learner
sang
##section
alice
detach
screens
##ophyll
roads
stimulation
##van
##ortion
spell
norway
qualities
1980s
ignition
cush
behalf
victims
bou
db
##days
disabilities
equally
citation
fossils
cumulative
a1c
producers
picked
susan
antidepress
1976
coolant
ventricles
pud
coated
fd
##omery
hired
##isons
myr
##ermint
##health
bypass
vermont
##wick
containers
persistent
kb
crem
authentication
manip
colitis
##ograms
celebrated
lent
turner
venezuel
pix
poem
isolated
username
likes
quantitative
bits
##lev
arctic
ctr
montgomery
pse
sprain
territories
concentrations
derivative
penis
loaded
cleanse
peppermint
wo
perce
makeup
presley
flexibility
heavily
##fs
xanax
ross
flowing
cott
eps
authors
tectonic
##oned
turnover
##enh
alz
interpre
alongside
osteo
induced
valence
bikes
melting
##las
##aze
judges
linkedin
hips
profits
marin
kilow
hydrocodone
lesions
parade
compressor
##dup
##arthritis
iso
reward
invention
pharmacist
presidents
bitco
settled
airplane
tai
sigma
pione
regress
eruption
coloring
taxpayer
builds
filmed
inhal
eagles
dorm
inex
##olin
conviction
prost
matches
innovative
physi
belonging
##opard
cameras
brooklyn
unre
antigen
earthquakes
pending
sover
##keys
elections
commander
nichol
apartments
economics
implementation
blindness
releasing
berlin
toss
##onts
##utory
hipp
ultra
##agu
permission
demographic
broadband
stocks
folk
mh
telling
##29
compos
sovereign
colonial
##rad
incision
finds
facult
bs
##illet
##iances
##eroids
mcdon
narcotic
warriors
wrench
minne
sends
uh
juices
python
recipient
taught
flooring
fructose
##marks
greg
pand
descend
interpretation
sco
endor
modification
destruction
inhabit
6th
mul
fluct
jelly
significance
victor
guilty
repairs
registry
reflects
lisa
hyperthyroidism
roberts
rainfor
diversity
1900
retention
##screen
jay
sync
webmd
mandatory
##itol
burial
attribute
##unds
propri
cocoa
threads
radiology
arrival
unlik
seb
##aneously
faucet
fake
lenders
##tics
distinction
coughing
raid
roasted
##most
invasive
mailing
breasts
narr
hsa
##yard
staphyl
maple
wholesale
tens
coil
formats
comprises
hiring
##mo
diaph
tent
violent
wins
##nie
swing
transparent
varied
ipod
##zes
##olysis
##illation
urgent
barack
athlete
buildup
##arn
repet
godd
summit
eleph
leonard
weaken
##gry
citrus
conclud
usps
stainless
isl
tray
insertion
towel
historically
orbital
alzheimer
unlikely
combining
therape
convicted
numerical
induct
forens
168
streak
simplest
instances
couples
pell
##link
inver
##utical
uterine
southeastern
racial
douglas
sage
##ertz
pseud
behaviors
thesis
fmla
motorcycle
transcript
eric
##apore
occupied
ine
interchange
incontin
sheath
refres
ect
##ders
scales
##azep
lem
enrolled
ug
booster
##oric
faces
legendary
jamaica
umbilical
1978
cosmet
alien
##athan
impe
dissolve
rehabil
##raz
portfol
darker
graphics
abbreviations
cv
tightly
##lation
lax
ware
senses
kelly
pant
convey
codeine
ranking
cortex
##iates
sew
outcome
technicians
##riage
quarters
silk
104
guides
implies
provision
cpu
phle
secreted
vern
##lon
sealed
youngest
osteoarthritis
regulated
ringworm
##arbon
exert
planted
substantial
##uty
discs
isot
pren
trucks
##gon
##oden
elsewhere
hib
helix
celebrity
##uman
counts
acceleration
##alamus
bonding
reconst
ee
slab
hardness
grab
102
communist
ppm
urethra
##oos
##amines
destinations
##rain
##entine
##opsy
extraction
prohibition
experimental
explosion
conve
permanently
tsunami
strips
guate
attempts
##apers
contest
cannabis
easter
refinance
incontinence
##olk
##teenth
singapore
billing
goat
typing
microphone
##essions
enact
participants
arom
depot
hazards
arise
mrna
minneapolis
exting
sticker
##ifi
succession
highlights
hampshire
metamorph
extingu
rats
princeton
cage
##aza
specialists
hdl
heartburn
prednis
adoption
inquiry
kits
bacterium
vaccines
gateway
deoxyrib
hudson
##aceutical
firef
fifty
findings
writers
stimulating
##ymp
delivers
pir
architectural
pater
##itations
glac
ranger
stretching
##itate
wizard
dear
energ
adolesc
maturity
##0000
catheter
render
termed
converts
congestion
sorry
malignant
sprouts
andre
##estrial
##activity
thresh
layout
##38
engaged
vik
1955
chloroplasts
ctrl
##books
revenues
wider
fore
dawn
rounds
canned
##iflower
##55
exch
loyal
happening
berm
rankings
comparing
needles
analysts
mim
acetate
trap
foreclosure
intolerance
intro
impairment
dens
lowering
studying
vertebra
sphere
chord
infusion
##retion
watts
emperor
pestic
cole
dividend
dayton
computing
caval
sony
collections
crude
gallery
sul
##lox
solo
corporations
cavities
samuel
confederation
bumps
cauliflower
kia
lys
partly
residency
subsidiary
##thus
##acin
##code
blender
activated
francis
stanford
tbsp
nbc
returning
fibr
##vals
accused
ltd
duplic
cuban
dy
identifies
cartridge
veterin
##bid
brach
##nish
albert
unst
maid
plumbing
determination
##iliary
hoc
civilization
kern
loading
platinum
vulnerable
sings
olfactory
sponsor
philosoph
attitude
magnet
comprom
sustained
snee
autumn
marshall
roku
reflux
ovaries
torque
hep
streets
feminine
taller
fellow
optic
7th
jars
##ani
##erness
classroom
macro
apparent
scent
labour
selenium
beverage
##oderm
##izers
distances
##ahoo
mounted
##bot
##acellular
equipped
diaphrag
##ouses
newer
lawrence
gael
kenya
collecting
seizure
weighted
attachment
spotting
allele
incredible
bold
cf
baker
wol
##eing
##iper
lov
literal
depr
starter
##ira
confusing
stopping
cricket
21st
warmer
shaking
##grav
ith
pimp
consecut
treats
slip
spa
specifications
##know
dess
limb
systolic
assistants
espn
stun
schedules
privile
375
shadow
ub
210
automotive
disin
888
extracted
ral
##gary
outbreak
aa
##irus
disneyland
incubation
ses
robinson
##escent
##itus
lieuten
mla
##uria
staying
glen
bananas
priced
acl
graham
rounded
gary
1950s
reputation
tac
seriously
650
emit
weapon
vig
##olia
maxim
tours
dishwasher
##verty
radical
ethanol
impeach
supplemental
diast
riv
##oplasm
##etery
laura
prolonged
regression
dors
warts
abilities
225
thicker
##star
mathematical
shep
steady
snails
flowering
establishment
emotions
ophthal
##eem
grid
visceral
cemetery
diaphragm
offspring
debris
predominant
cited
dick
##olulu
solst
moroc
chevro
##enia
stitches
presid
lands
approximate
slot
ibm
celebration
hex
awes
shells
migraine
emphas
apoll
promise
automation
engagement
agon
poverty
cameron
##othy
1947
abnormalities
goddess
generations
austria
penalties
disl
larry
dolphins
##77
venezuela
honolulu
dumb
geographical
linux
carnival
resolve
beneficiary
kilowatt
##mala
smartphone
aggregate
109
ballet
##ocent
h2
##advant
##ogens
##axis
forear
##oscopy
automobile
##oning
##ructure
##ril
##mus
##anne
##check
ads
rever
commands
achilles
dd
cuis
##ilia
chevrolet
##aus
##irable
mah
lithosphere
spasms
coma
tenderness
prospect
optimum
unified
grounds
##agh
bce
##ertain
550
fare
tack
interstate
emt
hydrochlor
ellen
therapeutic
##ran
refined
wright
analyze
##ellation
acknow
##no
nationality
dispers
operational
travelers
gaelic
##rates
loos
routes
cottage
##hed
insol
assessed
hypot
##cardia
lieutenant
##elia
poland
promoted
entre
deadline
aggressive
berries
attraction
wheelch
oyster
threshold
##39
flip
chili
mate
bls
playoff
tide
delayed
tus
upright
lessons
incline
weights
recreational
forensic
portfolio
oakland
xml
medieval
freshwater
stimulate
notation
ceramic
tsp
hemorrhage
guatemala
bruss
excited
taxpayers
cramping
rif
medial
promotion
titled
1962
athens
personally
duoden
epiderm
beliefs
tubercul
scheme
grilled
fluoride
til
##iever
anyway
runny
cdc
dragons
poetry
ankles
##pie
1941
3000
pharmaceutical
invis
welding
premiums
assumed
thumbs
jewish
thrones
undergo
slope
sensors
deadly
hughes
inability
inverse
##uter
##cler
protecting
owever
jade
varicose
unity
musician
rectum
metaph
specializes
##virus
sticks
oats
bris
okay
prenatal
hasn
outcomes
generator
divisions
celiac
##cline
##tures
##zo
terrestrial
consecutive
##tail
resign
matching
occupation
enhanced
##34
dimension
increasingly
keratin
preserve
suppress
obstruction
##awa
obtaining
expon
deciduous
cakes
gp
actin
founding
pressing
frogs
pinched
beam
##ulates
halluc
##case
serge
conception
aure
##reated
archae
##accharides
congr
shamp
maria
##nea
lithium
flies
faculty
ist
humming
bricks
##ige
osmosis
gaming
curtain
swell
contractors
weighing
pelvis
susceptible
watchers
indicating
burden
affiliated
extinguish
whites
paso
coven
wrink
hereditary
amen
grammar
##ko
##omnia
chill
##illion
slaves
substit
oracle
deputy
carter
##wealth
deleted
##eon
##thr
inexp
dessert
lect
##sole
shortest
fertility
heavier
bicarbon
dozen
civic
floors
glossary
formulas
tier
bund
crane
belgium
pts
hipaa
unwanted
awesome
pam
indent
apollo
infinity
##ocal
hammer
##igrant
ethnicity
reign
bra
lightly
statutory
strange
hing
s6
calm
skillet
requests
influences
tracks
heaven
flavour
herself
prednisone
##itic
minim
evenly
superf
premiere
transformer
pancreatic
##ooked
subc
##acc
disclosure
1933
pants
##erone
anytime
apparently
compiled
squat
kay
tact
cone
evergreen
redirected
divides
8th
gifts
##ettes
prescribe
simult
biochem
originate
reveals
##rage
compuls
slim
accumulation
##75
emo
hdmi
sausage
insulation
commonwealth
archives
850
hosts
graphic
complementary
##rical
nicole
curriculum
##base
##oprote
volatile
marie
dmv
optical
##held
displace
##ova
donor
appearing
cables
##lass
query
increment
portr
borrower
involvement
hsv
portrait
staphylococcus
mck
##abul
toen
barrel
involuntary
##omical
##cha
maintains
attendance
coordination
stains
chose
##agger
sciatica
comed
curved
summar
##eria
griff
php
enclosed
fasting
adjustment
refrigerated
slower
##yers
##stru
airways
fails
nod
everest
renewed
108
gates
cep
peg
sandy
coaching
hier
anthropology
##eses
atlas
shan
##osaur
##prene
spreading
deposited
##ylene
correction
solstice
persian
dirty
separates
lipid
moistur
bait
outline
combinations
opioid
##part
pert
luggage
##iser
manually
coined
glue
strengthen
##azole
dialing
punta
nasa
##abyte
squirrels
bicarbonate
gol
sons
greeks
dominican
pride
introduce
miscar
pulp
hint
ethiop
assignment
orthodont
##illac
logical
ncaa
catalog
challenging
gil
alliance
##iazep
manic
describing
holmes
##vd
beast
plexus
##achy
slave
soils
budd
gis
editing
practitioners
chairman
farms
uncomfort
##borne
entreprene
##rac
accu
solids
##ducing
originates
230
residual
integral
households
##wan
lighth
##izations
modify
robb
participle
obligations
exams
##acular
cluster
disadvant
oxford
hemorrhoids
aaron
nsa
##uscular
exceeds
epa
boxing
tenderloin
cadillac
lute
##48
timeline
continuously
##rys
extending
clubs
##aping
antioxidants
cinc
insomnia
remind
1990s
gametes
##do
arthur
##iferous
visited
firewall
wrapped
bunch
chim
##phis
blocking
locked
discipline
footage
collar
consistency
matth
abroad
crossing
swallowing
credential
##othermic
##lenol
hese
seam
suites
spice
amendments
##tuce
bout
opera
impulses
##itt
populated
propag
predators
mechanisms
##owed
shoulders
mainland
alternatively
merely
benj
salvador
damp
flap
bermuda
informed
traumatic
rehabilitation
helpline
credited
forearm
cite
##walk
lettuce
counseling
lh
usc
spoon
tylenol
casino
orientation
exhibit
cosmetic
lookup
eighth
##rite
menstru
propane
fractures
descriptions
logic
russell
electronics
hanging
rescue
vikings
lamin
sees
centered
poisonous
bicycle
##bec
chad
commod
immigr
tendency
insuff
1966
messenger
girlfriend
suspended
cincinn
frames
bottles
avocado
indonesia
tart
##ocated
warmest
consistently
cracked
chalk
altered
proportional
##ois
##getown
disrupt
handy
removes
holland
participating
recession
versatile
##arsh
infrast
struggle
sprinkle
thirds
streptococcus
##ados
##autical
conform
##aha
temporarily
tricare
queensland
##eenth
alge
1040
subm
governing
traded
navigate
dix
busy
shrink
herm
lcd
##iley
prepaid
emissions
diverticulitis
diy
posting
iconic
sarah
##amide
lizard
##uv
recycle
##oked
##eli
rept
butler
12th
spru
spoke
colorless
floating
binary
dend
sut
wifi
chlorophyll
parish
memphis
##annah
##68
owls
strugg
collins
microorgan
##facts
requested
ather
conversation
championships
ammonium
##istle
subord
highs
wrest
crisp
bare
##ithm
friction
comics
expired
differential
stal
enthus
endurance
##plus
##illaries
##oped
##quin
informal
supplier
deepest
constitutes
hummingbir
##vi
jackie
inclusive
zygote
##vable
entries
##namese
##enson
cry
benjamin
races
ralph
permitted
##aches
monarchy
veterinary
bruce
pursue
enthusi
starred
spruce
##grow
steering
bulls
autonomic
kw
##kg
##pg
asphal
beth
remark
statue
##isional
phant
lengths
relaxation
marion
ducts
taxon
folic
console
warren
kinetic
essentials
concerning
napole
observations
printers
vietnamese
neutrophils
mice
pens
supervision
ds
formally
accuweather
donkey
tuberculosis
##enna
##anson
chevy
transported
observation
skype
##ols
##ching
condu
bott
palace
##orth
helium
cereals
observe
heading
gait
gamm
tram
strongest
triglycer
dic
worms
intention
occurrence
albany
voter
270
fermentation
enemy
hydroxide
ethern
tony
##zech
laugh
##yp
##inator
cana
tourism
embedded
inexpensive
ethernet
gn
stake
##week
##boy
lymphatic
dynam
acronyms
cherry
btu
lasted
impressive
##km
##ques
capabilities
dialysis
succ
capillaries
teaspoons
fantasy
uncomfortable
hong
nan
tcp
styl
##amation
scatter
packet
hosted
scrub
repay
bodily
brig
roofing
mucous
103
protest
custody
##ika
blockage
1940
danc
##ato
unic
drake
segments
debts
voy
perception
subur
comparable
rupture
fenn
hav
##ghan
sof
fitting
lingu
##arse
##icate
spart
obligation
deferred
lamp
149
shareholders
cincinnati
deform
minimize
metast
iris
emotion
demonstrate
compete
volunteer
fern
borne
viable
dialect
denn
storing
alexand
theorem
##tec
chemically
terminology
lone
##erative
##ali
##ivores
retained
immunity
recreation
infrastructure
sting
georgetown
aureus
investor
algebra
nuclei
confederate
contaminated
complaints
erectile
gord
moss
boats
indianapolis
chopped
##sten
disag
carr
rangers
schema
smoked
sternum
progesterone
jason
anten
suv
resin
libraries
##olo
mortg
efficiently
s5
stats
barley
##agues
attaches
##dia
surve
biopsy
stol
curious
resulted
refresh
alarm
pickup
untreated
##abulary
##acea
sms
retro
favourite
asphalt
##ozyg
wipe
##nest
thereby
appliances
##ogenesis
dinosaur
solely
cousin
##gun
bonded
suspected
matthew
dull
##agic
1946
rio
aquarium
##ermost
128
surety
steep
funny
##proof
wheelchair
grande
aph
lions
musk
connector
creatures
undert
imbalance
tenth
myers
favorites
pushing
mistake
1959
coding
tonsils
edison
customs
mistaken
##tion
issu
preventive
cnn
morocco
##berland
qualitative
yours
angina
expenditure
hap
appeals
reception
voted
stere
belts
abscess
pints
presidency
battles
cb
##abling
recru
corrosion
blueberries
mong
sten
accordance
scenes
lifting
regulates
##fu
##fire
##isp
belize
cou
gust
naz
##79
##ulating
shale
fidel
hockey
3g
cater
##iour
kwh
chron
potent
mend
rods
inhibitors
##rest
folks
certificates
shuttle
precious
trailers
accompany
wv
masses
capsule
chan
fired
##glasses
nassau
withhold
whooping
considerably
melon
triggers
ordinance
##gate
alve
silicon
bart
seism
cargo
addressed
photoshop
barbara
diploma
pins
leopard
czech
##vak
##utor
clog
vocabulary
##father
fallen
cornea
complexity
inventor
enjoyed
nicholas
acquire
mash
##comm
##astics
mythology
shepher
##olith
secured
aq
##rod
procl
schw
sah
plaza
bry
creator
conj
simplex
ocd
sought
##idine
newton
##market
charger
sympathy
oxygenated
fortune
mcg
strang
polo
traveled
1958
tuna
cellulose
myrtle
pointed
forums
cyan
fonts
unions
infinite
loving
subscribe
bapt
##fruit
##orpor
280
compassion
litter
##kyo
troubles
tournament
brun
milton
##brates
refunds
sellers
insoluble
preval
monetary
gravel
cooperative
adenine
dock
madrid
fertilized
transm
countertops
##atson
##arians
cant
cardi
fennel
wounds
url
gorge
##clerosis
##clo
restored
rentals
sliced
##hand
25th
##iments
##ugs
##ahu
barn
methodology
bordered
diastolic
ptsd
statutes
streams
cdl
uncertain
intervention
twins
crazy
anticip
absent
abr
##ghai
tsh
decreasing
envelope
##unks
captured
fantastic
##cutaneous
conservative
##aka
bred
axon
hypothesis
graduates
nautical
sax
tokyo
projection
accurately
spont
announ
##uspid
helic
instantly
psychiatric
spicy
geometric
contributed
machin
gamma
succeed
buds
fdic
counting
beverly
tul
kale
yahoo
##avail
joins
taxi
execution
surrounds
attributes
moore
healthier
vestibular
cay
1939
inspiration
disable
brussels
gyn
headed
ling
td
##oust
perry
mills
improves
reimbur
glad
minority
bh
ballot
rolled
millenn
brill
1954
mosqu
phantom
##icious
denied
egyptian
##din
bytes
descent
woods
compart
colomb
piano
mustard
discard
luke
giants
surprised
epithelium
parameters
sneezing
##uma
320
cruz
##cephal
incidence
intra
##aug
##ilyn
dramatically
##tosis
coe
tribes
prevalence
hash
balls
mitral
configure
celery
tastes
boo
##mat
robot
hoo
shif
155
arena
bitcoin
chor
##incorpor
wels
##etics
graft
intervals
distress
functionality
yor
phy
fool
geometry
hend
##ectomy
naples
nsw
methane
cuisine
sessions
organelle
smoothie
interfere
heroin
pythag
antar
thrombosis
##85
argent
yoga
legumes
portal
goldfish
##asant
rex
myster
ruler
prosec
nec
scam
adaptive
##bral
chand
kilograms
penny
ulcerative
yields
knot
backed
kilogram
bum
##orp
keyword
breads
southwestern
microscopic
dunk
kal
tune
poems
conjunctivitis
cns
translated
adventures
terrorism
twitching
warner
faced
mechanic
spotted
americas
talks
##incorporated
boeing
antif
13th
amongst
scholarships
danny
##hill
5000
quebec
ferry
asks
categorized
##atility
canine
joh
harsh
##orrow
##sem
##illo
cyl
reflected
conduit
barg
behaviour
##vo
##opol
motiv
suggestions
flavored
incubator
##nuts
stent
thrust
absorbs
lawsuit
dump
##orr
utilize
bbb
gestation
conditioner
##charged
dying
fireworks
rapper
hypothalamus
wrinkles
tsa
loves
detective
catherine
slides
specialize
discounts
aggrav
centimeters
pushed
wart
yuk
##adol
elk
excav
laying
camb
masters
generates
codon
jess
spores
implic
standardized
##liers
oc
##maker
##ulk
compares
homet
heir
superv
covenant
##edd
atrial
springfield
watson
##95
relates
##keeping
indigen
creamy
crowd
clauses
##chool
marker
##bourne
welsh
incoming
106
marketed
marriott
cosmetics
physiology
moines
impacted
frequencies
expectations
gods
1953
chops
moder
annoy
11th
##azepam
wiring
##phrine
##hyse
holders
probate
respective
hull
jou
promotes
nicotine
unincorporated
outs
transverse
tomorrow
flexor
ensures
loads
##backs
1600
benchmark
extensions
qualifications
expertise
perme
timber
cra
steal
acetyl
encompasses
weber
angi
meetings
collision
vesicles
marilyn
hometown
##gies
guinea
devast
educated
occasional
thymine
plugs
bibl
forgot
monos
1200
kilometres
adaptation
##tax
companion
soldier
1957
toxicity
ancestor
linda
oval
florence
harmless
deciding
##etti
climates
aquatic
tries
##izable
##ptic
##ologically
1949
oily
alike
developers
##ascar
gastroenter
mortgages
nons
perc
simmer
##cloud
ovary
conducting
vendor
thighs
incomplete
tachy
##inter
relate
##oxin
dere
dated
##iler
cros
haiti
designers
authorization
exercising
paralysis
empir
farming
antioxidant
washed
chuck
sticky
reefs
rye
##ilk
celtic
phyl
deceased
##kele
cancerous
gymn
namely
everybody
jean
##acer
bullet
butterfly
napoleon
##omon
trains
midwest
staple
overdose
atheros
flakes
verbs
hampton
familiarity
##phen
aired
groom
lon
##endicular
subspec
ancestry
parasites
recurring
perf
turk
arterial
headquarter
sergeant
reads
mcdonald
kath
lanc
##tor
productivity
##ylem
psychologist
existed
revised
hydrated
innovation
quadr
##idav
##osity
projected
1935
1929
imposed
explicit
##hey
sunscreen
indigenous
ideally
vegetarian
reserves
mammal
impaired
dryer
ratified
toxin
tangible
crawl
sedan
clotting
##lad
##wy
inactive
visitor
260
facilitate
##46
##enz
recommendation
tribe
perpendicular
##acon
mothers
##pler
reasoning
fog
leth
xylem
seals
canker
societies
cheapest
menstruation
##ospor
coli
affidav
pulley
trapped
aband
diure
bundle
lyme
##urer
##quis
reson
intensive
##aved
##insic
scholarship
coy
transient
decent
noticeable
cracks
perimeter
profiles
cookie
bracket
miscarriage
mack
cha
posit
travelling
paired
charleston
rebu
bt
##inav
trips
overs
gastritis
survivor
dismiss
9th
seemed
ej
##oodles
spasm
eleg
womb
contributes
symbolic
advisory
bridges
sculpture
##wear
##rocy
wilder
climbing
ally
documented
emphasis
hate
liz
##pected
wint
accidents
freely
injected
merchant
phon
##ipper
oppon
triggered
ethiopia
chess
catalytic
authentic
urge
discon
capitalized
molten
scarlet
microscope
uric
##tha
##ellar
emphyse
departure
raises
accelerated
recycling
hg
##verb
amended
milit
hematoma
dex
brom
derives
866
mattress
neurotransmitter
kuwa
##31
##icts
hail
upward
hydra
retailer
shampoo
##page
##otation
cured
booking
platforms
incent
biblical
bom
##ws
idi
postage
geological
cathed
##42
considerable
discontin
lg
##watch
##inition
sympathetic
waist
peaks
bursitis
cact
pose
rival
##uge
considerations
improvements
mango
agile
curry
follicle
northeastern
jennifer
emphysema
paternity
hertz
shaw
##play
##station
manchester
valued
widow
##track
latex
caring
##ti
enlist
mhz
##aceous
poles
epile
alleles
tolerance
##49
proc
enorm
knox
apa
##aimed
ridges
tabs
4g
kills
summers
velvet
voters
haploid
##eners
##lee
steroids
##oca
accent
collects
pue
delivering
agreements
preposition
nik
rope
clues
belo
invasion
designation
collectively
proposal
void
##xia
fortified
saute
outdoors
packaged
coaches
alleged
kirk
collector
surrender
dispute
thinner
crohn
rogers
##anium
administrators
portrayed
rf
sisters
##rated
embol
berry
vertebrae
eats
null
donuts
dealership
horsepower
portugues
capitol
promoting
##rology
hcl
##hart
##boards
harmon
richest
homest
establishing
stolen
josh
um
##master
##produ
ali
eviction
scandinav
superficial
inland
spectacular
broadway
renown
1919
torto
doz
anaphyl
##illy
grapes
tale
publisher
subscribers
microorganisms
ns
##ulent
marry
retic
fortunately
1912
weld
attributed
frust
nee
transformation
##ayette
locks
concentrate
aes
bore
specially
underwater
restart
adolescents
ry
##aser
pertaining
instagram
avoiding
gears
##oons
##ople
##whel
nanny
spaced
struck
backs
walton
implemented
bbc
107
##ahl
117
unexpected
hile
amy
medically
1948
buttons
##gian
believes
doctrine
rhinitis
capsules
resembles
##kshire
strictly
lined
tinea
phill
877
##agers
verage
terrier
delicate
##spot
##loxacin
cylind
thy
fibre
330
sooner
bucket
tah
reli
beings
systematic
cardinal
evaporation
grit
productive
limiting
rainbow
commercially
threatened
##saturated
##acid
filming
adhesive
anomal
courth
##etamine
quinc
antic
midnight
##otrophs
headquartered
ramp
##iner
tyler
contrary
legit
thunderstorm
0g
difficulties
wastewater
kl
traditions
vegetation
cools
vaccination
edu
poodle
stove
##tery
handles
thinks
overseas
dave
rag
grave
##raft
mustang
molds
dormant
loses
##essed
snowfall
resemble
screws
uncover
specification
##ocyte
utilities
guardian
counselor
##organic
wow
##tys
deser
packs
palate
1913
yeah
rit
pressed
circles
overwhel
restor
jimm
##uan
organize
linking
conductor
stretches
nominal
antonyms
veterinarian
simultaneously
touching
##roc
petrol
robin
accomplished
gaining
##unct
costing
variance
venous
folds
##accharide
vernon
edt
croat
steven
originating
verbal
mv
phd
afb
persu
solen
dropping
recurrent
##imb
contributing
crushed
expedition
immigrants
##osomal
une
norman
##odynam
eyeb
funded
doppler
jake
pied
platelet
surgeons
controversial
ae
##inces
##orean
meanwhile
shanghai
ree
##orrhea
verification
##immer
bloody
impacts
##aryng
suited
collapse
kod
##osures
uss
upgrad
genotype
cumberland
1g
von
emerged
accidental
dame
fires
corners
ninth
##erally
enfor
awaken
##intend
rainy
amyl
lobe
executed
pesticides
renov
climb
aims
lick
zoster
impression
maximize
begun
glycer
##absor
lavender
disconnect
pea
squamous
icd
masc
##ship
arises
boots
provisional
alternator
1956
skeleton
anymore
kuwait
myosin
sapp
quincy
currents
margaret
cremation
governmental
transformers
defeated
clust
scap
peters
clinics
grammy
accommodate
pyl
ornam
clav
crypt
affidavit
subtle
democrat
dodgers
##ozygous
banned
kre
##erus
gems
inorganic
provinces
dennis
oath
porter
##inephrine
damaging
mobility
ensuring
trache
similarities
corned
jerry
extracellular
faint
112
advise
furthermore
occupancy
##ylan
instructor
reacts
governed
dsm
##igs
##ivals
coordinator
##acre
auditor
railway
##worms
unple
disappear
sesame
##bank
stur
petty
habitats
##acao
##ctomy
weir
numeric
cirrh
##mitt
psa
warehouse
anus
filaments
hiking
probation
accepts
hershey
metamorphic
yukon
invoice
finder
scrap
xl
cane
spelled
opposition
unpleasant
loin
##ussis
averaged
grease
finest
repeating
dozens
witch
somatic
balances
erp
ethical
pigs
mead
spher
colorful
dew
homestead
dow
marc
##orns
ordering
intercourse
machinery
asex
actively
decorative
amenities
alber
##ivan
radial
bleed
bronx
chihu
##69
chl
pcs
examined
alexa
##ergic
tails
chills
ablation
quar
influential
complication
unders
theoretical
bos
drift
118
mechanics
leaks
pleasure
cytosine
##erie
locally
participation
gathered
fico
gps
hbo
##ontal
anore
##real
reservation
tramadol
aster
dt
cathedral
moments
pedal
infrared
ety
pend
##dles
suppose
affirm
diploid
lauren
genu
smile
volts
##inoa
geneal
einstein
nitrate
fidelity
pueb
##sis
##udi
recruit
silent
stenosis
millennium
cirrhosis
##aux
tenure
##ulsion
satisfaction
subdiv
emoji
pythagorean
cute
juan
andrea
distilled
melted
casting
podcast
jurisdictions
##oprotein
dand
sans
plague
mono
recipients
anna
##opian
prest
meditation
desirable
happiness
groundwater
themes
essence
translate
briefly
##ean
##aire
canton
caution
advised
renamed
latino
epidermis
##rif
appliance
lipase
exemptions
stunning
tung
ingu
##imet
pudding
thrive
sitcom
cleaned
##edical
cucumbers
tachycardia
ki
quinoa
123
lawyers
efinition
winters
ply
notably
intens
capability
albums
oncology
oint
##43
##ilis
locator
microgr
sinks
remainder
eyelids
icloud
##child
thrill
relatives
attacked
aurora
reconstruction
portuguese
grip
distant
germs
achievement
##des
graves
penet
galvan
lak
ars
##ollow
guanine
sensations
ventricular
##milk
outpatient
patio
hardy
soreness
enacted
##estation
arn
glut
himal
punctuation
shred
##iber
##aukee
afghan
physiological
dorsal
bison
casc
albumin
sustainability
evaluated
atherosclerosis
##ageal
generalized
fbi
pus
##vine
##obacter
miscon
benzod
##available
renowned
##archy
independently
ovarian
pumpkin
preference
pupil
##fel
warnings
localized
mortality
excluding
beloved
eport
interference
foundations
##ledo
antihist
1861
bronchitis
peptic
##aines
indoors
lightweight
inguinal
rud
stalk
##iral
hick
tuck
##etta
##issa
jacksonville
##stown
##chron
chrys
##ockets
ix
chedd
##ups
malays
composer
hydraul
##hou
pra
encompass
consciousness
leonardo
##lig
ans
condos
allied
agave
manufactures
jumping
bubbles
livest
capita
mailed
guided
consulting
vibr
electrolyte
rally
bubble
iced
lend
spinning
neonatal
toledo
##ears
shrubs
cortic
etym
trillion
conditional
claiming
flooding
sna
runway
denture
##tysburg
toys
prair
expanding
culinary
dum
##ingly
polys
solving
480
exploration
endorsement
neil
##ricular
valuation
##cemic
gettysburg
polyn
cubs
daisy
##door
##oba
palp
tortilla
##atom
##itone
medicinal
hosting
assumes
pertussis
donation
appreciate
##osus
##acious
federation
chickens
nour
##atomic
##ths
##ancies
##ropical
accessed
advisor
lodge
rectangular
bonuses
excellence
wherever
sliding
consultant
antagonist
isa
prick
alloys
spreadsheet
paradise
##aro
trails
notification
cysts
experiments
##elihood
##illas
muslim
simon
irre
walter
##zy
treaties
cheer
finale
speaks
lance
phobia
mitch
memories
deeply
gotten
miniature
stranded
##okes
networking
arabian
merchand
variants
targets
courthouse
ole
compost
brist
implied
cafe
deterg
1942
spirits
northwestern
dylan
sier
##aning
opiates
careg
nutrit
##78
##enda
acoust
mae
investing
symbolism
neighboring
benzodiazep
beets
quoted
picks
og
runtime
##weet
soundtrack
toothp
cheddar
corresponds
pst
advocacy
underg
termination
philip
fluctu
acrob
counted
suppliers
dealers
pathologist
worried
coats
charm
batman
smells
lumber
##irl
tran
##quer
backbone
##amycin
reddish
phlebot
lovely
colombia
coop
simpson
orchest
lexington
agonist
stripes
presum
incredibly
##ouches
lien
strokes
omn
rainforest
##kill
apnea
boneless
conjug
##assy
breach
111
fingern
1776
accreditation
inmate
empirical
##bons
prun
##iah
marketplace
##ovo
disposal
prohibited
pect
worm
secrete
racism
transferring
declare
slovak
brilliant
impulse
opiate
puff
focusing
hitting
tasty
##ju
##olds
lentils
##orosis
accr
uncont
freder
drew
topped
##idian
handled
abo
muff
dependency
handful
landed
educator
settlers
abnormally
antenna
argentina
expires
attic
hitch
pall
shifts
##ante
addict
retinal
farmer
##onucleic
##osome
roller
opinions
sustainable
fuse
lis
##orted
operators
fractional
drilling
offensive
incorporate
newspapers
reid
antig
cornell
cocaine
hone
larynx
proved
exceptional
apparatus
displacement
ejac
safer
surviving
duodenum
##oux
comedian
ernest
rotors
celebrities
surprisingly
squeeze
##requ
alan
hect
scored
downward
thrush
picking
therapists
hover
##atre
##rock
naruto
##tv
##acode
allies
planes
folders
psychiatrist
inaug
nect
212
discusses
sulph
##oni
forty
hydrocar
preferences
pigments
720
##enne
upwards
acidity
intraven
subsequently
catalyst
divine
molasses
leverage
1930
appendix
##arms
plantar
coeff
hulk
carotid
osteoporosis
##tionary
hort
intersection
builder
enormous
jagu
drained
##iscus
inhibitor
##98
spat
accordingly
avoided
unfollow
nag
runner
demands
overlay
negotiate
rasp
##atosis
hydroly
municipality
embolism
arlington
barcel
individually
bolts
##eal
trout
##phy
accessory
grounding
tungsten
diph
ust
chia
tep
reflection
##ocytosis
shores
vp
drains
protr
lily
doxy
calvin
distributions
pathology
grinding
hug
##quet
patron
teenage
pes
##stick
barry
gradient
##othel
perceived
epsom
##ih
amelia
emir
edited
stretched
satisfy
warrior
inmates
##algia
nobody
api
##cycline
soo
##icard
beaver
incurred
coh
carcinoma
lows
saliv
terminals
crystalline
sierra
##ifiers
cords
bradley
jimmy
1914
peanuts
alfred
jpg
emer
siri
theaters
gathering
1952
sacs
##abytes
aaa
peru
##raid
encod
illustration
comparisons
saddle
eve
costume
##ietal
derby
pom
##itational
##isely
overcome
triglycerides
ducks
##orious
##avirus
##uffle
hypogly
##ulator
taxation
1937
odds
bp
severely
sacred
diplom
2g
##atonin
##ours
constitute
##lining
4000
owl
reptiles
piedmont
rides
snail
archive
investigate
biomedical
avatar
collateral
1865
abundance
chlamy
ace
bust
shiny
painter
glauc
generating
discrete
announcement
repetitive
bog
##omial
genius
275
mortar
##76
writes
equality
pathways
venture
aspar
canon
##grass
supr
somebody
bulging
ledger
intelligent
eject
attracted
anaphylaxis
reun
mangan
brooke
sequel
poorly
##ococcal
myocard
humerus
initiative
bpm
adul
roaming
##ometers
##olip
suburb
hardwood
comprise
demonstrated
swallow
gif
##cyst
##igram
hearts
publicly
dominated
heathrow
mau
##oque
##anate
modest
flexion
captivity
gonna
lsd
##iating
blvd
##brush
ignore
##urable
markup
fragments
sculpt
elephant
rook
##leep
114
analges
reportedly
1918
##utter
synonymous
##omycin
arguments
brackets
patriots
novels
storms
ail
##zema
##pool
grandfather
roger
predominantly
##piece
fist
thi
stitch
arist
prevalent
splint
pdt
prospective
sclerosis
dill
seaw
unch
justin
discolor
toddler
loosely
barcelona
vint
courage
imported
artistic
multic
##borough
grasses
naming
enrich
beng
##etric
striking
translates
stuffed
derek
pane
##onna
relay
emails
##heated
delight
texts
scenic
romance
circulating
cancun
workflow
122
nationally
inhabitants
##acles
limbs
downloaded
subtropical
defeat
doxycycline
arbit
apes
lacking
fills
##leys
deem
definite
leftover
execute
parenth
dissolves
trademarks
solenoid
##atitis
sket
publications
buttermilk
hedge
sic
##stop
carroll
sword
bali
personalized
parasymp
disinfect
notre
colder
handed
eug
surroundings
remodeling
##eys
stair
saudi
neglig
formatting
rav
##waukee
assert
precision
pineal
anorexia
fancy
mell
##ulus
casein
burke
afraid
workforce
grouped
protagon
engineered
##obl
cultivated
acrobat
b6
wer
##ods
charity
equations
veggies
##oplasty
normals
fiberg
thirteen
improper
crock
harvested
rectal
eliminated
snacks
dalton
punch
2500
republicans
gelatin
ecc
pores
wick
grout
crunch
gui
##41
##uard
patrol
stewart
cigarettes
cruel
##uckle
logistics
salads
auction
astronaut
migration
sorts
##ogene
subcutaneous
owed
fiberglass
##jet
unavailable
bount
xy
stood
areacode
exotic
scoring
buzz
norwe
identifier
eczema
portugal
640
##estion
spong
##weed
hungary
cystic
ancestors
tremor
nectar
bella
shine
##ucco
integer
switching
antidepressants
massacre
venue
weeds
##azing
ferrous
temporal
1917
beating
labr
napa
inhibit
bif
stab
1910
melatonin
gmail
rupe
ultrav
aimed
delegates
bis
sup
truman
##ibed
reck
##mingham
martial
amps
lumia
warfare
cauc
##ovirus
horror
louisville
fifteen
institutional
cigarette
punishment
alberta
salivary
asparagus
gown
scans
regulating
shrub
rashes
ninet
ssa
eleven
synapse
1930s
dolly
##urf
subspecies
ibs
kan
lending
coarse
##uba
pigeon
oranges
decides
ketosis
tmj
epilepsy
saves
##iga
blister
avon
greet
birmingham
romans
##lu
##jan
asleep
distal
finland
##ompson
trainer
faults
dendrit
blanch
spagh
##oidal
malp
pictured
expressions
towels
outlined
sclera
pont
##illus
carpenter
reside
psi
thawed
hydraulic
pests
##imity
knit
##ording
attempting
gyps
sophistic
glaucoma
iata
##rences
moreover
quarts
rosacea
crashes
parameter
beneficiaries
moll
conduction
##related
homeowner
tt
##onscious
worlds
donate
showers
dominance
aub
##gart
##inals
abol
whichever
121
probi
umbrell
varicella
##ilst
##term
radiator
##ematic
reps
urinate
ti
stucco
##emor
minors
copd
microb
##atories
intermitt
twisted
versailles
sebast
##63
thompson
113
##mann
ecu
drafted
mushroom
euc
mia
mug
##ibles
emerald
buses
burger
hopkins
entrepreneur
ultraviolet
##rio
##rists
##olly
cola
valentine
sunglasses
baroque
##iciencies
vm
cones
bulge
gs
##terest
terry
spaghetti
orbits
leaking
brittle
spiral
ties
expire
copied
arrhyth
##after
arrangements
##seed
seasoning
starb
botan
civilian
rollover
validity
retailers
ssi
dopamine
reimbursement
nutritious
pots
shortened
verified
rupt
berg
##rax
clover
drunk
129
likelihood
1789
yorkshire
drows
uc
atkins
bloss
strikes
evans
curs
spotify
cigars
preserved
corpus
labrador
##ede
##lem
uncon
birthstone
drone
intact
ons
##ulous
##ondyl
seeks
currencies
hotspot
##autions
wavelengths
venomous
uscis
##oga
119
pulls
glycemic
daw
##edema
##ums
clon
drip
overuse
emily
##uling
synaptic
landmark
degenerative
prokaryotic
##gm
##61
##ulations
harness
nug
deere
bak
##inqu
interst
paints
nonc
quarterback
violet
zen
##ionic
patric
##burger
brachial
parasympathetic
##zone
##aga
heroes
##ulinum
1867
gangl
pueblo
viv
##iol
commissions
milwaukee
guards
structured
##itives
preserv
##ahua
425
##cen
nobel
liked
##agrams
consultation
bracelet
amni
indig
concord
restriction
supervisor
curly
extraord
alignment
hallucinations
himalay
##upp
inert
unhealth
silica
lite
disapp
##adequ
progression
##undra
accumulated
##iopathic
pioneer
freight
danish
glycolysis
condomin
winners
cooled
neurotransmitters
unstable
whilst
squares
arrives
draws
dui
licensure
herniated
costly
evident
hitler
julius
scenario
mascul
jf
investigators
cleansing
##62
percentages
customize
arabia
narrowing
relaxing
condominium
##rosc
fitted
precautions
initiated
inadequ
stairs
##esters
##eryl
##zzar
politician
consequently
tidal
unve
##acks
psychologists
epidural
scapula
stub
##acts
milligram
warmth
tenants
crocod
fter
##align
goats
specifies
posture
mandible
gravitational
cleft
watched
sv
tint
realized
jacket
philosopher
elasticity
controversy
manganese
indef
emission
lowers
finals
wiktionary
prosper
collaboration
advocate
wastes
##razole
afghanistan
##asian
##ocyst
bride
##ptions
billboard
sponsors
yale
readings
deposition
grocer
norwegian
plaster
refused
maternal
premises
finishing
dolphin
950
coo
##iki
sequences
vintage
hydrange
bah
##iage
mounting
1936
eclips
ike
considers
syntax
lthough
exceeding
adder
commemor
additive
lottery
dermatitis
##ocl
comply
genres
redeem
310
excit
historians
strengths
overlap
fermented
genuine
multiplied
cycling
synthesized
subordinate
o2
fragr
enabling
manages
idiopathic
sorted
corrections
foul
differentiate
501
creature
1932
ellipt
cocktail
pylori
tundra
##anz
flick
creams
##apsed
encouraged
makers
yarn
outfit
laure
splash
cip
##onics
warr
annum
iras
adjustments
convection
acknowled
debug
threats
vinc
letting
plateau
eukaryotes
##enhagen
gordon
parath
fisher
##ractice
##beans
extinguisher
##bors
recorder
workbook
singles
hoa
unlocked
rifle
reticulum
heather
##pert
peach
precisely
baggage
villa
nitrogenous
mcl
nac
##loqu
metre
pimple
ew
sometime
anonymously
dul
##ationally
##adone
coinc
144
worsen
hes
anger
subun
copenhagen
citrate
louise
diamonds
compromise
livestock
hypoglycemia
##osit
fallopian
multiplying
morris
##forward
homolog
tricuspid
siblings
cubes
compartment
malaysia
ocular
caller
stayed
##itudinal
shirts
cephal
##yr
hygi
micron
semic
colours
blooms
biceps
##etically
willie
practicing
migraines
prairie
spans
205
proprietary
fad
##zac
verse
rosem
##ijing
utilized
descriptive
gypsum
ppp
##esville
reporter
regards
broader
spokes
tetr
tremend
croatia
chlamydia
mick
embr
##iffel
##ele
unne
boom
interfer
electronically
prefixes
detachment
ophthalmic
conway
cardiology
hygiene
s4
##otle
cabo
pumping
fabrics
kos
appreciation
noon
wanting
cleanser
bish
sean
canning
shin
endothel
emerging
intrinsic
shipped
pecul
computed
fingerprint
examiner
secrets
enlargement
starbucks
overactive
founders
startup
##oxic
1943
axle
dispens
proximity
sf
consensus
anglo
##undry
disadvantages
##achian
icons
patriot
cushion
narrative
##zel
beijing
salty
##cession
focal
attempted
assumptions
amphib
unhealthy
peculiar
2x
##hg
##heating
viewers
farther
##oplasmic
malpractice
##inant
blond
medi
monsters
figur
tribute
terrain
repeatedly
yo
costco
donna
organisation
concur
##flies
indefin
caste
tuc
##anka
glassdoor
##opsis
anthrax
gestational
interchangeably
umbrella
##utive
cox
breeze
dns
eiffel
plank
botulinum
keto
constituent
spoil
toenails
bour
chel
receiv
customary
britann
tourists
argue
terrible
##tings
closes
volatility
venice
##heads
villages
innerv
niss
yolk
mozzar
##graph
estates
powdered
attorneys
blanket
ruling
jacob
##cat
##ishes
servings
geneva
aztec
orchids
vendors
acoustic
gw
pile
tense
##alia
##ylon
executives
stimulant
##enti
manus
likewise
sterile
circumference
essays
honors
militia
thirst
magical
retreat
pumped
professionally
commissioned
lenovo
ripe
theod
comma
outlets
##angel
freebase
stimuli
genealogy
testament
methadone
dublin
deoxyribose
mozzarella
lace
##itr
muscul
pleur
parker
##flav
throwing
algor
1920s
bony
sebastian
##alous
notify
flare
116
frontier
almonds
pon
leban
##idas
monitors
solved
uti
1944
awa
parathyroid
##fulness
extinct
rhin
papill
hungry
phenomena
weakened
tacoma
withholding
##ocking
horr
hoping
bats
overgrow
rochester
tagged
crabs
hydrochloride
##commun
gase
legends
catar
560
##opa
127
occurrences
##hyd
adjustable
wealthy
shepherd
testes
brushing
##oscope
simpler
410
##vas
##lyss
spur
digested
consequence
substantially
ostr
##kees
harmony
grapefruit
merchandise
aque
##raine
condo
##engu
barr
insights
amplitude
elong
retinol
insufficient
sapphire
wre
proceeds
trench
indicators
compatibility
chihuahua
gamb
twain
interrupt
monkeys
meaningful
pleural
75th
transformed
hummingbirds
foliage
compulsive
##atremia
aqueous
ili
weave
sided
illustrated
ape
stup
recharge
endless
isolation
nhl
reservations
encountered
chandler
deemed
760
##hot
##nar
specimen
realistic
##afe
ccording
dome
rider
leap
lover
maur
purity
washer
providence
lymphoma
spokane
bruising
candle
petals
affair
rubbing
oscars
##uities
boomers
jonathan
taiwan
lud
urg
gaseous
##100
##lang
##chi
simm
rotating
tricky
whats
designing
geology
lowered
euph
evaluating
survivors
dst
coag
hond
wond
wasps
eruptions
hz
blended
erie
responds
##bird
cans
spare
newport
refuge
fibrosis
elimination
weird
##atra
##ocon
underactive
artich
##shot
masterc
##staff
supers
newark
##umps
lesion
seismic
5c
haem
##itions
lymphocytes
suits
charco
missions
melbourne
encry
999
bilateral
cinema
##usal
explo
embassy
segreg
rebell
predicted
endometri
##bound
##ucc
cooks
jen
lant
##low
##icans
devoted
hairs
septic
colonel
vibrant
dunkin
bamb
##fen
duo
catching
photographs
bernard
quint
nok
kinder
traced
kelvin
introducing
rosemary
##esco
formulated
waterfall
guin
synov
latte
trich
wears
discretion
replaces
turkish
internationally
thrown
zoom
##itian
peers
toolbar
boarding
michelle
recognizes
##odic
blockers
sirius
scoop
ain
traces
lovers
mobil
finishes
soybeans
sidney
nort
##bron
whip
liner
yellowstone
ozone
wishes
eliminating
stanley
premiered
thc
advances
pinch
sioux
moderately
lizards
hue
prosecut
##mentation
longitudinal
255
indications
survived
saucepan
##itarian
induction
evolutionary
mysterious
jfk
440
##theless
##idi
inval
penicillin
mp3
deprivation
charcoal
##eno
##thor
##otr
##ostat
mega
chromat
pinterest
gad
brut
##encer
##cott
##asi
enamel
targeted
mastercard
##but
##lie
##oman
##ctica
sue
##ictionary
strait
junk
chole
psor
neglect
allev
comprising
fractions
phenotype
emirates
gin
apprent
typh
assurance
barely
porcel
warfarin
bryant
sard
lique
satisfied
fellows
telesc
emerge
spy
filt
affinity
1938
nomine
protagonist
neem
##acet
explaining
winston
laundry
davids
descendants
burrit
circuits
accommodation
cheek
firefox
bounty
softener
pathogens
##cale
ovum
irritable
soups
robertson
ehr
vow
##opter
##eps
privately
accumulate
mpg
remarkable
leo
outward
holdings
eyed
pmi
hillary
relaxed
philosophical
stig
larv
curves
realism
ventilation
1951
correlation
##olph
millimeters
merced
talked
imagery
krist
wolves
prosecution
1a
visibility
prompted
noodles
pug
blurred
handbook
sudan
##through
antarctica
elegant
preschool
psoriasis
tiff
##inely
overt
hardly
##ynaptic
tvs
achieving
weighed
switches
prelim
dependence
footer
##shore
acceler
pengu
anac
aloe
openings
continually
groceries
possibilities
separating
##ogenous
tricks
apt
b2
forbes
##thood
grizz
labs
suck
pilgr
photographer
critics
fascia
##cot
drywall
##alas
brine
additives
delhi
confuse
clearwater
boxer
coastline
elliptical
rr
##corn
kingston
switched
pierce
filtration
majors
orthoped
paleo
porcelain
plating
spends
##ght
liens
hunters
diffuse
stationary
murray
constitu
wes
colds
knots
angular
reinfor
dext
syring
subway
tolerate
reliability
5s
indict
justices
guns
teenagers
disciplines
aarp
mascot
synchron
rayon
depressive
reabsor
drought
throne
regime
169
1934
mrsa
olympics
neighborhoods
dign
osh
stam
##imens
teething
destructive
polymers
asexual
##rint
##grounds
occasions
hoof
airway
contrace
215
traveler
seniors
filtered
averaging
##osaurs
parsley
iis
##group
nsaids
commodity
softer
discoloration
fines
##ethyl
monk
##writing
tasting
pome
pressures
heme
okra
shotgun
establishes
nissan
kurt
highland
##osphate
interviews
subsidized
dynamics
endometriosis
guinness
taco
##orig
##thest
##olytic
calves
paramed
relies
vera
bedford
exclusion
carrot
pods
upc
marco
mapping
marking
withdrawals
aquarius
tilt
##chn
pope
whereby
initiate
riverside
boulev
stating
##choline
spind
##aceae
litre
broadly
nyc
cucumber
recl
tractor
scanner
exponential
620
##ials
caramel
slows
##agner
cheeses
derog
barbec
divorced
alpine
inadequate
geck
mites
ench
##ecia
meta
importantly
hypon
declined
cactus
staph
plasm
1880
histamine
nyse
straightforward
pushes
crafts
disturbance
proximal
gorgeous
rbc
eclipses
rale
confer
##amph
anime
bookmarks
recycled
spontaneous
wend
##sea
dependents
##ophil
##strong
##iguous
elabor
nevertheless
awakening
cleared
darkness
alternating
colonists
tattoos
spacing
excre
denoting
##rophic
annoying
davidson
blades
##due
waiver
tonsil
ambul
cheeks
gastroenteritis
preliminary
reed
##ido
liable
meds
primitive
dictionaries
paths
mak
pericard
deficiencies
olds
closure
guarantees
molars
preceding
wagner
playstation
oxal
friendship
irritated
transplantation
pomegr
carved
ncis
punk
exploring
proceedings
admit
158
sung
saturation
argu
ionization
1863
frosting
lighthouse
etymology
##oskele
trash
painless
attain
001
##apses
clusters
statewide
slog
crossed
revision
durability
crus
urdu
germanic
hopefully
khz
naked
##erian
##geal
butcher
swings
sauces
conveniently
ostrich
thai
##ref
adip
unclear
rattles
spurs
creditors
invisible
disagree
ruth
maz
##boys
competitors
chiefly
h2o
britannica
yp
##ando
syria
##nyms
aeros
fleas
scotts
anticipated
sophisticated
proceeding
turbo
hyperlink
discussing
pollut
dancer
ck
daugh
confir
precurs
sporting
mckin
mollus
##olithic
##fax
invitations
mainstream
appearances
competency
gemstone
concluded
plaint
competing
therapies
stirring
vang
goth
ceremon
420
seasoned
issuing
fundament
towers
lacks
tetanus
intermittent
jum
nr
##parts
feeds
##anners
hopes
tighten
indirectly
programm
housekeeping
fibres
quotient
rebuild
petersburg
larvae
sie
##mite
##amo
moh
loosen
armor
explosive
mere
residing
prevail
appraiser
gaps
mania
glance
msn
celest
titanium
intravenous
unnecess
gour
monte
backing
carotene
aggravated
overwhelming
##peg
intend
##rah
pointing
antiv
gallstones
1901
vibration
suburban
slovakia
raleigh
goose
paw
calib
profound
##col
thistle
deterior
projections
##ei
unpaid
allig
endoplasmic
professors
robust
1775
fascinating
yankee
ecuador
##ellum
instrum
devil
gradual
neurom
flushing
prokaryotes
fount
smelling
accountant
restr
polyp
protocols
boulevard
1850
coordinated
williamsburg
newborns
adderall
xxx
feather
##grades
panther
modeling
democrats
ninja
masonry
plymouth
wonders
instrumental
alop
##heets
soci
researcher
walnut
minds
##immed
hepatic
ya
spondyl
##achn
classify
bros
violations
borrowers
lantern
dystonia
detergent
frederick
dots
fighter
generous
superh
bisc
lego
##letion
musicians
##daq
graphs
tightness
inhalation
5g
gosp
defensive
emg
volumes
logan
reasonably
mistakes
golgi
eis
frying
290
obsessive
##ocytic
lebanon
booth
tyr
immigrant
pleased
reinforce
excluded
volunteers
##omot
##ifiable
servants
124
labia
shortening
fillers
deeds
crescent
mucosa
##product
katherine
discharged
##ogether
dentures
aromather
sg
wired
stu
pluto
peroxide
conting
harass
plaintiff
770
cacao
taper
##gee
leis
scab
induce
disclaim
clavicle
galvanized
extraordinary
aux
##sover
performances
discussions
ritual
vinci
##cos
mane
139
##version
scripts
##ampsia
##world
woven
restoration
b1
atria
envy
feces
associations
portray
phosphat
electrolytes
##89
enum
##elli
meyer
boasts
distribute
mitchell
adulthood
adidas
armstrong
yellowish
boils
##imentary
nasdaq
implementing
laptops
yay
##upt
##72
apost
elemental
flagstaff
clerks
ladies
tucson
nepal
hyponatremia
##83
mccain
sandwiches
criticism
gsm
rains
##oks
##pad
##urally
chester
markers
greenwich
unconscious
quarterly
bureaucr
contamination
bending
bucks
fc
redwood
quicker
wore
##illing
casey
jungle
shellfish
crispy
obstructive
vigorous
##tt
illumin
stafford
dinosaurs
joules
##aryngitis
##clic
ish
desper
confined
savannah
##krit
aber
patricia
bst
wyn
##ferent
cairo
waterproof
##cole
alleg
pies
##adoes
airb
limp
positioned
380
rigorous
interpreted
coefficient
derogatory
##visor
condensation
nancy
##odium
blame
2020
baseline
horiz
sewer
hibern
lenn
abnormality
mandela
accidentally
##guard
vertebrates
lutein
chrysler
nord
asa
combo
unpro
abortion
skim
cyber
fluores
drowsiness
outermost
homefacts
retard
greene
walks
altogether
grilling
ivory
guitarist
##birth
lol
nw
##inence
##abi
contracting
treasurer
png
kernel
troublesho
alopecia
benn
##imony
follicles
filament
cancelled
rectangle
##roxine
##ras
prozac
helens
routers
paddle
scarring
daughters
##rex
##uras
##osine
colloqu
glow
viewer
bookmark
rejected
##ensis
searched
jointly
prepares
baptist
nets
##inox
vii
patented
pvc
diving
##dictionary
emma
js
yuc
##86
blur
159
emble
ivy
triangles
simplified
griffith
toothpaste
camping
accru
##lessness
motivation
replies
diagnosing
gop
ich
uniqu
invite
breaker
sarc
##icides
sheer
fibro
removable
mandarin
##dings
##aying
allocation
##ievers
newslet
documentary
destin
hypernyms
dilute
##foot
henderson
vanguard
adverb
airborne
nonmet
islam
sanskrit
scra
creed
consisted
antidepressant
devastating
##ladesh
amylase
phlebotom
bant
mans
mang
saline
estimation
islamic
mimic
hod
##je
parental
invited
enterpr
enjoys
rc
##opia
safest
mixes
1921
bobby
nigerian
alexandria
cw
carson
charitable
solv
trades
assumption
##ridged
anomaly
##entry
followers
extinction
murphy
bangladesh
abandoned
accrual
hike
##vac
disco
helen
slack
##connect
kitty
passports
proportions
andrews
infert
##block
sparta
knoxville
ointment
cec
sine
##idan
thats
assists
ourselves
micr
sprains
hazel
uncovered
jaguar
airt
silverado
refrigerate
demonstrates
peptide
implications
##orb
dept
definitive
rais
olig
stationed
glacier
arguably
kau
ulyss
##cards
##lc
##otomy
scorp
backward
backyard
annuities
hyperactivity
rattlesn
ulysses
##oan
##rep
ada
sworn
hallow
enjoying
firmly
1916
##ochrom
rodents
flashes
pruning
exothermic
aborig
claud
receipts
auburn
t4
vault
##vance
androgen
clan
sunburn
430
resembling
memorand
ecosystems
ero
fsh
xx
martha
runners
steamed
federalism
fairy
##contin
##log
solub
blacks
pem
flatten
montreal
1787
loyalty
660
hare
##iliter
##ostasis
prud
spines
programme
expecting
broadcasting
subar
guideline
annex
cavaliers
206
parcel
laboratories
rapids
vaccinated
adjusting
otc
nazi
gynec
flats
poster
##boat
dryness
deducted
irritability
aromatherapy
pg
##har
##inid
##ications
adher
marit
passages
creditor
midw
jealous
stupid
mba
##here
canvas
penetr
banner
precipitate
duplicate
rookie
ez
kle
presenting
walked
cbc
hass
126
swap
fourteen
negatively
quantum
masculine
##geon
##lectric
parietal
opium
statistic
sprink
packing
myths
hurricanes
xf
employs
naive
bsn
##lb
##eta
##aba
sha
shipment
depicted
podiat
antigens
diana
redemption
clarity
lodging
nokia
kang
floy
surplus
delinqu
venues
spermat
voices
confidential
mercedes
isle
##ateur
polished
custod
vitre
approxim
rectus
analyzing
pf
##park
equinox
##genic
vacations
tornadoes
gigabyte
brokerage
##71
##usa
arbor
##othermal
pubic
stead
weaker
lumens
##folk
koh
stds
##quo
appal
##olla
152
tracker
pedest
cancellation
piston
impeachment
alveoli
##ui
angry
##plasia
fond
raz
##mail
##urious
effic
##appropri
thinning
faqs
memorandum
dach
##ilateral
heels
glory
powerpoint
jeans
remembered
dresses
tribut
margins
sahara
nipp
traged
spencer
barre
chirop
merged
enlisted
##enton
fring
##osable
roe
1700
treasure
bamboo
hiat
kap
txt
vap
shear
butte
respite
sinuses
narcotics
##levue
indigestion
##rown
lyric
##otypes
##chemic
##wire
thorn
staging
numbered
keith
slaughter
hyg
hummus
socially
ribose
gabri
marinade
antifreeze
hans
oll
blowing
schem
256
midway
installment
probe
camps
oliver
neighbors
depressed
scandinavian
ica
thyme
monica
##cription
hydrate
gonad
benton
acetylcholine
peps
bellevue
biochemical
withstand
deaf
clamp
latent
regulator
inpatient
rey
##ocate
addicted
ministry
earl
immature
accepting
conflicts
buttocks
credentials
struggling
recomb
fission
byproduct
occupy
conversions
merger
mour
rebo
peri
timely
blackberry
disappoint
ci
##bie
##urnal
qualification
odorless
robbins
ches
trough
coher
##ahe
340
nylon
##paper
##aky
##opot
hernias
degeneration
mulch
aboard
wedge
legitimate
uneven
##bin
##ipers
undergoing
obsc
progresses
bbq
nra
rachel
##pace
##orecept
clips
subty
fourteenth
qualifies
halves
grasslands
omaha
vertebral
skiing
sagging
coyote
trachea
taur
vamp
##pc
1911
##person
##activ
arising
bathtub
retrieve
floyd
sooth
ischemic
whee
plac
clind
peritone
serb
1099
morbid
fixtures
embarr
unsaturated
illustrate
extensively
scattered
##rocytes
##ogeneous
##anton
crank
subjective
bulgar
globally
erythemat
stevie
gospel
dive
##asters
208
backwards
elli
wordnet
1915
nuis
nost
##ellers
30th
opposing
failing
wrongful
exhibits
##vity
##via
##anol
##ingo
spore
specialties
##ophobia
logging
hydroxy
fibrillation
addictive
homologous
hats
grading
prede
aerial
evolve
degeneres
armp
reactants
plugged
tiredness
shirley
propriet
540
##lbs
##chain
clocks
appointments
coleman
clonazepam
excreted
kai
##mother
ince
##leading
##urate
congo
canals
afterwards
paperwork
triangular
1890
pnc
resonance
positively
##cup
belle
##ulla
refract
woodrow
sticking
gerd
privileges
lazy
pines
millilit
customized
invested
repaired
pursu
##edness
sewing
compute
resides
accl
132
droplets
databases
phylum
biz
dsl
sheridan
dn
hir
qatar
tc
##found
##isk
##odon
opaque
ott
festivals
payscale
psychiatrists
bundles
surveys
overgrowth
barbecue
dong
mumb
nond
isles
intu
arriving
23rd
cholecyst
tomb
##adan
salsa
##ango
##cessor
provinc
crosses
glycos
stark
mayweather
thru
cheet
stabilize
myelin
##ος
##inic
##inous
cobal
transports
polyester
tendonitis
##mc
chal
skys
brewing
attitudes
juicy
corrective
configured
tones
##iago
progn
blake
##eca
ops
nonstop
practically
maltose
pomegranate
##db
##74
chunks
unrelated
notion
generators
##keeper
borrowed
urgency
outlines
honesty
maui
constituents
embarrass
mum
qa
##esa
##adine
frontal
expands
decim
modules
bias
feline
suffrage
lactic
nomination
illustrates
enterprises
##lain
lebron
plun
syph
flamm
bother
noah
imprison
fillets
residue
coupled
examining
syllables
inlet
prere
tril
1860
millennial
biomes
spacecraft
halloween
4s
cst
ln
##utors
##actic
##ibu
moz
guilt
affection
messaging
freshly
merri
1926
conjunctions
csf
rebellion
##itures
##olone
prune
scars
weathering
plantation
supern
successor
secretions
anatomical
osteopathic
manuscript
dart
stained
biot
notebook
homeland
kindergart
chiropract
bast
eco
yam
plastics
flora
burg
soybean
endothelial
vitreous
##ection
##odef
chloroplast
taxonomy
##lections
##essa
haul
countless
##ammed
whitney
brewed
orthodontic
fragrance
modes
uranium
measurable
hartford
dixie
affirmative
mating
incand
nova
##ugg
governance
##rett
wrestling
nce
planner
##ashes
133
134
contracted
kilob
filtering
settlements
imagination
##aryngeal
alleviate
norovirus
bankers
promises
watches
1931
parasite
unnecessary
encephal
##bred
botox
chapters
dissoci
ottom
##ridges
fulfillment
##tech
popcorn
norfolk
doctorate
billed
psychic
forehead
subdivision
bishop
##itant
preservation
##rolling
introduces
hamburger
commissioner
brigade
##rene
tofu
drizz
surpass
greenville
indicative
clockwise
worship
batt
natal
rw
##adays
preheated
overload
coupon
ukraine
aluminium
inverte
##bul
##iba
assessments
subset
taiga
520
parale
edwards
verd
##linary
assessing
hayes
lobby
beside
orchestra
fy
nfc
##azed
protector
garbage
denote
granul
##racuse
lancaster
neuromuscular
rpm
vh
exports
visas
humor
sprout
packets
craig
procure
tremendous
excer
spike
##phar
131
hiro
tackle
bengal
warrants
##hell
##reens
pleura
favorable
genesis
paragraphs
jonas
##nell
aroma
##cinia
hut
chald
johann
reckless
580
##icus
##acia
##ocable
pee
firing
tempt
forwarding
mesa
congruent
##feld
sketch
leisure
##cence
##isan
##aped
swan
approve
cruises
antagonists
lethal
nuisance
johns
inputs
##chemical
degrad
##encia
pointer
##aturia
actresses
analyzed
aj
pav
pony
##meric
blanc
intersect
nora
hunts
lemonade
jessica
canola
antique
##ductor
huntington
expenditures
##otropic
cms
maced
##giving
prayer
diagon
paintings
convertible
1922
responded
##opotam
gill
usable
brat
soaking
creativity
jews
alkali
partnerships
1800s
mosc
fla
antico
pitcher
tanz
pandora
bristol
weren
traps
displaying
1924
fs
##ən
##onies
orally
syl
conser
137
prevented
counterpart
darwin
phosphatase
gat
jog
commons
beck
burrito
needing
scholar
paycheck
empower
artif
delays
denotes
smartphones
lactase
immunodef
clogged
ai
##ais
##advisor
amin
argued
wettest
cataly
lynn
honduras
clindamycin
caves
als
syracuse
monit
obli
tummy
dentists
territorial
merriam
dian
dea
##ivorous
somehow
stressed
##weekly
tortoises
disclaimer
unh
##oking
routinely
citric
telecommun
tariff
pilots
kratom
hierarchy
efficacy
cds
loun
beads
unpl
incons
marx
emmy
nowadays
broward
conceptual
fights
micrograms
multicellular
roster
prism
##ibr
regen
turf
palms
discounted
exchanges
mosquito
excitement
f1
ua
##omous
refuse
symbolizes
splits
1925
chaldean
##bn
beacon
amar
offline
detention
lineage
graphical
wounded
##oscopic
stamped
descending
aromatic
bottled
permeable
anticoag
zion
pike
topping
##ader
businessman
electrode
assembled
piercing
accommodations
forgotten
kend
##ativity
pillar
##imedia
notorious
blends
carat
overheating
symph
##iera
lineup
turmeric
70s
resolved
astronomical
tibet
grizzly
popping
empires
owning
soften
jackets
publishers
dwelling
orchid
binge
hypoten
syphilis
chickpe
thermostat
santiago
solubility
mumbai
fain
inappropri
##uters
subduction
avg
birch
merit
cabins
flagship
##atics
soaked
##genated
ache
cartridges
monitored
longe
carmen
workouts
##isserie
litres
caloric
1928
dyslex
neighbour
##brook
fen
h1
nascar
ante
agar
greenland
maxwell
femur
chapel
windsor
encourages
##igg
##andez
twil
installer
matched
855
demanded
cowboys
vulva
peeling
emitted
pleurisy
020
pouch
##omed
##iped
crapp
groove
approaching
critically
immunodeficiency
awn
andes
artic
magnific
drawings
narcole
hypox
coordinating
churches
interstit
kindergarten
fate
hb
nf
##aks
clost
flsa
##atural
figured
garcinia
recovered
defective
divergent
1848
lysosomes
##bear
reyn
##quil
filler
browns
rotates
christians
distributor
ventral
pronouns
wines
##ər
probable
namib
dislocation
##acil
##phase
##parents
ticks
inherent
leaky
rumors
fingernails
sri
shorth
amex
escal
limitation
hurts
fashioned
assassination
bargain
ornamental
aol
sull
heck
modifier
squared
1400
museums
whiskey
cheetah
##aren
##ocort
indo
##igned
##rika
debuted
biting
sediments
oysters
nineteenth
roc
tad
##inem
##asa
##ifax
mixtures
buddy
honored
1927
parasitic
pollutants
clostrid
##ename
enlight
204
upside
motto
390
lipoprotein
dachsh
hwy
##owl
##chet
deficient
retaining
receivable
pree
wm
##eros
##alg
flipping
misunder
seawater
indictment
prerequis
hypotenuse
narcolepsy
thereof
##loem
socialism
boiler
dressed
flea
talented
superhero
monter
agrees
biologist
learns
22nd
thickening
clinically
asthen
axons
voiced
elephants
911
##ulence
announces
pursuant
##hem
##pot
##elope
shor
bryan
peaceful
bumper
##anic
watering
builders
bedrooms
neckl
gmc
bombs
spatial
theodore
zuc
##73
abrupt
spill
fixture
galile
529
435
sherlock
##rogens
conquer
upp
donations
slogan
hil
mch
##oce
playa
brooks
radon
biweekly
1906
adaptations
astronomy
longevity
sas
levy
distillation
invitation
136
##ushi
ratification
tubing
splitting
aboriginal
ile
upt
practiced
28th
bowls
villi
toddlers
squirrel
chords
emblem
##tical
1024
behave
necessity
phospholip
shutters
caption
enemies
repayment
cet
hm
nintend
##unate
202
overc
impose
weekends
burton
totals
turbine
pixels
brisket
rx
##inis
fors
intoxic
norse
beginners
malibu
renting
responding
shutter
teenager
ws
£1
ald
thereafter
communism
insurer
##points
tectonics
taurine
bould
##ampton
curb
doctoral
addressing
denom
bounded
ecause
privilege
tusc
4x
pact
##esoph
proxy
atrophy
mets
speedway
blephar
silicone
deoxyribonucleic
kur
##alone
garnish
absorbing
nicknamed
cascade
bach
t3
##alis
##entin
alot
amateur
brave
##keye
anybody
##center
referral
geothermal
calculates
printable
rotor
##abolic
sinusitis
raspberry
zucch
mower
productions
prescript
1903
migrate
karen
unesco
elm
femoral
teaches
depths
fathers
sb
trna
corrupt
organizing
discourse
burner
achievements
tales
##enian
ariana
##ogs
actu
worthy
consolidate
invisalign
wilderness
fayette
trac
aca
207
propeller
stimulated
ashley
erythematosus
4k
##emper
##ifers
regimen
hotter
woody
overlook
hinge
wheezing
nintendo
##oves
notch
##oneg
phloem
swamp
folded
##rp
reaper
pec
interd
numbering
##uca
thickest
celebrating
simplify
cruciate
rheumatic
metastatic
kris
lich
##rating
theology
alum
blown
smash
mcv
tearing
momentum
yankees
glycerin
rupee
mickey
##kers
caver
1870
edin
shorten
rotisserie
mildew
poured
inhabited
nglish
aide
##lims
##atan
trivia
hrs
cvs
rut
##iligo
##achi
highlands
periodically
starfish
securely
evaporated
dignity
##hoe
mediated
oversee
pops
loaf
denoted
irritate
deoxygenated
diminutive
voyage
thunderstorms
researching
recognizable
misery
incremental
astronauts
gur
atyp
unm
leagues
waterc
138
holly
wilm
rabies
christianity
fiance
ruptured
skyscr
##imoto
testicles
signifies
eddie
awake
maritime
excerpt
nathan
ponds
cousins
spherical
cache
opener
demol
cutaneous
adhere
lieu
cerebellum
##otropin
orthopedic
incandescent
mk
##gence
##bane
##ialis
infancy
hematuria
derive
requesting
watershed
gonorrhea
icao
gc
mansion
##inosis
hag
spit
gravy
tee
##ffective
seminal
vena
dehydrated
aligned
keywords
xfinity
twilight
wwe
dispar
80s
thanksgiving
orchard
rehears
derivatives
reversible
arbitr
oss
##inth
##stead
clara
flint
##anger
implicit
occupies
vocational
oscill
faulty
laxative
opponent
underside
ym
##pic
timer
infar
saff
wrinkle
counselors
gilbert
palpitations
moscow
bact
##wright
genitals
beginner
starchy
zoos
affiliate
cbd
shredded
530
##itated
forge
refill
##obi
logs
bedding
oxidizing
dispersion
moose
##rome
##estown
joel
herd
lowe
##undai
ranged
scheduling
370
preferably
rainforests
bmp
##run
beau
##ocular
leased
blizz
coch
formulation
autosomal
superman
denomin
virtue
1898
vincent
401k
hydrangea
ais
daring
##icem
##eterm
##esty
spor
slider
shortage
sweats
azure
##cala
journalist
cytok
inev
##asaki
reminder
creep
confeder
cellulite
pockets
##yte
##wagen
##arb
allocated
muslims
##ippers
logos
fixing
spindle
##idate
subf
hyundai
volks
148
ull
##nn
impur
##ographer
microtub
diabetics
rhyme
grantor
appropriately
bearer
1902
playoffs
istock
crater
curl
laf
thermodynam
1862
unsure
1889
##ausal
fiss
##200
stip
marines
servicing
slough
##ceptions
vitiligo
235
growths
sender
flux
immers
brokers
nominations
assassin
unveiled
##ags
offenses
146
footprint
##eshire
banjo
analytics
luxurious
uniquely
##ameth
dover
##keley
charms
ester
purely
zucchini
vents
zomb
##atum
##enes
bless
idol
cope
humanity
mighty
promised
figuring
homozygous
respected
browsing
incorrectly
wan
wholly
submission
skins
ulnar
fireplace
blockchain
castor
walnuts
gardening
conducts
##blue
arrows
eyebrow
inaugur
ging
##iy
##sen
##92
##pi
##chat
unle
milky
inserts
extremities
tribal
perpet
memorable
taurus
unint
pla
checklist
##ussion
baths
fears
highlighted
jesse
preceded
isaac
dosing
uret
wich
##iagn
##ilant
##imes
100g
referenced
supportive
calcite
doubled
bowling
wondered
municipalities
bursa
precursor
tragedy
stripe
submar
donors
motions
downloads
flyer
conventions
adolescent
unexpl
diuretics
##opausal
interphase
esr
colleagues
eurasia
capp
1923
flammable
cork
##hound
offshore
developments
headlight
adenosine
institutes
isotopes
crossover
probiotics
dyslexia
fade
sip
##oam
tol
twenti
protists
accessing
licence
##annon
celebrates
hatching
auditory
clarify
synovial
phlebotomist
provincial
twentieth
##pept
disks
fecal
salon
wherein
swine
skinny
socialization
malware
extracts
tonsill
ophthalm
celestial
hirosh
unn
fluff
births
3500
supplying
seemingly
analytical
consolidated
ingestion
ming
poo
draining
emanc
relevance
##lett
##iciary
##omyalgia
branded
navel
aerosol
##idy
amox
markings
pastry
malaria
odys
sulfide
1868
hobby
incentive
ik
mids
##əˈ
inference
infestation
1840
balancing
offerings
birthplace
deny
conductors
utilizes
shelby
isolate
lemons
nourish
eugene
prognosis
exh
neurosc
kennel
hiding
tasman
templates
laminate
sake
##pin
franz
incur
bluff
grate
coke
knob
avi
##forms
lima
angels
##ophys
minded
quartile
observing
tnt
adipose
fluorescent
ureters
cun
##best
federally
estimating
cooperation
convin
quasi
locals
constrict
detects
casser
fier
##flex
trinity
contra
smoo
eyeball
unusually
pediatrics
fellowship
interstitial
asthenosphere
gan
floss
##ptive
##erton
mounts
1940s
pairing
mandibular
berkeley
tremors
buc
vie
##fil
##xin
##etine
##andibular
defender
grandparents
coupons
mmhg
vocals
browsers
brightness
diluted
bism
inequ
contacting
counterparts
salmonella
upgraded
milliliters
##xual
##jud
##esian
whipped
harbour
rotary
futures
disposable
beatles
infertility
sham
insist
biologists
tonic
disposition
ambass
cylinders
drizzle
tuscany
waking
##vil
##assee
megan
milan
heaters
grandchild
economical
epidemic
biomass
coherent
atypical
pag
rm
shawn
tendinitis
examines
scanning
##ository
clostridium
iu
##ected
##iev
supermarket
chicks
signaling
ketones
sdk
sailing
sta
##ppings
eminem
rhet
retriever
inquiries
tert
prehist
charming
educators
closet
collectors
predator
reversed
fountain
##uch
##wid
usp
busiest
handheld
nursery
corrected
fibromyalgia
antihistamines
botanical
stigma
##kind
##etamines
##gear
##abad
speeding
engaging
magnum
judiciary
kilometer
detector
cranberry
opioids
aunt
##angi
reliever
specializing
easton
inhaled
towing
kingdoms
duch
##operative
glove
apparel
doughnut
ingested
volkswagen
revel
1812
hardest
thinners
smoothly
congestive
bearded
anchorage
hints
benzodiazepines
figurative
dug
touches
##aden
fres
fright
colt
specs
insider
nonf
replen
citing
pillow
gibson
css
jas
instability
barriers
##affe
tommy
ecological
registr
subscriber
dictator
sullivan
hiroshima
nore
tumb
synth
putnam
273
allergens
oxalate
lamps
ui
##houses
milder
slender
elast
harley
lloy
vba
crested
homeostasis
anglic
convergent
grandmother
phenyl
1876
hygien
decimals
##inism
bead
sectors
condensed
##clovir
artichokes
##oskeletal
2d
460
sain
##eb
skies
pete
initiation
megabytes
impeached
acknowledge
myocardial
##itas
##elong
perfor
##gram
wallet
gmo
lucy
xanth
##wig
##arios
subcl
retains
browned
dangers
maddie
reflecting
stabilizer
appealing
staples
bea
##igious
willow
rests
burgers
hamlet
anxious
possesses
pb
yang
weaving
warwick
##plants
archery
lapar
vibrate
bingo
dyes
magnificent
gos
wbc
framing
incis
##acha
terminated
modular
##wayne
electroneg
htm
bulld
fairfax
advertisements
##gel
##enterm
reupt
strive
noct
glial
synopsis
homeless
bona
breeders
ambient
chopper
jol
centr
##cedent
147
24th
appreciated
##iston
indices
latitudes
224
roundup
imperative
tartar
inappropriate
reuptake
##makers
##omorph
tragic
##ipel
gren
crav
invaded
downs
glenn
##versely
cashier
bedtime
cdp
hypers
1908
advocates
hobbit
unix
acetic
spawn
queries
acted
##ondition
evac
moderation
305
embryonic
vascul
musculoskeletal
fainting
920
eh
tinct
##eine
flank
##swick
facet
rainier
puncture
wanna
##map
##ongh
##emy
##ryl
winding
connectors
sixty
vienna
tallah
dvds
1896
ramadan
committees
chartered
drums
inclusion
strad
glomer
albu
bloated
punishable
isotope
laurel
appalachian
oth
oem
rode
##bacter
alto
withheld
154
151
deli
##liant
hoover
undergoes
510
##ounsaturated
##ucker
lawsuits
miracle
unemployed
##474
meteorologist
shifting
isab
amc
intim
gasket
micros
saxon
##rifice
prickly
soothe
procurement
chickpeas
wagon
##oco
imply
civilizations
flavorful
ureter
lobes
diverticulosis
inductive
harassment
mig
yr
cobra
nowhere
constellation
sharon
transporting
trigon
economists
veto
##married
substitutes
horizont
nests
pity
scanners
##gano
##brate
cava
sacrifice
randomly
ces
cpr
ric
expose
coursework
expressing
1905
trilogy
610
df
sears
##illance
##ethe
mines
physic
continual
indica
suggestion
drove
ignored
ottawa
rape
tand
##ɑː
plated
elon
digging
##lette
hydrop
domains
elevations
sealing
scenarios
surveillance
kosher
##entermine
##84
##ºf
##inos
##ayment
##astatin
recordings
launcher
metaphor
soothing
segregation
unused
buick
lessen
singers
citations
parenthood
egyptians
bruise
bronchi
arnold
##name
spouses
montic
imei
shareholder
alcoholism
dentistry
ectopic
biochemistry
brunswick
horizontally
wand
pharynx
relays
childbirth
imports
participant
##piration
prolapse
supposedly
wendy
##nas
monounsaturated
transitive
homework
endothermic
patience
socks
##geries
142
textile
predictable
graduating
contaminants
amniotic
nominee
bord
zoning
##olus
arid
catfish
psychotherapy
ribo
hawk
butterflies
epidem
irrigation
endometrial
osha
paramedic
accrued
airtight
biotin
##jor
spaw
swipe
pregnancies
##ipsych
1909
conceived
mosquit
sturdy
ailments
203
##author
##lofen
glaze
classifications
viii
weddings
touched
blooming
utilization
karl
stacks
penetrate
monticello
hale
anion
##store
chairs
scall
diagrams
epinephrine
sixteen
capitalization
crowds
##roxen
refreshing
prevailing
kangar
inward
orph
unmarried
grat
scouts
usaa
hallmark
exhibition
invalid
reynolds
ymca
oahu
##alt
clad
flaw
moth
marvin
valleys
substitution
ethn
##ersonal
injectable
vertically
utilizing
jaws
disturbances
aesthetic
kodak
##iotic
truffle
##acht
scary
processors
##oxetine
##pecific
221
riders
terminate
donated
crossfit
arthrop
shoots
brazilian
deployment
kathleen
570
680
ips
kary
panda
phentermine
centimeter
swimmer
procedural
spanning
inventions
mitochondrial
aneurysms
erection
congrat
##aheim
##tis
byte
##udge
claws
accountability
straighten
smoker
oregano
proclamation
analgesic
sara
##amate
shy
performer
ecology
extremes
racco
khan
enclave
solvents
faf
##leaf
##imon
##agg
relieving
decatur
creatine
enhancing
aggression
mentally
cephalospor
bridal
norms
supporters
lotion
multiplic
updating
470
reddit
alger
priest
antipsych
governors
irst
epoxy
multin
##apeake
trophy
##fin
anaheim
isch
strap
monomers
wraps
olivia
integrate
julia
unpred
##aran
orn
compliant
mayflower
urch
##otechn
oaks
hogan
##build
phillips
chesapeake
##amis
com®
suz
basel
obit
calcit
burlington
investigations
ake
##bee
anem
chf
chate
chanc
surgeries
modifications
datum
##yman
realm
parkway
sentenced
liberties
unchanged
syringe
##leg
##urst
##odin
cheshire
##user
gras
savanna
unlaw
##ophyte
prisoners
conjunctiva
pimples
monosaccharides
630
gerald
qt
##aic
stagger
##odia
##anging
poses
additions
logged
melts
motherboard
seldom
vectors
dwayne
porous
##haft
##56
amort
##assis
semin
rins
##aters
##orant
coniferous
offender
fillet
discour
floral
26th
slowing
meridian
mitt
vanity
dilated
gamete
endorse
stuart
##zi
##aj
##pipe
aml
bup
corruption
erad
harvesting
autonomous
inspector
hickory
hvac
##opping
fitz
##junctive
tailed
naproxen
instructional
ive
sally
wpm
patents
finely
synd
cannon
cef
irony
borrowing
outbreaks
##lined
##entric
forem
sherman
feud
accounted
measles
popularly
homo
explanations
erupted
issuer
lso
contex
proposition
aching
dvt
ssdi
polarized
pupils
thawing
pseudo
thriller
unpredict
jal
##rition
##string
unoff
billions
analys
blocker
mellitus
elaborate
maneu
nbsp
##iam
##mans
##ulina
mule
excretion
workshop
detectable
uncooked
violin
mirr
cinder
cobalt
pms
vat
celled
distraction
paige
ps3
prediction
sickle
athletics
anesthetic
nacl
bays
##esthes
##omat
##elin
##ulism
feast
##asha
risen
germans
augusta
subjected
secretes
chooses
##iatric
rehab
scandal
rendered
succeeded
namibia
##lif
hast
locust
longtime
90s
tropic
barbados
1836
unicellular
eel
lans
##cester
##hor
1300
microbes
pollination
breeder
gemstones
contexts
080
roo
digoxin
sweep
km2
roasts
suffers
julie
inconsist
tertiary
##ctory
##oda
##embr
leasing
caf
contacted
##shield
saltwater
6000
steril
adjectives
fragment
icelandic
##worthy
diuretic
nig
##haw
##odend
incomes
2019
monopol
##econ
##ographical
strengthening
fabulous
hypotension
nuggets
ian
m2
##pill
foram
canad
subjunctive
fuller
macrom
compensate
campaigns
##imetres
cursor
algorithm
wilmington
mens
ved
##atable
##emen
##unting
##unches
conspir
billie
214
ligand
##querque
eucal
impurities
ashe
secession
ating
atop
valencia
edm
programmer
starches
submitting
bantu
ige
lately
sds
##wind
grasp
mayonna
distemper
articul
hardiness
malform
romania
1864
bullion
virtualization
##flavin
amoxicillin
cus
285
tubal
brandon
preparations
recognised
granola
climatic
melanocytes
fafsa
##opened
##ells
conson
poppy
fullness
rhym
roofs
innocent
##untarily
bailey
heroic
magazines
crappie
biliary
manson
wont
upgrades
diary
paran
antacid
settling
comparative
ferrit
incorporation
sinking
reboot
albuquerque
mayonnaise
vander
##enal
stump
asymp
marina
waterfront
##erty
idle
doneness
cypress
pellets
siem
dermis
pancreatitis
monterey
fencing
jets
##iza
braking
uracil
argon
comfortably
narrowed
porch
screenshot
newsletter
rehearsal
blink
cove
crumb
##lessly
reviewing
europeans
crooked
925
stevens
brisbane
anticoagul
riboflavin
eucalypt
href
freezes
mahi
internally
internship
ribosome
##ocrin
scrip
sufferers
profitable
infantry
dialogue
gambling
prescriptions
##nick
##encephal
##ugu
##oxone
doubles
badly
assem
distinguishing
rump
##ellate
aries
slopes
141
toothbrush
domesticated
stylish
sirloin
kicks
csv
uganda
scrape
uae
##drop
##url
abb
##ports
315
tripadvisor
oslo
vicodin
havana
cataract
##hard
##alfa
incidents
numeral
222
authored
whisk
blonde
unexplained
mls
theta
chorus
timothy
sandra
vague
chapman
raymond
intrac
katie
nodules
##oreceptors
nir
differentiation
capillary
restruct
halo
economies
luckily
toenail
mvp
chateau
pis
##inol
bovine
marcus
60s
catast
nationals
polyun
commercials
locking
alkalinity
##frame
recruitment
pilgrim
##burs
notices
hung
dubbed
assemble
kaz
mull
##stration
alumn
striated
purge
163
activist
positioning
stressful
galact
antiqu
moms
conversely
coatings
cracking
nhs
amphetamines
amphibians
pk
vr
##lift
##enburg
##qual
acup
bests
badge
inserting
odors
candidiasis
crackers
horns
lynch
accompanying
microbiology
##uccino
mik
##rina
parmes
painkill
301
misleading
auctions
claire
bibli
teddy
ugly
suburbs
discontinued
##bad
##58
servant
166
firearms
suggesting
facilitated
sulphur
enriched
telescope
##therapy
##ousal
newfound
expresses
##uki
shelves
cranberries
parmesan
neat
##ahan
volley
delt
chromosomal
##ovol
detecting
consultants
eliminates
coloured
exclude
reflexive
foremost
bree
deter
pavers
safari
professions
diagnoses
melissa
tubular
nestled
paralegal
wahl
zimb
##whe
##inators
broch
remover
powders
bathrooms
ascending
desserts
issuance
fluctuations
polyunsaturated
biod
hulu
##tegr
oxides
##ophilia
ovulate
durham
occupations
randolph
guardians
psychiatry
viscosity
announcements
correctional
robbie
hashimoto
explicitly
tanzania
eph
##bol
##odil
chak
##ardi
eli
corinth
45°f
husk
alfalfa
tallahassee
pans
exagger
##ocet
trium
doe
brains
photographic
tutorials
dhcp
apex
cholecystitis
denominator
mosquitoes
sak
zur
##theria
##ulton
invade
esteem
urtic
breakthrough
firmware
advancement
demonstration
hydration
pyramids
amphetamine
chimney
bunk
##yrin
##estones
##agra
transduction
contributor
repairing
homocyst
1907
randall
buddh
lantus
##ipty
maf
164
calculus
00pm
##flu
exceeded
##raints
edinburgh
dale
eard
vivid
##epoint
interconnect
lifts
solic
famed
finite
armies
grounded
completes
##rosp
vaccinations
spotlight
luis
inhibits
prohibits
ejaculation
kush
roi
patty
corolla
173
cheating
holistic
camel
revival
trusts
editors
recruiting
caterpill
ferritin
##iptyline
a2
como
143
botulism
badger
spirulina
piping
transmits
hydrocarbons
gabriel
jd
r2
##core
##hp
byl
traction
##web
fares
greenwood
woodstock
archipel
attracts
tetra
idiom
vampire
##width
##assic
myc
mercer
labeling
shipments
indefinitely
##atical
resale
intimate
cray
espan
##psis
sanct
burr
flavoring
mercy
leakage
pottery
baldwin
prestigious
lv
repell
apache
##hyde
sanders
locker
fluorine
nswer
eccentric
vant
##cam
##aned
##icia
##umber
##endale
highways
connotation
allowances
concom
lays
vt
formations
salar
keen
lifelong
earths
shorts
humana
softball
antibacter
juliet
nih
conquest
mistakenly
macromole
050
hin
latch
rind
stanton
specimens
myof
skate
polk
directs
transluc
boring
assignments
775
emphasize
steadily
##quoise
blizzard
kms
yuan
isp
serp
endocrin
factories
woodland
fittings
47474
griffin
lloyd
##oic
##cia
##aton
##anim
##sted
forcing
arithm
themed
handic
socialist
rotational
hydroph
skew
dilation
hooked
quadrant
disappeared
helicopter
parentheses
##achnoid
unplug
cytokines
##bows
##stitution
flown
loops
##ruff
netting
operative
attachments
sonic
carpets
pursuing
jamie
##amphetamine
860
##arc
staining
##ogg
brah
slime
symbolize
copying
radioactivity
##ungal
housed
ozark
irritating
architects
lumps
esophageal
##oin
##roys
expedia
epig
demo
introductory
##trak
utter
prehistoric
740
840
dab
jasm
##astically
##agua
blot
coils
designate
billings
eighteen
hallway
homer
sights
fragile
dachshund
##ctal
shining
serous
emm
obso
maver
continuity
234
predisp
skyscraper
tequ
diat
uring
turquoise
wii
oversight
norep
ems
##eons
##iliation
endors
placebo
explored
installations
camero
disputes
fertilizers
surnames
initiatives
energetic
persuasive
renovation
kam
sj
##agne
ard
##perms
209
infring
simplic
sweetener
debtor
acquiring
ashes
twisting
parliamentary
gibb
tournaments
praise
rans
sis
soaps
prefect
joan
##formin
ead
pico
downstream
surely
cutter
germinate
liquidity
333
anthem
entitlement
mp4
motorcycles
conquered
wichita
omp
sushi
##hare
##irts
mined
50th
harper
technological
admiral
265
destroys
coded
unsubs
boosting
decorated
decompose
luteinizing
tonsillitis
##ql
grac
phi
spear
hardening
##ospace
transitional
miscell
jasper
antibacterial
arithmetic
b3
##notes
##idone
chore
##ppers
##balls
sharepoint
downloading
karate
concealed
caregiver
##romycin
##igate
clone
##ulture
cardholder
artwork
weston
216
beginnings
variability
garment
canceled
cruciferous
preserving
decomposition
obsolete
boyle
defence
accountants
directv
barron
km²
sandstone
launching
avocados
rugged
riviera
tahoe
concomitant
norepinephrine
fide
kyle
##yll
contiguous
disasters
153
protoz
cheat
melania
bandwidth
witnesses
fused
oo
##hole
##uaries
##eny
inacc
seated
addison
transc
poop
skipping
guit
multiv
rooted
mcm
awk
configurations
beetle
calcitonin
fulton
alps
upstream
coax
assured
stephan
burnt
pinpoint
ghz
romeo
nassar
##acher
menus
hungar
circadian
polygon
ferdin
mashed
opponents
fundamentals
shorthand
pence
pga
vance
##ride
##ibe
astring
sweetened
##vertine
sawyer
culp
veneer
##54
##face
##static
cupc
fairfield
recovering
hernandez
wu
##abe
##akh
octop
telev
1869
1899
ssn
rhythms
caucasian
vw
yu
amid
caliper
joke
valium
156
229
problematic
satin
incorporates
pantry
unlawful
cameroon
ea
raft
##51
##eling
##igm
loft
##driver
essex
locality
campuses
##millan
duncan
negligence
ferdinand
jpeg
##eded
reuters
lept
clif
##ube
assure
176
harlem
premise
ruther
compressions
seekers
bakery
jealousy
hassle
shoreline
##acies
##ogia
##ivided
chemist
travis
germination
deadliest
taskbar
unfair
negotiations
pipeline
rendering
pharmaceuticals
alligator
thom
insure
metformin
31st
touring
sphinct
infarction
##rospinal
##iogram
##elion
skirt
calculators
sedation
lighthead
subunits
cia
cna
wag
##comb
prayers
##phin
refurb
annie
meniscus
403
suffolk
eager
miscellaneous
dread
hhs
##mad
##bard
notar
malfunction
telegraph
##enhower
victorian
siemens
hed
icing
pause
##greens
churn
##osteroids
abd
claw
strongh
sprays
wallace
pyru
demanding
advertised
##galy
rejection
dialects
chromatids
telecommunications
effer
##pack
##vc
##enberg
##abwe
##ached
insult
buys
distract
162
worksheets
historian
granules
royalty
siberian
tulsa
bureaucracy
plc
prejud
##ecks
##cribed
167
freshman
prints
layered
flashing
##bourg
heterotrophs
bulgaria
nim
forbid
heats
parton
windy
304
expects
arthrosc
bachelors
incentives
simplicity
lte
##rie
##rea
##ocar
plast
boast
regurg
allowable
multif
italic
mountainous
enjoyable
refrigeration
refundable
zebra
interfaces
nicknames
basalt
spells
neuroscience
ff
##vol
goiter
avengers
savior
situational
1904
1897
folding
baja
lambs
interventions
scarlett
saints
kon
trow
frances
incon
peac
differing
polio
solitary
pasture
lasik
enhances
lumen
wynd
invertebrates
eardrum
raven
##vasive
boone
lifted
wrang
excise
218
##omyc
consumes
mandate
troop
negotiated
lpn
benson
fann
amm
housew
hardened
immob
rouge
inspire
moisturizer
##aching
justification
finances
barcode
trypt
euros
colonoscopy
dancers
tequila
curing
mth
pum
##2o
##ivism
infamous
##isha
indem
instinct
guam
oxycontin
unitary
capitalize
linen
rhine
tightening
destroying
reinstall
glaciers
salaried
fug
vga
##gard
destiny
villain
travertine
robber
aerospace
interestingly
tamil
##minster
vibrations
elongated
zimbabwe
gta
##table
##anian
##leted
trape
augustine
lubricating
insufficiency
cylindrical
anaconda
fringe
lafayette
nexus
readiness
specialization
1893
1895
munich
landscaping
excludes
collaborative
manipulation
arrhythmia
vasculitis
nem
##making
thyl
spar
157
solder
##enchym
candles
faa
pharmacies
conclusions
hummingbird
stakeholders
eisenhower
sop
##omo
##ided
acorns
humble
seasonings
802
neutron
sedition
adenoids
intentional
deployed
dixon
eucalyptus
rutherford
xm
clarks
depicts
downhill
litigation
suny
puzz
furious
299
macroph
mandated
##uxe
accelerate
manifold
daddy
tibia
6g
ged
##vana
asper
##ocrit
manga
medulla
clever
stein
raj
predictions
pediatrician
tactics
serbia
a3
giver
##elo
##otta
acy
dries
50s
##ymmet
243
licor
albicans
fixation
investigator
anesth
promptly
uncontrolled
wahlberg
980
ase
hannah
##57
disreg
crist
myoglobin
homepage
visually
1100
mixer
##rosive
astrology
observer
leaning
promotions
suffixes
gymnastics
dismissed
reinforced
enlighten
vouch
vhs
sepsis
##osaurus
abused
helper
windshield
sativa
intentionally
prosecutor
vowel
ding
##imo
##antine
spikes
fled
overly
earhart
##ylate
jeffrey
julian
corticosteroids
cic
lut
ud
##root
perth
commence
mario
contrad
broil
coolest
sweeteners
reno
bordering
ketogenic
1885
cerebrospinal
syllable
kelp
dashboard
misconception
honeys
boulder
archipelago
512
dll
lush
pard
##°n
amtrak
interim
agenda
mys
1820
harden
228
sexy
innate
smoothies
zeus
enclosure
hybrids
c2
zest
##tra
allot
##avia
##loor
safeway
kilo
challenged
macedonia
nl
##layer
##frequ
##istically
incar
##etheless
angus
toggle
booked
savory
olives
examinations
dominion
alphabetical
lecture
##esophageal
urticaria
goss
mosa
viking
##post
##fig
##enol
dee
neo
##ocin
afl
ende
171
scrum
pigeons
ruin
complimentary
audiences
koalas
diphtheria
wives
colin
geologic
halogen
pastor
celebrations
pancake
bruised
aspart
carlos
eyebrows
schemes
asbest
responsive
infraction
paramount
maiden
upgrading
troubleshooting
880
bd
##elan
##aders
ack
squid
erase
unsafe
weaknesses
toilets
bunny
coalition
fiddle
picnic
espanol
hungarian
mow
tup
161
##ophils
logar
nadh
daytona
philosophers
aristotle
##rofloxacin
jumps
##feel
1791
alveolar
##uncture
predecessor
nocturnal
jasmine
##woman
##idized
##ortment
##oxys
arrays
morrison
625
##written
##etrical
flaxseed
ganglia
homocysteine
##vs
##itious
##asse
##iao
overflow
electors
##rik
cardboard
30s
245
recognizing
communicating
pursuit
crafted
fragrant
denser
propagation
spongy
dendritic
emancipation
plow
##ecd
registers
santo
striped
shifted
mourning
preecl
algeria
unpredictable
guitars
hanc
nol
wade
yd
##iaries
##plate
continu
subscript
polypept
bearings
crawford
minimally
reabsorption
lounge
hank
canister
20s
urs
powell
indexed
coca
falcon
1774
chefs
merchants
fluctuate
hinges
stabbing
incarcer
##hz
##wi
grated
crying
repro
centrom
schen
clement
deluxe
barrels
federalist
debilit
cultivation
cloves
dissolving
floods
heaviest
1884
vertex
buttock
beetles
rtn
hens
kobe
lumin
##oris
spastic
apric
somers
barber
traders
adjud
gardeners
490
aking
densely
cambogia
oblique
yum
##tp
##hamm
perks
deprec
##toms
legion
cypr
labyrin
assisting
nyu
ruins
nicar
dolom
ghana
dexter
confederacy
preeclampsia
hra
onlines
hai
remit
grouping
microns
prominence
candies
ethyl
allergen
tractors
crowded
acreage
culm
shortcuts
delinquent
awkward
thylak
6s
cask
kry
pave
reass
chassis
resurf
##ogue
depict
purine
educate
cornst
palmer
##nicious
overlooked
advisors
promoter
enthusiasts
auxiliary
prudent
intuitive
##lofenac
bylaws
wyndham
##frequency
jab
kah
##wd
##olam
alask
clown
carm
para
slots
smoky
editions
aspen
consolidation
supervised
preservatives
cis
##with
##asone
##rocal
##utrients
##illi
plag
brides
##ysical
retract
antip
nonetheless
##azine
##iscip
guaranty
molly
horrible
restructuring
jug
xr
isometric
##ocial
##asonic
lotus
registering
favored
nervosa
compressive
economically
ckd
whopping
boise
restless
altering
concerts
s3
itiner
carls
heals
methodist
widest
attacking
toner
torch
mesopotam
tanf
pirates
pns
##erk
##ilion
##arta
manila
paraph
catap
libya
dealt
cultivars
hydrochloric
cardiomy
vpn
##zum
##long
perched
crm
calgary
intercept
muss
somat
##naire
winn
stresses
747
leukocytes
rewarding
licorice
##war
reds
purines
prototype
connectivity
barcl
synapses
multitude
feeder
revenge
motivated
qin
##53
beers
chun
trinid
outgoing
firstly
affix
souls
kettle
uncertainty
enforced
protrud
2a
hh
##aling
ala
phag
noaa
subatomic
hyatt
increments
oxidized
editorial
##anthrop
fresno
##52
##rove
ari
##ethylene
rover
macmillan
assessors
1866
emphasizes
hydrocarbon
flattened
lint
tipped
##iman
corals
showcase
garner
carpentry
affordability
volleyball
couch
##entown
alk
crp
cyn
advil
activates
explores
##efined
sedent
padre
carnivores
subtracting
passionate
cavalier
confirms
astringent
kj
anise
##idic
##anding
infilt
1080
232
90°
dvr
correspondence
mtv
dmt
tactical
bale
hound
ppo
yar
##yx
##isia
##opp
salted
missile
grandson
tomography
radiofrequency
ferr
imaginary
heterozygous
trowel
730
herald
laz
##tar
##got
##erable
##orectal
notifications
resil
occl
##atched
farthest
graphite
ssri
tortoise
##otrans
hancock
cation
##tree
##alb
##edo
asymmet
greasy
glas
rename
##rophe
gbp
5k
yol
##fy
adp
ador
clams
pernicious
##inda
marital
paroxys
answering
septum
sounding
staffing
1892
prisoner
promotional
fores
##iche
blunt
27th
utis
honour
dermatologist
kernels
schwann
allegedly
razor
dade
##osperm
trustees
itemized
descended
crocodiles
##usalem
acclaimed
011
lanka
##iak
shak
healthiest
pathogen
extremity
tuning
dipole
replicated
detached
disagre
labyrinth
cornstarch
ote
##inative
##iton
upfront
sway
sugary
realtor
affective
ps4
firearm
##umbent
ventil
altitudes
flashcards
obstruct
intentions
entrepreneurs
prosperity
norton
supernatural
##stitutional
onlineslang
lope
##arted
redes
##ahili
174
238
magist
bened
stuffy
escrow
encouraging
tangent
misdemean
blossom
alumni
unsubsidized
onlineslangdictionary
duk
lc
lanes
rb
yak
##zu
mann
phob
optimize
990
1856
polynomial
newfoundland
960
bcc
sciss
modality
humus
illum
dedication
jerusalem
vulgar
refinancing
adequately
linguistic
cambodia
translucent
culprit
kor
nasty
ucl
inel
onf
##ulators
brent
glazed
effusion
literacy
boron
rebec
politicians
wasting
bottlen
meadow
midwife
stronghold
810
mound
##oft
##inus
##chen
##acity
##acids
unequ
recourse
trader
propose
brandy
##ropolis
investigating
manicure
vmware
710
830
##mith
##alle
##icc
##iae
transact
##sworth
silence
denial
detailing
elevator
withdrawn
reflective
sarcom
caroten
eust
mam
##rat
##ensitivity
occult
capric
pageant
boxwood
sacr
undes
tolerant
plumber
shooter
narrator
pericardium
diane
bert
lass
mama
##96
##esia
##icion
chond
pruss
urinating
nonster
dominate
augustus
pathogenic
convince
flew
diclofenac
necklace
dx
##tails
##dor
seoul
parth
fillings
administers
himalayas
##ochromatosis
rams
##roots
##alling
leh
cared
infrequ
lengthy
predicate
homogeneous
##writers
satellites
kissing
pesticide
stereo
deserve
ottoman
vines
##mor
##embers
grim
crumbs
salinity
##ancerous
organis
chromatin
pci
participated
validation
circulate
echin
firefight
thyroxine
horticult
tincture
enlightenment
mw
##far
##itamin
##adic
chatt
##osals
brunch
##text
##heed
malicious
galv
philippine
raisins
mop
##87
antise
##ammy
similarity
equalization
ballpark
neuros
churchill
echocard
automobiles
rugby
sedentary
ymp
##rap
##erica
##tomatic
apl
hypercal
torso
murdered
pistil
uvula
cytosol
summarize
hector
dendrites
convinced
##wheel
fsa
moses
##cas
##ooga
phal
persists
airing
growers
254
superintend
vegetarians
451
thickened
axes
incorporating
herbicide
ketch
sailors
pacemaker
perceive
nsaid
nun
##vuls
##arre
sued
colorectal
##phere
directing
##inole
tubules
##puted
conductivity
sadly
sloven
nos
##mias
##bus
blessed
##orne
assortment
femin
doug
collapsed
1882
cliffs
prospects
slideshow
##obacteria
wreck
##ocele
bav
frater
haired
salam
182
modal
fremont
financially
melody
investigated
cystitis
bloomberg
terrorist
descendant
##ocentric
##acerb
hydrolysis
greeting
wesley
trapez
##dal
##oter
exacerb
weaning
incap
disruption
upsc
medals
healed
declining
donut
magnets
cashiers
shoppers
deductibles
restrictive
cortisone
repetition
iliac
bons
iud
##once
##onium
##arine
flop
warn
guad
##culated
netgear
urinal
realfeel
innoc
inducted
exchanged
##esthesia
##nt
##bye
hew
imping
desires
differentiated
lawns
172
risky
successive
religions
recombinant
780
stakes
una
bland
scram
stren
dipping
herbert
carts
bilayer
smokers
intrusive
prohibit
prompts
caregivers
watercolor
nirvana
clifton
acyclovir
cull
##note
unblock
contour
manning
delusions
seaweed
nighttime
battal
osi
buffet
eldest
wrapping
engr
leve
imped
2400
macbook
budgets
335
8000
##iji
profitability
immunoglob
overlapping
inspections
stratified
awning
bactrim
sphincter
trinidad
stents
appellate
workweek
303
##pectives
converters
textbook
hospitality
hostile
radiant
neuropathic
fasci
stalks
imprisonment
debilitating
tak
##var
grays
uphol
articular
individualized
promising
aston
phosphory
planetary
librarian
politically
scenery
blanche
himalayan
fluffy
incisors
##lr
chow
shi
poke
hyal
purified
activex
madag
azale
1883
replicate
shocked
mbps
sufficiently
ciprofloxacin
xi
##bb
##xon
unaware
##artan
helm
airs
imitation
questionnaire
concentric
axial
shaping
rogue
oversees
misdemeanors
rails
rican
##nals
isos
chunk
##acola
unopened
unanim
tris
preterm
funnel
romney
tonne
jumped
pouring
vacuole
ambassador
disregard
fumes
amuse
eighteenth
lockheed
owes
475
bushel
conclude
adolescence
frustrating
bennett
sacrific
drow
roan
quickest
ample
1871
cravings
rebecca
rms
tp
##date
##itin
##erectomy
scared
##encl
diseased
multimedia
farmland
cowboy
redirects
antihistamine
uptake
ischemia
##unted
sys
mankind
milestone
guill
downey
weegy
writings
psychotic
ftp
dvi
inclined
semicon
gaz
nino
##uated
##enta
##amily
counters
graded
590
1887
stranger
maneuver
honeysuckle
efore
##leck
notified
##quel
landmarks
quickbooks
fitbit
rounding
borax
analogous
pesto
manipulate
energies
perfume
uncontroll
gothic
lopez
cess
doodle
hough
lah
##81
##oub
##andy
perspectives
hyst
antim
westminster
advising
40s
electrically
dysph
horsesh
uniforms
landscapes
lamar
margarine
crunchy
pedestrian
inequality
alaskan
forage
leases
noting
abil
opal
cori
continuation
illusion
mailbox
companions
dysfunctional
conceive
disintegr
pensacola
tasmania
nonsteroidal
tion
forks
trimmed
clash
twelf
insign
curds
conditioned
hawks
ionizing
fractured
crustace
clayton
meninges
crestor
claudication
##authorized
mthfr
nicaragua
tigr
##97
canary
trio
##quart
micropolitan
midline
vaginosis
1857
envelopes
joshua
reinforcement
asbestos
ffa
stellar
##season
feas
scopes
1830
guild
maternity
perfection
assigns
crochet
siamese
unofficial
madagascar
820
io
nie
foref
chant
unborn
##anti
expun
speculation
classifying
226
pasteur
textured
rotavirus
rented
crowned
warranties
crashed
linguistics
##semble
unprot
asymptomatic
twelfth
bals
##gow
##wal
##82
chattan
pri
trays
carne
redress
redund
corrid
stepped
217
231
ohm
glycol
submarine
aura
nab
token
##idium
indul
##english
profiling
seneca
burrow
displaced
844
lexus
bitcoins
radicals
grooming
encrypt
010
##oula
##ingham
##stan
aval
corneal
illeg
bounce
migrant
nal
pits
sands
##lake
##inas
exits
genera
steer
##holm
camden
stimulants
fertilize
rosie
otitis
kimber
##luence
scottsdale
cyprus
##dling
##jay
##utonic
##imer
enthal
grinder
invites
goodbye
capone
throt
scotia
reconcil
rp
tina
tapping
##rt
nother
declines
hump
harold
hemolytic
axillary
mammoth
1875
pinto
advisable
cpi
peeled
minted
quizlet
synthesize
veterinarians
submerg
nonspecific
##otechnology
dunes
msa
xls
##apl
perimen
argan
pharyngitis
evap
hemochromatosis
drawer
trainers
inspiring
chattanooga
940
aed
cors
ji
jill
v6
##just
##urge
manit
drastically
phara
##keep
##osexual
##igna
##onds
proving
superb
##erville
##ogenes
equivalents
exported
1846
knights
cappuccino
ymptoms
970
fins
tud
##homes
##loe
constraints
eden
browning
00am
complexes
relaxes
subsidiaries
theoretically
sewage
zurich
##91
##1c
##ricting
enduring
plea
blueprint
webpage
ringing
journals
##ews
imperfect
screwdriver
pixel
throttle
pax
betty
imprint
socio
fret
retirees
snowy
captures
replica
reciprocal
symmetrical
coupe
choroid
ceremonies
dongle
##verified
exem
pledge
filip
wwii
fundra
shedding
ubiqu
duodenal
buddhism
bilt
dau
lakers
andreas
overp
greenish
teller
exercised
passwords
satisfying
casualties
substituted
collarbone
gecko
allentown
straining
warned
glam
345
dispose
hypocal
initials
floats
attendant
scarce
##uterol
polysaccharides
fierce
m3
##anders
##icking
dietitian
hamburg
felonies
hypn
adopting
scratching
cassidy
benzodiazepine
wmv
zulu
##hd
##n1
alias
shame
spayed
myri
insulated
slash
garban
glucagon
herbivores
decoration
fiduc
thrombocy
hibiscus
bulletin
cpe
pere
##cock
##esburg
amanda
brighter
264
mildly
jeremy
cellulitis
sylls
nato
##oderma
nagasaki
encoded
thiamine
##ophilus
jumbo
arbitrary
centrally
dia
tout
##hum
fles
intric
quinn
glute
ego
affiliation
rotten
mathematic
steamer
hemispheres
concurrent
carlsbad
paroxysmal
jos
##omi
asus
unite
sox
remot
banker
##ivalent
neuter
intracellular
casualty
alley
blows
intang
expelled
slugs
classics
restoring
bulim
blogs
accumulates
revealing
##roglycer
niche
symphony
mirrors
fuck
pics
##made
##kets
##fill
consulate
##immers
interchangeable
undergone
abolition
##yah
beware
##osec
monso
sweeter
262
inhale
thicken
budgeting
oneself
ligation
kenneth
supervisory
emotionally
preservative
galveston
tinn
##iens
##kw
##inally
##onoids
beams
silt
295
baton
discovering
resistor
executable
marriages
pears
luxem
buckle
transmitter
subdural
dystrophy
dawson
penguins
multinational
triumph
urinalysis
lm
##oro
##idia
amer
##intosh
joey
biking
identifiable
proposals
bathing
throats
mdma
observes
ellis
tortillas
masks
tweets
artifacts
dich
##hid
##mental
pric
cleaners
##afta
sweets
429
temples
akron
armpit
congratulations
boll
##lear
spite
swear
##brain
##iker
granting
beautifully
seedless
legislatures
saras
jurors
warsaw
1872
affiliates
mentor
clearinghouse
bibliography
exempl
##omandibular
compilation
carving
expans
decks
naturalization
233
estimator
matcha
certifications
brightest
rebel
foreclosures
honestly
gul
##rill
##kok
##start
##eminal
##ocious
trending
##ipated
flock
humanities
269
denotation
sweetness
uncondition
1854
pups
styling
antiviral
asheville
##isciplinary
##quartile
anabolic
##urized
##ostatic
nob
attained
archaic
iodide
alteration
sparkling
glossy
stalin
coagulation
galactose
jem
pku
##vest
##elt
remn
crete
colleg
methicillin
concise
caroline
attaching
prolif
extinguishers
lethar
degradation
polypeptide
dare
footh
abridged
ameth
depleted
transpar
##ventricular
nonin
219
sleepiness
feared
facilitates
interferes
proprietors
tinnitus
bakers
lively
##actin
curv
signify
triph
neutrop
crowns
azim
brushes
shingle
townships
viscous
compromised
reverso
percocet
quadriceps
spondylosis
##math
##kj
##anous
disaccharide
driest
suns
surfing
cuticle
##ophone
##bey
raf
##appy
guiding
hoos
extras
transitions
orbitals
megabyte
commodities
##etermined
fasciitis
hysterectomy
fleshy
gle
hilar
omb
chard
atrio
##opin
temperament
##ontract
delib
launches
##ophan
competent
grassroots
scotch
astronomers
resigned
bisect
930
##cro
itin
pey
steph
motel
##uffles
nitroglycer
borderline
1888
exceptionally
tensile
excavated
scabies
hypercalcemia
upscale
cfr
zach
##arus
##otion
deod
unpre
unauthorized
amalg
grimm
consort
emits
emuls
connor
213
bushes
adviser
sardines
physicist
macrophages
strenuous
pharaoh
phe
pronation
coasts
shelters
leslie
dermal
1837
jamestown
pistol
cherries
manifestation
bromine
ludwig
vantage
cardiomyopathy
7g
spam
intram
interquartile
##hydrate
yellowing
owing
rulers
aliens
inaccurate
hive
pors
wau
##cream
##illery
pry
psycho
puree
##glom
fuzz
transfusion
##nutrition
gregor
voyager
apprentice
conspiracy
3s
dana
kane
##kit
guer
refining
antacids
281
sanit
collide
336
elevate
plato
bingham
prophet
shepherds
vand
##tice
reag
##ivities
scrot
blueberry
domingo
papaya
suspicious
tanning
coinsurance
suspects
##phenidate
flickr
verdict
bonsai
eosin
rda
##dog
clump
##ounters
infused
impart
regain
babylon
breaths
fingert
rhiz
rodr
1879
##oven
##dm
exxon
spay
evangel
landline
starving
223
stacked
subdivided
mendel
mckinley
670
hutch
iber
##inia
disgu
standalone
headlines
majestic
integers
emergencies
administering
accomplishments
imbalances
870
balk
##bilt
##°w
##itos
useless
arb
grained
##ievable
##nee
controllers
tropics
scaly
instructors
irrational
arsenic
diatoms
eternal
rift
##vale
##ente
strained
afterward
centres
paych
slipp
equates
##oka
##esha
movable
psychosis
encounters
competitor
handsome
beaten
disappears
bargaining
penetration
bury
kard
pouches
sach
tat
##oded
atms
##ereal
drank
drills
flames
mocha
securing
milliliter
227
ceil
embark
dandruff
simmons
blurry
ciliary
ek
jaco
kell
##reet
plush
##apine
##lude
##places
researched
hairy
personalities
positional
239
brownish
philanthrop
##charges
##appa
trigeminal
owen
proudly
casserole
c6
##cum
##gean
chen
deletion
##acking
quilt
##owski
starters
swab
swahili
##aires
malay
doesnt
stocking
tenancy
555
miranda
shocking
whitening
brewer
turbines
rivals
snapping
enchant
diagonal
##feed
##alds
sein
##ancer
slav
depended
cleav
##inae
statins
landsl
##iko
29th
grandparent
angela
tracts
surveyed
1859
transcribed
hogs
thymus
exerted
overlooking
horseshoe
garbanzo
ferg
yose
##stro
seo
metrics
##roller
sharps
renewing
ought
recurrence
patchy
encryption
restraint
pembro
amethyst
scrotum
grief
marl
##uccess
corv
refine
lawful
specials
burnett
divis
lobsters
theatrical
transmitting
antifungal
phonetic
eople
wig
##ragon
##ºc
##ete
amd
##ieg
cerebr
sealer
dizzy
spontaneously
diplomatic
glycosidic
chancell
kro
ras
##alu
##ombo
neal
uncl
justify
filename
headset
chees
##roduction
pickles
ecg
richardson
bombing
misdiagn
hubbard
sibling
tsunamis
reputable
##fi
##style
spoof
carmel
boating
##issible
electroph
primates
249
freeman
armenian
granular
prophyl
antarctic
mosaic
azimuth
dus
fn
ood
porn
sizing
##fir
##idase
canopy
shout
##opathic
clove
compelling
dissem
##luded
caut
relo
glendale
vitro
liverpool
denzel
propell
excessively
hamstring
hopper
##oplastic
neutralize
toasted
##cloth
acknowledged
yucatan
fences
nano
##anum
atv
addams
autobi
protections
1777
evolving
ceph
atrioventricular
nder
pune
##hh
plent
##uretic
finn
confluence
autotrophs
freest
billionaire
interpreting
aegean
reunion
canadians
capricorn
sockets
##lite
##endum
inflic
##uga
herring
textures
glucos
crawling
diminished
bulimia
erit
pcr
##fan
brood
disorderly
respirator
cayenne
lonely
gifted
fannie
superintendent
sow
sult
##odox
selections
##coat
mauna
irving
encaps
fossa
disinfectant
arrhythmias
illuminated
onfidence
a4
viz
##houn
##uction
##bread
hepar
mare
afferent
directive
balloons
charlott
narrows
composers
pandas
stinging
yrs
##data
##enstein
middles
malta
sectional
385
hurdle
sedative
chiefs
publishes
possessive
discarded
glasgow
cigna
hanks
tia
waxy
recap
parole
relieved
augment
middleton
mgm
pulses
tailored
1891
1781
inspiron
stephanie
plentiful
cumin
mocking
##bet
alad
peaches
0000
deced
retweet
deviations
performers
burbank
remembering
athena
msrp
1881
waxing
geographically
pensions
encompassing
##oblastic
hibernate
macromolecules
hypocalcemia
dime
pian
wad
##hall
semit
compose
presently
invari
eleanor
debated
christine
palat
bluish
sheldon
prosth
hiatal
mesopotamia
adorable
proct
unrest
wasp
242
superstar
silly
magnolia
##101
explorers
vomit
agonists
cerebrum
fot
inception
##amol
unise
##bras
turkeys
puls
scientifically
beyonce
intrig
electrodes
endometrium
indonesian
resignation
##partum
microtubules
regurgitation
amusement
yosemite
##eg
##hl
##500
manor
##lectasis
regiment
nonres
voluntarily
technologist
midland
midpoint
211
preventable
capitalism
revocable
outputs
oxidative
inhibition
gemini
ninety
evaporates
diverticula
jenny
delegate
penguin
nitroglycerin
cate
hock
ileum
##cn
##nels
##enos
##acare
caret
brav
tyros
discol
ipv
flatulence
pearson
sadness
freddie
manifestations
wrestler
enthusiasm
##colm
myriad
aper
dude
dba
##bite
##omics
tracy
indies
overth
saver
distur
cardinals
252
irres
campground
albuterol
selfie
##banks
tuned
##ophytes
vacuoles
drummer
expedited
scandinavia
inevitable
enthalpy
cleavage
jeter
merm
oman
##iative
##gender
##vate
##omac
##ilian
amoe
flutter
pox
cores
radiate
popularized
excuse
garcia
vertebrate
anesthesi
binder
joule
custodial
luxembourg
ceilings
arose
jello
nina
stacy
postpartum
footwear
405
waff
afflic
formatted
ridicul
battlefield
nicely
dosages
criterion
boroughs
carrie
scripting
##mare
##beth
##otal
##irs
alc
##aind
acs
commas
crib
stride
refere
modifying
404
##shell
##markets
aided
829
constructing
olympia
swallowed
adrenaline
faithful
jamaican
belgian
taxonomic
stubborn
gator
kraft
##mies
##ulents
deuts
calming
monuments
ours
testimony
solomon
402
electrician
michel
fairview
cdps
emergence
hdtv
immunization
audioenglish
aspiring
cyclone
bronchial
subcontract
golfer
succulents
ambulance
amortization
foramen
intangible
cg
coul
rage
##urop
##oly
ort
proverb
peat
delir
deliber
kidman
tuft
carte
molding
spinner
prefers
interpersonal
deformity
thrombocytop
412
##uates
##itous
##quest
##ource
kne
##obac
balcon
malcolm
328
ovens
dreaming
ssris
1783
pharmacists
equatorial
nicotinic
tetracy
dp
klon
sask
##leton
##opo
prized
mayan
keg
##gener
trev
pennies
allegh
stuffing
##orphine
crusades
jogging
chilled
##acial
lec
leva
willis
manure
##avian
afro
myco
presynaptic
engages
civilians
torr
tapes
molded
bells
##handle
abrasive
gonadotropin
acupuncture
sarasota
pembroke
cmp
oedema
##yo
comet
unear
empathy
chemo
sleepy
alcoholics
executor
##ambia
coughs
challenger
unsuccess
metallica
leftovers
efferent
prejudice
fiduciary
070
homic
##gly
##dlet
##fied
abu
calhoun
mons
mona
downtime
##alexin
stepping
feeders
deadlines
dissolution
knowledgeable
habitable
7000
dilate
saga
atelectasis
sponsorship
multiplication
lightheadedness
barclays
perimenopause
boun
##orem
inbox
clint
##soil
typed
headers
323
thyroiditis
circulates
carbide
exertion
sicily
colloquially
vhf
bends
hooks
##oupe
##iously
curios
conversations
415
declaring
prolific
bangkok
nesting
formulations
reimburs
awaiting
tributaries
endorsed
antiseptic
unprotected
mx
nst
anhydr
scots
marian
replied
booklet
malnutrition
adjusts
mmol
hyponyms
compensated
bacillus
scaling
innovations
analogy
hinduism
tilted
chorionic
dances
pisa
##erel
##uron
spiny
parity
proves
humph
superst
288
multiplayer
louie
criminals
queue
drafting
1858
distinguishes
vicinity
ganglion
approximation
centromere
##osters
amu
##avan
scanned
bets
##ressed
1894
flee
##deen
voicem
lubricant
prospectus
succulent
spartan
gourmet
transparency
gore
v8
£2
##rano
##əl
##asus
##allax
cares
repository
getaway
sheen
contractual
purchaser
propon
discoveries
syndromes
targeting
corona
1845
duplex
enhancement
meadows
prerequisite
aladdin
gins
lids
defending
transplants
302
checkout
augmentation
tonnes
supplementation
bureaus
furnaces
1886
stratford
undertaken
chelsea
registrar
somerset
collegiate
davy
wn
threw
##opram
scor
endocard
##ashi
cyclic
263
##liner
334
hypothes
790
scalar
adrenergic
alphabetically
taj
assassinated
suvs
encoding
subunit
remotely
klonopin
levaquin
pung
weas
airf
payer
treatable
slabs
contraind
angios
carbonated
screened
sonoma
525
kitchens
repealed
padding
sedimentation
tmz
##otrophic
heredity
sovereignty
presumably
peso
vanderbilt
hmo
##wers
##vier
deity
coiled
quarks
symptomatic
originals
##osteroid
respects
nomencl
gorilla
delegated
phospholipids
vall
##93
##orical
##uli
##axia
marinate
curd
informational
autoc
armour
318
sqft
1809
hatched
radiating
preserves
tolerated
chipotle
snapshot
liqueur
refurbished
ucla
unisex
aus
zolo
##mn
framed
simulation
##anyl
packers
hyde
236
semesters
##iquette
commissioners
ketone
1877
satisfactory
vocalist
porsche
zoloft
gats
##tors
oft
whirl
beech
aragon
pep
##iversity
immort
presentations
erin
##zyme
vegans
wilkes
wetlands
ssl
alterations
reflexes
huntsville
submerged
seinfeld
040
spp
vc
xer
##idazole
shang
shannon
nex
##osyn
unilateral
pril
triceps
helena
parallax
181
millimeter
barium
tarragon
pitched
morphology
anchors
orthodontist
chakra
wrangler
aet
chacha
##istine
##oprim
##ivore
disabling
countdown
helmet
kepp
elbows
bothers
titans
teresa
micha
circa
permissions
neuralgia
contestant
bourbon
##hidrosis
gild
jock
whist
tren
clitor
1821
datas
jacks
furnish
commentary
israeli
hippo
analyses
benedict
ausp
tann
##bies
##itating
shaving
unac
coen
impet
obt
253
##plan
universally
staten
understands
stomatitis
palette
wishing
visualize
bolivia
resembl
protestant
contingent
retardation
scissors
retweeted
##lit
##onder
##ithromycin
##omegaly
megal
minn
malle
doub
britt
294
##ottis
vagus
indexes
347
acetone
1851
postsynaptic
cayman
quarry
muffins
tryptophan
rite
sparks
thriving
balm
nucleolus
eighty
veneers
disturbed
duplicated
mysteries
xanthan
charlottesville
kom
sack
##electric
##lay
##stad
stree
reel
##utable
##abl
blending
intert
locus
locomot
aftermarket
surcharge
detectors
2000s
famously
nervousness
branching
bleaching
supervisors
lakh
##cenames
paychecks
gist
mock
##hanna
##irk
bash
milestones
signatures
30pm
headphones
microp
supermarkets
pitt
narrower
gangster
hematocrit
pronouncenames
adhesion
gregory
bernardino
mollusks
caverns
##rals
##arium
##icitis
##images
crad
warp
swans
potomac
arrests
322
violated
sedona
allegi
neurogenic
numerator
decking
pigmentation
##anthin
disadvantage
backspl
biltmore
feral
##city
##hang
##utation
fram
pew
transp
curse
equifax
histories
steaming
discern
sumter
textbooks
christina
##celes
photosynthetic
silicate
##oriatic
myeloid
##razolam
pirate
struggles
rattlesnakes
freestanding
maven
##moid
##urr
prizes
flange
scav
rooster
runoff
psoriatic
arterios
321
pinn
seedlings
hoped
hoff
##ococci
##iflu
buddhist
laughing
cephalosporin
streep
cory
dion
ripp
wp
noel
diem
selectively
garnet
penelope
exclamation
calendars
impressed
squeezing
cremated
summarizes
chronological
inaugural
unconstitutional
macy
woke
##hurst
spacious
proto
1750
cyrus
acidosis
sensing
##inoids
judy
buttercream
rodent
pancakes
hillsborough
pierre
evaporate
deficits
whisper
embrace
joc
##hog
##mob
##fits
##alism
reju
clair
cures
endings
goodness
windpipe
squats
advises
eaters
keyboards
cdt
mca
dialed
randy
ltv
subtypes
curvature
akin
dice
ether
xe
##ciations
##yb
##loo
seah
byz
prong
colloid
quo
kinda
penit
tracked
failures
undoub
radiates
foxes
detoxification
smoother
nomenclature
nco
riley
##yd
thur
##eda
seab
##apentin
##quir
gua
brainstem
tarry
potentials
plugin
temporomandibular
dysplasia
##junct
##nik
##arming
##icer
quail
minh
basins
playback
financed
kicked
proclaimed
corticosteroid
spoilers
siege
subaru
antipsychotic
paranoid
corridor
lust
mish
wap
carriage
evan
informally
251
312
peaked
transforms
kenny
prophase
ineffective
rattlesnake
kardash
decedent
nah
sik
##mate
##lists
alters
shields
oneida
braid
cranks
##ondo
centrif
famil
edgar
wrists
accessibility
constructive
instructed
mentions
uploaded
indemnity
jedi
kara
##around
##chs
unab
curtis
equine
plex
hemophilia
motorola
1803
rebate
1790
efc
orbiting
conceal
catering
plankton
papillom
chiropractic
fitzg
paved
rents
tant
##zar
thu
##atis
##elic
##odo
##osi
##ishi
moj
interlock
diaper
tempered
corral
sideways
307
257
westchester
botany
jeopard
camille
polyethylene
disclose
bracelets
sebaceous
cardiologist
3x
nps
tou
forex
ores
##imar
##adata
unsc
relational
prescott
centimetres
panhandle
##working
tubs
translator
murders
fingernail
apprentices
hypoxia
gatsby
mcle
rus
wim
tok
prague
mononucle
implements
buoy
##new
elective
opm
legged
liberation
piper
dispersal
pompe
millennials
repellent
undoubted
henson
##obs
##rase
##olas
##opath
peb
transgender
imdb
ulna
vacant
cease
rhod
647
mccart
obstacles
shadows
dorothy
geckos
##ocortic
fx
hba
nits
xamp
##year
##arius
##ostal
##antan
##athom
imac
sling
accountable
radicul
rockies
digesting
nitrates
rosal
threaded
reforms
geranium
interacts
alprazolam
incompat
inspected
michaels
awhile
d3
##icrob
unfor
allan
medline
keeper
sprained
##letons
272
##alde
convictions
shutdown
sorcer
seventy
chimpan
spokesman
surpassed
triphosphate
resemblance
hays
jop
pore
##fold
stance
flake
quaker
defenses
curtains
solutes
clicks
landforms
excurs
sleek
swept
lakewood
ovule
##ofloxacin
halls
refrigerant
hurry
pronunciations
guyana
worsens
squeezed
paternal
archaea
odyssey
replenish
catapult
firefighters
hf
##bach
ani
shady
bliss
##anya
stealth
activating
teamwork
itemize
polymorph
talents
jurassic
emptying
##aspin
bradycardia
optimized
hierarch
laparoscopic
pyruvate
crustaceans
keppra
boca
fb
luster
##stery
reuse
poets
occip
baron
motrin
gardner
395
veggie
advertise
sprayed
baccala
ferns
##cephalus
intimid
housewives
curiosity
tue
##eson
scc
newcom
##inker
facto
nymph
outlaw
picturesque
gonz
cytoplasmic
slovenia
##eto
infest
bethel
empties
finer
##etimes
rockets
317
collier
acceptor
hangs
grammatical
unwind
rigidity
hydroxyl
metaphysical
regeneration
brochure
mycobacter
fitzgerald
910
bau
bates
cilant
ih
##will
specifying
parvo
avid
constr
##cliff
geo
johnston
awful
roseanne
785
worsening
pentagon
demolition
tandem
jacobs
dha
kum
mog
utop
##olum
comor
##uson
carc
scare
relievers
decis
248
centralized
nightmare
domino
libra
misuse
lymphoid
granulated
ssd
pillows
1874
sailed
snapchat
gabapentin
methylphenidate
witnessed
exponent
blossoms
monsoon
undoubtedly
1b
natives
qing
##kh
##anx
##sticks
accus
dipped
miner
redox
backgrounds
slips
condol
keystone
mcgr
vanessa
nonex
neurology
phlegm
sutures
krebs
glutamate
polysaccharide
elliott
sanctuary
heparin
3m
cac
kab
vl
##dock
stard
bye
aftermath
purse
clears
characterised
priorities
chestnut
committing
robots
purebred
polarity
retrieved
faucets
deterioration
cau
oasis
pda
paving
renn
suction
tres
cloning
reluct
tester
periodontal
finnish
convergence
##beit
cambr
adjunct
distributes
##ianswers
thermometers
rowling
737
quotations
hemorrhagic
alexandra
coyotes
aesth
irrevers
pectoral
sponges
robbery
eritrea
cilantro
bored
g1
##free
stear
plots
compiler
buttern
##atham
tempe
temps
biotechnology
immense
slowed
frankf
777
718
smithson
navigator
inverted
rechargeable
amarillo
octopus
nafta
wc
cantal
truss
##ardo
407
structurally
prescribing
captive
sleeves
nephew
progestin
announcing
maurit
biscuits
karyotype
immobil
chunky
impingement
kas
rca
conrad
##ureth
flaming
intl
stripped
regener
provo
apocal
mods
standby
##anche
455
iceberg
enjoyment
432
lactobac
pearls
##comed
artificially
dermatology
seaside
harrisburg
trichomon
klein
peritoneal
revelation
cytokinesis
##tons
##law
##olite
chai
acrom
##ologue
schooling
goldman
bitten
##rospective
pyg
phenol
economist
lagos
gorillas
tamar
##azepine
bruno
tdap
desperate
voicemail
gels
jung
kcal
mould
##gang
##entiary
sto
unr
##drive
freud
hunted
355
morg
macbeth
distributors
palest
junctions
##glass
katrina
sophia
bulldog
rhymes
cary
mats
poc
tpo
stony
##chment
fronts
atten
resur
rox
##erican
payout
informative
metron
antith
sund
##bob
branched
uncut
ivan
escaped
reciproc
vapour
peritoneum
plaques
dolomite
prisons
leop
branson
##ignment
prese
conditioners
stockholm
derivation
adapters
grassland
##glia
illustrations
compulsory
intensify
conjugate
colloquial
antiquity
schengen
rejuven
banc
hann
npt
tl
overst
countable
maize
austrian
324
directional
##untu
powershell
extrac
predictor
trojan
levofloxacin
excavation
chaos
fayetteville
lichen
hypersensitivity
deltoid
organisations
antimicrob
##eus
##rings
reheat
seuss
flaps
coa
peels
depletion
soles
259
potency
advancing
risper
countryside
summons
petr
peterson
uncomp
tongs
fuji
declares
triglyceride
forbidden
innocence
cts
ean
fus
gst
gand
pia
shah
##unc
##ounding
coaster
depolar
eva
environmentally
357
transforming
sorting
690
##space
diphen
maurice
cheetahs
catastrophic
auck
cog
lore
nib
tau
##yy
##gments
##omotive
spf
skit
saul
wellington
invo
##formed
504
garages
archety
regulators
triad
dressings
thorax
outdated
ambulatory
cephalexin
disturbing
##aspinatus
eater
##lash
##uler
##agos
worries
##weigh
oprah
creole
autosomes
demi
##rette
creators
woodlands
pathological
deleting
cornerstone
spraying
cushions
##oproteins
##matism
crocodile
anticoagulant
auckland
leds
pab
tis
##ongest
##ishable
westfield
baltic
richland
debbie
237
316
366
welcoming
throb
throws
1847
levied
glycerol
kreme
microbial
zombie
anesthet
fas
fow
prod
10g
relieves
airflow
##insured
suppression
estrus
creme
##swana
showtime
laos
wikianswers
yeasts
rebuilt
##aldehyde
butternut
kun
toppings
reop
##chee
wegener
detrim
modifiers
evenings
showc
confront
negro
replacements
inground
laguna
1900s
archaeological
bizarre
kangaroo
yolks
undesirable
roanoke
unaccept
411
kron
nava
##ycles
canines
##artz
##qua
whoever
listened
contral
##arseness
skinless
potting
insurers
entertaining
surgically
premen
313
##123
otto
respondents
##smith
possessing
binomial
precedent
cobb
intolerant
neutrophil
unreli
spheres
tranquil
monopoly
fingertips
baccalaure
aap
hath
jak
mumps
conglom
heft
trapping
spun
flatter
##ensen
underway
justified
obam
publ
wordpress
406
turp
lyft
approached
tossed
##ocentesis
upholstery
uncontrollable
middlesex
eau
t1
##taking
congreg
daycare
marqu
photon
projector
wallpaper
versatility
dani
dictate
phillip
cohes
penetrating
aisle
##lifting
bj
tf
